{
  "version": 3,
  "type": "purple-bee-bytelevel-bpe",
  "vocab_size_limit": 32000,
  "backend": "huggingface-tokenizers",
  "special_tokens": {
    "<pad>": 0,
    "<bos>": 1,
    "<eos>": 2,
    "<unk>": 3
  },
  "hf_tokenizer_json": {
    "version": "1.0",
    "truncation": null,
    "padding": null,
    "added_tokens": [
      {
        "id": 0,
        "content": "<pad>",
        "single_word": false,
        "lstrip": false,
        "rstrip": false,
        "normalized": false,
        "special": true
      },
      {
        "id": 1,
        "content": "<bos>",
        "single_word": false,
        "lstrip": false,
        "rstrip": false,
        "normalized": false,
        "special": true
      },
      {
        "id": 2,
        "content": "<eos>",
        "single_word": false,
        "lstrip": false,
        "rstrip": false,
        "normalized": false,
        "special": true
      },
      {
        "id": 3,
        "content": "<unk>",
        "single_word": false,
        "lstrip": false,
        "rstrip": false,
        "normalized": false,
        "special": true
      }
    ],
    "normalizer": {
      "type": "Sequence",
      "normalizers": [
        {
          "type": "NFKC"
        }
      ]
    },
    "pre_tokenizer": {
      "type": "ByteLevel",
      "add_prefix_space": false,
      "trim_offsets": true,
      "use_regex": true
    },
    "post_processor": null,
    "decoder": {
      "type": "ByteLevel",
      "add_prefix_space": true,
      "trim_offsets": true,
      "use_regex": true
    },
    "model": {
      "type": "BPE",
      "dropout": null,
      "unk_token": "<unk>",
      "continuing_subword_prefix": null,
      "end_of_word_suffix": null,
      "fuse_unk": false,
      "byte_fallback": false,
      "ignore_merges": false,
      "vocab": {
        "<pad>": 0,
        "<bos>": 1,
        "<eos>": 2,
        "<unk>": 3,
        "!": 4,
        "\"": 5,
        "#": 6,
        "$": 7,
        "%": 8,
        "&": 9,
        "'": 10,
        "(": 11,
        ")": 12,
        "*": 13,
        "+": 14,
        ",": 15,
        "-": 16,
        ".": 17,
        "/": 18,
        "0": 19,
        "1": 20,
        "2": 21,
        "3": 22,
        "4": 23,
        "5": 24,
        "6": 25,
        "7": 26,
        "8": 27,
        "9": 28,
        ":": 29,
        ";": 30,
        "<": 31,
        "=": 32,
        ">": 33,
        "?": 34,
        "@": 35,
        "A": 36,
        "B": 37,
        "C": 38,
        "D": 39,
        "E": 40,
        "F": 41,
        "G": 42,
        "H": 43,
        "I": 44,
        "J": 45,
        "K": 46,
        "L": 47,
        "M": 48,
        "N": 49,
        "O": 50,
        "P": 51,
        "Q": 52,
        "R": 53,
        "S": 54,
        "T": 55,
        "U": 56,
        "V": 57,
        "W": 58,
        "X": 59,
        "Y": 60,
        "Z": 61,
        "[": 62,
        "\\": 63,
        "]": 64,
        "^": 65,
        "_": 66,
        "`": 67,
        "a": 68,
        "b": 69,
        "c": 70,
        "d": 71,
        "e": 72,
        "f": 73,
        "g": 74,
        "h": 75,
        "i": 76,
        "j": 77,
        "k": 78,
        "l": 79,
        "m": 80,
        "n": 81,
        "o": 82,
        "p": 83,
        "q": 84,
        "r": 85,
        "s": 86,
        "t": 87,
        "u": 88,
        "v": 89,
        "w": 90,
        "x": 91,
        "y": 92,
        "z": 93,
        "{": 94,
        "|": 95,
        "}": 96,
        "~": 97,
        "¡": 98,
        "¢": 99,
        "£": 100,
        "¤": 101,
        "¥": 102,
        "¦": 103,
        "§": 104,
        "¨": 105,
        "©": 106,
        "ª": 107,
        "«": 108,
        "¬": 109,
        "®": 110,
        "¯": 111,
        "°": 112,
        "±": 113,
        "²": 114,
        "³": 115,
        "´": 116,
        "µ": 117,
        "¶": 118,
        "·": 119,
        "¸": 120,
        "¹": 121,
        "º": 122,
        "»": 123,
        "¼": 124,
        "½": 125,
        "¾": 126,
        "¿": 127,
        "À": 128,
        "Á": 129,
        "Â": 130,
        "Ã": 131,
        "Ä": 132,
        "Å": 133,
        "Æ": 134,
        "Ç": 135,
        "È": 136,
        "É": 137,
        "Ê": 138,
        "Ë": 139,
        "Ì": 140,
        "Í": 141,
        "Î": 142,
        "Ï": 143,
        "Ð": 144,
        "Ñ": 145,
        "Ò": 146,
        "Ó": 147,
        "Ô": 148,
        "Õ": 149,
        "Ö": 150,
        "×": 151,
        "Ø": 152,
        "Ù": 153,
        "Ú": 154,
        "Û": 155,
        "Ü": 156,
        "Ý": 157,
        "Þ": 158,
        "ß": 159,
        "à": 160,
        "á": 161,
        "â": 162,
        "ã": 163,
        "ä": 164,
        "å": 165,
        "æ": 166,
        "ç": 167,
        "è": 168,
        "é": 169,
        "ê": 170,
        "ë": 171,
        "ì": 172,
        "í": 173,
        "î": 174,
        "ï": 175,
        "ð": 176,
        "ñ": 177,
        "ò": 178,
        "ó": 179,
        "ô": 180,
        "õ": 181,
        "ö": 182,
        "÷": 183,
        "ø": 184,
        "ù": 185,
        "ú": 186,
        "û": 187,
        "ü": 188,
        "ý": 189,
        "þ": 190,
        "ÿ": 191,
        "Ā": 192,
        "ā": 193,
        "Ă": 194,
        "ă": 195,
        "Ą": 196,
        "ą": 197,
        "Ć": 198,
        "ć": 199,
        "Ĉ": 200,
        "ĉ": 201,
        "Ċ": 202,
        "ċ": 203,
        "Č": 204,
        "č": 205,
        "Ď": 206,
        "ď": 207,
        "Đ": 208,
        "đ": 209,
        "Ē": 210,
        "ē": 211,
        "Ĕ": 212,
        "ĕ": 213,
        "Ė": 214,
        "ė": 215,
        "Ę": 216,
        "ę": 217,
        "Ě": 218,
        "ě": 219,
        "Ĝ": 220,
        "ĝ": 221,
        "Ğ": 222,
        "ğ": 223,
        "Ġ": 224,
        "ġ": 225,
        "Ģ": 226,
        "ģ": 227,
        "Ĥ": 228,
        "ĥ": 229,
        "Ħ": 230,
        "ħ": 231,
        "Ĩ": 232,
        "ĩ": 233,
        "Ī": 234,
        "ī": 235,
        "Ĭ": 236,
        "ĭ": 237,
        "Į": 238,
        "į": 239,
        "İ": 240,
        "ı": 241,
        "Ĳ": 242,
        "ĳ": 243,
        "Ĵ": 244,
        "ĵ": 245,
        "Ķ": 246,
        "ķ": 247,
        "ĸ": 248,
        "Ĺ": 249,
        "ĺ": 250,
        "Ļ": 251,
        "ļ": 252,
        "Ľ": 253,
        "ľ": 254,
        "Ŀ": 255,
        "ŀ": 256,
        "Ł": 257,
        "ł": 258,
        "Ń": 259,
        "Ġì": 260,
        "Ġë": 261,
        "íķ": 262,
        "ìĿ": 263,
        "st": 264,
        "an": 265,
        "Ġê": 266,
        "er": 267,
        "´ì": 268,
        "ser": 269,
        "ê²": 270,
        "ê²Į": 271,
        "Ġë§": 272,
        "ct": 273,
        "ant": 274,
        "ss": 275,
        "Ass": 276,
        "User": 277,
        "ist": 278,
        "Assist": 279,
        "Assistant": 280,
        "ëĬ": 281,
        "íķĺ": 282,
        "ê³": 283,
        "ĸ´": 284,
        "on": 285,
        "ion": 286,
        "ction": 287,
        "In": 288,
        "ru": 289,
        "stru": 290,
        "Instru": 291,
        "Instruction": 292,
        "ëĬĶ": 293,
        "ë¡": 294,
        "Ġìŀ": 295,
        "ĠìĿ": 296,
        "ìķ": 297,
        "ìĸ´": 298,
        "ë¡ľ": 299,
        "ìĿ´": 300,
        "Ġt": 301,
        "re": 302,
        "ly": 303,
        "Ġë§Ĳ": 304,
        "Ġë°": 305,
        "ê³ł": 306,
        "§Ģ": 307,
        "ĭ¤": 308,
        "Ġí": 309,
        "ìĹ": 310,
        "íķľ": 311,
        "ıĦ": 312,
        "ê¸": 313,
        "Ġê°": 314,
        "at": 315,
        "in": 316,
        "ë¥": 317,
        "Ġìł": 318,
        "le": 319,
        "ê°": 320,
        "ìĿĦ": 321,
        "Ġìķ": 322,
        "ur": 323,
        "Ġan": 324,
        "ìł": 325,
        "ro": 326,
        "he": 327,
        "Ġm": 328,
        "ìĿĢ": 329,
        "Ġs": 330,
        "Ġa": 331,
        "Ġand": 332,
        "en": 333,
        "ëıĦ": 334,
        "Ġl": 335,
        "Ġthe": 336,
        "¤ĺ": 337,
        "¤ë": 338,
        "ĠìŀĪ": 339,
        "íķ´ì": 340,
        "ëĤ": 341,
        "Ħľ": 342,
        "ìĭ": 343,
        "ë¦": 344,
        "ìķĦ": 345,
        "ì§Ģ": 346,
        "Īĺ": 347,
        "ëĭ¤": 348,
        "Ġëĭ": 349,
        "©´": 350,
        "Ġì§": 351,
        "ë©´": 352,
        "Ġëį": 353,
        "íķł": 354,
        "íķ´": 355,
        "ë¥¼": 356,
        "ĠìĪĺ": 357,
        "¬¸": 358,
        "ë³": 359,
        "ìĹĲ": 360,
        "ê°Ģ": 361,
        "Īë": 362,
        "Ġìłķ": 363,
        "·¸": 364,
        "ë¦¬": 365,
        "Ġë°Ķ": 366,
        "ìľ": 367,
        "Ġëĭµ": 368,
        "ĠìŀĪìĸ´": 369,
        "ëĤĺ": 370,
        "°ì": 371,
        "ê¸Ī": 372,
        "Ģí": 373,
        "ĠìĿ´ì": 374,
        "ë§": 375,
        "íķ´ì¤ĺ": 376,
        "Ĥ¬": 377,
        "ou": 378,
        "Ġìĺ": 379,
        "Ġd": 380,
        "ĠA": 381,
        "ĠëŃ": 382,
        "ìŀ": 383,
        "Ġê·¸": 384,
        "ĠP": 385,
        "Be": 386,
        "ple": 387,
        "ĠBe": 388,
        "urple": 389,
        "ĠPurple": 390,
        "ĠBee": 391,
        "Ġê°Ļ": 392,
        "Ġë°Ķë¡ľ": 393,
        "ìľ¼": 394,
        "ìĿ´ì": 395,
        "ĠëŃĲ": 396,
        "el": 397,
        "Ġre": 398,
        "es": 399,
        "Ġin": 400,
        "Ġì¢": 401,
        "±°": 402,
        "Ġíķĺ": 403,
        "ĠëįĶ": 404,
        "Ġëĭ¤": 405,
        "ĠY": 406,
        "ge": 407,
        "ĠìĤ¬": 408,
        "íķĺê²Į": 409,
        "Ġíķ": 410,
        "pe": 411,
        "ply": 412,
        "ìļ": 413,
        "Ġn": 414,
        "al": 415,
        "ar": 416,
        "Ġp": 417,
        "ra": 418,
        "ĠR": 419,
        "ire": 420,
        "ctly": 421,
        "atur": 422,
        "Ġdire": 423,
        "Ġnatur": 424,
        "ally": 425,
        "Ġdirectly": 426,
        "Ġnaturally": 427,
        "ex": 428,
        "age": 429,
        "id": 430,
        "Ġu": 431,
        "íķľëĭ¤": 432,
        "Ġas": 433,
        "Ġare": 434,
        "Ġb": 435,
        "ate": 436,
        "ķ¼": 437,
        "ab": 438,
        "am": 439,
        "em": 440,
        "eply": 441,
        "gu": 442,
        "hra": 443,
        "ker": 444,
        "ken": 445,
        "oid": 446,
        "ses": 447,
        "us": 448,
        "void": 449,
        "yst": 450,
        "Ġro": 451,
        "angu": 452,
        "Ġtex": 453,
        "roken": 454,
        "Ġmen": 455,
        "Ġmar": 456,
        "Ġsam": 457,
        "Ġsyst": 458,
        "Ġlab": 459,
        "Ġlangu": 460,
        "ĠAvoid": 461,
        "els": 462,
        "Ġrepe": 463,
        "ĠYou": 464,
        "Ġphra": 465,
        "ĠReply": 466,
        "Ġuser": 467,
        "Ġbroken": 468,
        "ated": 469,
        "kers": 470,
        "Ġrole": 471,
        "Ġtext": 472,
        "Ġmenus": 473,
        "Ġmarkers": 474,
        "Ġsame": 475,
        "Ġsystem": 476,
        "Ġlabels": 477,
        "Ġlanguage": 478,
        "Ġrepeated": 479,
        "Ġphrases": 480,
        "Ġë¶": 481,
        "Ġê³": 482,
        "ìķ¼": 483,
        "ĸ´ì": 484,
        "Ġë³": 485,
        "ê¸°": 486,
        "¤Ħ": 487,
        "Ġì§Ģ": 488,
        "ĠëĤ": 489,
        "ĠìŀĲ": 490,
        "£¼": 491,
        "ìĦľ": 492,
        "ëł": 493,
        "ĠìĽ": 494,
        "ìĭľ": 495,
        "ìľ¼ë¡ľ": 496,
        "ĠìķĮ": 497,
        "ĠëĦ": 498,
        "Ġìłķë¦¬": 499,
        "ªħ": 500,
        "ë¶": 501,
        "Ġë§ŀ": 502,
        "Ġì§§": 503,
        "Ġë¬¸": 504,
        "ĠëĮ": 505,
        "Ħ°": 506,
        "ë§Į": 507,
        "ëŁ": 508,
        "ì²": 509,
        "ĠìĦ": 510,
        "ì¶": 511,
        "½ê²Į": 512,
        "Ġì¢ĭ": 513,
        "Ġê°Ģ": 514,
        "ĠíĮ": 515,
        "¤ëªħ": 516,
        "ê³¼": 517,
        "ĠìĽĲ": 518,
        "ĠìĦ¤ëªħ": 519,
        "Ġê°ĻìĿ´": 520,
        "ĠëĮĢí": 521,
        "Ĭ¤ë": 522,
        "Ġëĭ¤ìĭľ": 523,
        "Ģì": 524,
        "Ġë§Ĳíķ´ì¤ĺ": 525,
        "ìĿ¸": 526,
        "Ġìļ": 527,
        "ìĹ°ì": 528,
        "Ġì§Īë": 529,
        "ĠìŀĲìĹ°ì": 530,
        "Ĭ¤ëŁ": 531,
        "Ġì§Īë¬¸": 532,
        "ĠìŀĲìĹ°ìĬ¤ëŁ": 533,
        "Ġë§ŀì¶": 534,
        "ĻĶ": 535,
        "ìĦ": 536,
        "Ġíķľ": 537,
        "Ķë": 538,
        "íķłê²Į": 539,
        "ìŀĲ": 540,
        "Ġë°ĺ": 541,
        "ing": 542,
        "íķĺëĬĶ": 543,
        "Ġë³´": 544,
        "ìĿ´ìķ¼": 545,
        "Ġì§Ģê¸Ī": 546,
        "ëĭ": 547,
        "Ġë°©": 548,
        "Th": 549,
        "king": 550,
        "inking": 551,
        "Thinking": 552,
        "ĠíĮĮ": 553,
        "íĸ": 554,
        "ìĿ¼": 555,
        "½Ķë": 556,
        "ì¤ĺ": 557,
        "Ġì¢ĭìķĦ": 558,
        "£¼ë©´": 559,
        "ĠìķĦ": 560,
        "ĠìĿ´": 561,
        "µ¬": 562,
        "ê±°": 563,
        "ĠìĹ": 564,
        "Ŀ¼": 565,
        "ĠëıĦ": 566,
        "µìĭ": 567,
        "Ġì½Ķë": 568,
        "ë³¼": 569,
        "ê²ł": 570,
        "ĠëĮĢíĻĶ": 571,
        "ìłģ": 572,
        "ëĿ¼": 573,
        "İ¸": 574,
        "ëŀ": 575,
        "Ġê¸": 576,
        "Ġëı": 577,
        "ĸ´ìĦľ": 578,
        "Ġíİ¸": 579,
        "ìĻ": 580,
        "Ġìĸ": 581,
        "ëł¤": 582,
        "Ġê±°": 583,
        "ĠìŀĲìĹ°ìĬ¤ëŁ½ê²Į": 584,
        "ìłķ": 585,
        "ĢíĦ°": 586,
        "ìĿĺ": 587,
        "ģí": 588,
        "ìĿ´í": 589,
        "Ġë¶Ħ": 590,
        "ë³¼ê²Į": 591,
        "ê²łìĸ´": 592,
        "ìłľ": 593,
        "ĠëŃĲìķ¼": 594,
        "ĠìļĶ": 595,
        "Ġìĥ": 596,
        "ëŁ¼": 597,
        "ĵľ": 598,
        "ìĹĲëĬĶ": 599,
        "Ġìĭ": 600,
        "ëĬ¥": 601,
        "íķĺê³ł": 602,
        "íķĺë©´": 603,
        "ìļ©": 604,
        "Ġë¨": 605,
        "ĠìĤ¬ìļ©": 606,
        "ë¶ĢíĦ°": 607,
        "Ġì§§ê²Į": 608,
        "Ġíİ¸íķĺê²Į": 609,
        "Ġì¤Ħ": 610,
        "łì": 611,
        "ìĬ": 612,
        "Ķ±": 613,
        "Ġì¤": 614,
        "Ĳĺ": 615,
        "Ġëı¼": 616,
        "ª½": 617,
        "Ġë²": 618,
        "Ġê±": 619,
        "ĠìĿ¼": 620,
        "ĠìĿĳ": 621,
        "ĠìĿ´ìĸ´ìĦľ": 622,
        "ĠìĤ¬ìļ©ìŀĲ": 623,
        "Ġìĺ¤": 624,
        "ê¹": 625,
        "Ġê°ĻìĿĢ": 626,
        "ľê": 627,
        "·¼": 628,
        "ĠíķĺëĤĺ": 629,
        "ìļĶ": 630,
        "ĠìĽĲíķĺëĬĶ": 631,
        "Ġë°©íĸ": 632,
        "Ġë°©íĸ¥": 633,
        "Ġê²": 634,
        "Ġë§Ĳíķłê²Į": 635,
        "ĠëĤĺ": 636,
        "ìŀ¥": 637,
        "ĠëıĦìĻ": 638,
        "µìĭ¬": 639,
        "ê¹Į": 640,
        "ĠëıĦìĻĢì": 641,
        "Ġëĭµíķľëĭ¤": 642,
        "Ġíķµìĭ¬": 643,
        "Ġì¤ĳ": 644,
        "ĠìłĦ": 645,
        "Ġë¬": 646,
        "íķ´ëıĦ": 647,
        "ĠëĦ¤": 648,
        "ĠìķĮëł¤": 649,
        "ĠìķĮê²łìĸ´": 650,
        "¡°": 651,
        "ĠëĬ": 652,
        "ê±°ëĤĺ": 653,
        "Ĭ¸": 654,
        "Ġìª½": 655,
        "Ġê³¼": 656,
        "Ġê±¸": 657,
        "ìłģìĿ¸": 658,
        "Ġíķ¨": 659,
        "Ĳĺê³ł": 660,
        "ĶĶ": 661,
        "hat": 662,
        "ë²": 663,
        "ĠìĿ´ìĸ´": 664,
        "Ġë¶Ģ": 665,
        "ģ¬": 666,
        "ĺķ": 667,
        "ĠëĲĺê³ł": 668,
        "ì²Ń": 669,
        "Ġë§ŀì¶ľ": 670,
        "ĠìļĶì²Ń": 671,
        "ģìĸ´": 672,
        "Ġìĸ´": 673,
        "Ġìĺģìĸ´": 674,
        "ĠëıĦìĻĢì¤Ħ": 675,
        "ĥģ": 676,
        "ìĽ": 677,
        "ĥī": 678,
        "ìĹĲìĦľ": 679,
        "½ê³ł": 680,
        "ĠíĿ": 681,
        "ë¶Ħ": 682,
        "Ġë§ģí": 683,
        "ëĭĪ": 684,
        "Ġë§ģíģ¬": 685,
        "¶ģ": 686,
        "Ķ©": 687,
        "ĺëŁ¼": 688,
        "Ġê¶ģ": 689,
        "Ġê¶ģê¸Ī": 690,
        "ë¯": 691,
        "į¬": 692,
        "ë¥´": 693,
        "ìĿ´ìį¬": 694,
        "Ġê°ĢëĬ¥": 695,
        "íŀ": 696,
        "Ġì¹": 697,
        "Ġìī": 698,
        "Ġê´": 699,
        "ĠìķĪë": 700,
        "Ġì§§ìĿĢ": 701,
        "ĠíĮĮìĿ´ìį¬": 702,
        "ľê·¼": 703,
        "ëį": 704,
        "ľì": 705,
        "Ġw": 706,
        "ë¦Ħ": 707,
        "Ġëį°": 708,
        "ľ»": 709,
        "Ġê·¸ë": 710,
        "Ġì½ĶëĶ©": 711,
        "íĪ": 712,
        "Ġêµ¬": 713,
        "Ġë§ĲíĪ": 714,
        "Ġì¹ľê·¼": 715,
        "Ġë§ĲíĪ¬": 716,
        "Ġì°": 717,
        "ìĦĿ": 718,
        "ìĿ´íĦ°": 719,
        "Ġë¶ĦìĦĿ": 720,
        "íŀĪ": 721,
        "ê»": 722,
        "êµ¬": 723,
        "Ġìĸ¸": 724,
        "ĠíĿĲ": 725,
        "Ġê¶ģê¸Īíķľ": 726,
        "Ġëľ»": 727,
        "Ġëį°ìĿ´íĦ°": 728,
        "ĳľ": 729,
        "Ġìľ": 730,
        "ìľĦ": 731,
        "ª¨": 732,
        "ĠìĿ´ìķ¼": 733,
        "ĠìĤ¬ê³¼": 734,
        "ĠìķĦëĭĪ": 735,
        "Ġì½Ķëĵľ": 736,
        "íĻ": 737,
        "ħķ": 738,
        "ķìķĦ": 739,
        "ìłĢ": 740,
        "ķìķĦì§Ģ": 741,
        "íķ´ë³¼ê²Į": 742,
        "Ġì¢Ģ": 743,
        "ĠìĹĨ": 744,
        "Ġê°ľ": 745,
        "ì²ĺëŁ¼": 746,
        "ĥ¥": 747,
        "ê°Ī": 748,
        "ĠëĦĪ": 749,
        "Ġê·¸ëĥ¥": 750,
        "ë³Ģ": 751,
        "Ġëĭµë³Ģ": 752,
        "ĠìķĮëł¤ì¤ĺ": 753,
        "ëĬĺ": 754,
        "Ġíķ¨ê»": 755,
        "Ġíķ¨ê»ĺ": 756,
        "Ġíķł": 757,
        "Ġë§Ĳê³ł": 758,
        "ĠíĮĮìĿ¼": 759,
        "ëŀĺ": 760,
        "¼ìłĢ": 761,
        "ë¬": 762,
        "Ġë¨¼ìłĢ": 763,
        "°®": 764,
        "Ġë§İ": 765,
        "ĠìĤ¬ìļ©ìŀĲê°Ģ": 766,
        "Ġë§ŀì¶ľê²Į": 767,
        "ľì°®": 768,
        "Ġê°ķìķĦì§Ģ": 769,
        "ĠëŃĲíķł": 770,
        "ĠìĥĿ": 771,
        "Ġìĺ¤ëĬĺ": 772,
        "ìĸ´ì": 773,
        "ĠìĿĺ": 774,
        "Ġë§Ĳíķ´ì": 775,
        "ĠëĦĪë": 776,
        "ĠìĿ´ìĸ´ê°Ī": 777,
        "Ġìĸ´ë": 778,
        "ĠìķĪëħķ": 779,
        "ıĻ": 780,
        "Ġì£¼": 781,
        "ĠíĨ": 782,
        "Ġë³¼": 783,
        "Ġìĺ¤ë": 784,
        "Ġë¬¸ìĦľ": 785,
        "Ġy": 786,
        "ëĿ¼ê³ł": 787,
        "Ġê¸°": 788,
        "Ġìĸ¸ìĸ´": 789,
        "ĠíĿĲë¦Ħ": 790,
        "ìĺ": 791,
        "ë¡ľëıĦ": 792,
        "ìĽĮ": 793,
        "Ġë§Ĳíķ´ì£¼ë©´": 794,
        "Ġë°©ê¸Ī": 795,
        "ľì°®ìķĦ": 796,
        "¬´": 797,
        "Ġëª¨": 798,
        "ìķĪ": 799,
        "ĠëĦĪë¬´": 800,
        "ëį¸": 801,
        "Ġyou": 802,
        "Ġìłľ": 803,
        "ëĤ´ì": 804,
        "´Ĳ": 805,
        "íķĺì§Ģ": 806,
        "ê·¸": 807,
        "ìĿĮ": 808,
        "Ġê°Ģë³": 809,
        "Ġì¹ľê·¼íķĺê²Į": 810,
        "co": 811,
        "ĠI": 812,
        "ĠëĶ±": 813,
        "Ġë§İìĿ´": 814,
        "Ġíķĺê³ł": 815,
        "ĠìĦ¤ëªħíķ´ì¤ĺ": 816,
        "ĦìļĶ": 817,
        "ļ©": 818,
        "ìľ¼ë©´": 819,
        "ìĦ±": 820,
        "ìĬµ": 821,
        "Ġh": 822,
        "Ģìĥī": 823,
        "Ġë§ŀì¶°": 824,
        "Ġë°ĺê°Ģ": 825,
        "Ġê²Ģìĥī": 826,
        "įê²Į": 827,
        "ĺê¸°": 828,
        "Ġì¶": 829,
        "ê³Ħ": 830,
        "ë¡Ŀ": 831,
        "Ġìĸĺê¸°": 832,
        "ìĬ¤": 833,
        "ķĮ": 834,
        "ĠíĴ": 835,
        "ĠìĺĪ": 836,
        "íĸĪ": 837,
        "Ġê´ľì°®ìķĦ": 838,
        "ìĤ¬": 839,
        "´ìļ©": 840,
        "íķ´ìĦľ": 841,
        "ĠìłķìĿĺ": 842,
        "ĠëĤ´ìļ©": 843,
        "Ġìī½ê²Į": 844,
        "ëĶ±": 845,
        "Ġë¹": 846,
        "Ġë§Į": 847,
        "Ġë§Ĳíķľëĭ¤": 848,
        "ìĭĿ": 849,
        "ĠìĤ¬ëŀ": 850,
        "µìĭĿ": 851,
        "Ġëª¨ëį¸": 852,
        "ĠëĶ±ëĶ±": 853,
        "ĠìĤ¬ëŀĮ": 854,
        "¨í": 855,
        "ĠìĿ¸": 856,
        "ìĿ´ëĤĺ": 857,
        "Ġë°Ķê": 858,
        "Ġì¶Ķ": 859,
        "ë§Ĳ": 860,
        "ĠìĿĺëıĦ": 861,
        "Ķ¨": 862,
        "ë¥ĺ": 863,
        "Ġê³µìĭĿ": 864,
        "łìĶ¨": 865,
        "Ġê°Ģë³įê²Į": 866,
        "°ë¦¬": 867,
        "ë¥¸": 868,
        "ë³´": 869,
        "Ġê³ł": 870,
        "ìĿ´íĬ¸": 871,
        "Ġì¡°": 872,
        "Ġìŀĺ": 873,
        "ĻìĬµ": 874,
        "ĠëĬĲ": 875,
        "Ģë¡ľ": 876,
        "ĶìľĦ": 877,
        "ëł¥": 878,
        "Ġìļ°ë¦¬": 879,
        "Ġë²ĶìľĦ": 880,
        "ë¯¸": 881,
        "Ġë°ĺê°ĢìĽĮ": 882,
        "ģìĿ´": 883,
        "Ġë°°ì": 884,
        "Ġíķĺë©´": 885,
        "ĠíķĦìļĶ": 886,
        "ĠëĤłìĶ¨": 887,
        "ĠìķĮìķĦ": 888,
        "ĠëĮĢíĳľ": 889,
        "Ġì§Ģê¸ĪìĿĢ": 890,
        "ĠëĮĢíĳľìłģìĿ¸": 891,
        "Ġìķŀ": 892,
        "Ġìľł": 893,
        "ëĵľ": 894,
        "ĪìĹ": 895,
        "Ġìŀ¡": 896,
        "Ġëĭ¤ë¥¸": 897,
        "ëŁ¬": 898,
        "Ġìĺ¤ëŀ": 899,
        "íĺķ": 900,
        "Ġìŀĳ": 901,
        "Ġíķµìĭ¬ë§Į": 902,
        "Ġì°¨": 903,
        "ĵ¤": 904,
        "Ġìĭ¤": 905,
        "ĠíķĻìĬµ": 906,
        "ĠìĿ´ë²": 907,
        "Ġë¨¹": 908,
        "Ġì²": 909,
        "Ġë©": 910,
        "ìĿĳ": 911,
        "°ìĦľ": 912,
        "Ġê³łì": 913,
        "¤Ħê²Į": 914,
        "ĠìĿ½": 915,
        "ĠìķĬ": 916,
        "ìļ´": 917,
        "ëł¤ë": 918,
        "ë¬¼": 919,
        "Ġìĭ¤ìłľ": 920,
        "ìĪĺ": 921,
        "Ġë³´ëĤ´ì": 922,
        "Ġë°Ķê¿": 923,
        "Ġíĺķ": 924,
        "ëĤ´": 925,
        "Ġëĭ¨": 926,
        "ĠAI": 927,
        "Ġë¬¸ìłľ": 928,
        "ĠìłĦíĻ": 929,
        "ĠìĿ´ìĸ´ê°Īê²Į": 930,
        "ĠìłĦíĻĺ": 931,
        "´ìĿĦ": 932,
        "ë´Ĳ": 933,
        "Ġë¬¸ìŀ¥": 934,
        "ĠìĽĲíķĺë©´": 935,
        "Ġì§Īë¬¸ìĹĲëĬĶ": 936,
        "Ġê°ĢëĬ¥íķľ": 937,
        "ĠíĺķìĭĿ": 938,
        "lo": 939,
        "ë£": 940,
        "ì¢": 941,
        "Ġíķ´": 942,
        "Ġíķ´ì¤ĺ": 943,
        "ĠìĪĺìłķ": 944,
        "ĠìĿ´ìĥģ": 945,
        "Ġíķĺì§Ģ": 946,
        "ĠìĽ¹": 947,
        "Ġë¬¼": 948,
        "Ġìª½ìľ¼ë¡ľ": 949,
        "ĠìļĶì²ŃìĹĲëĬĶ": 950,
        "¹ĺ": 951,
        "ìĥģ": 952,
        "ĠìĽĲìĿ¸": 953,
        "ĠìŀĲìĹ°ìĬ¤ëŁ½ê³ł": 954,
        "Ġìĭ¶": 955,
        "ë°": 956,
        "ĺĦ": 957,
        "íķĺê±°ëĤĺ": 958,
        "Ġë°ĺëł¤ë": 959,
        "ĠìĿ¼ìĿĦ": 960,
        "ĠìĿ¼ìĥģ": 961,
        "ıĻë¬¼": 962,
        "ĪìĹĶ": 963,
        "ĠìĿ´ë²ĪìĹĶ": 964,
        "Ġë°ĺëł¤ëıĻë¬¼": 965,
        "gp": 966,
        "tt": 967,
        "Ġëĭµíķł": 968,
        "ë¥´ëĬĶ": 969,
        "gpt": 970,
        "ĠëıĦêµ¬": 971,
        "com": 972,
        "į¨": 973,
        "ĺìł": 974,
        "łí": 975,
        "Ġìį¨": 976,
        "ĠìŀĪëĬĶ": 977,
        "Ġëįĺìł": 978,
        "ĠëĮĢíĻĶìĹĲ": 979,
        "ĠëĤĺëĬĶ": 980,
        "ĠëĦ¤ê°Ģ": 981,
        "Ġëľ»ìĿĦ": 982,
        "Ġëįĺìł¸": 983,
        "Ġf": 984,
        "Ħ´ìĿĦ": 985,
        "´ìł": 986,
        "ìĹ°": 987,
        "Ġëĭµíķłê²Į": 988,
        "ìĿ´ì§Ģ": 989,
        "ĠíĮ¨í": 990,
        "Ġìŀ¡ëĭ": 991,
        "ĠíĮ¨íĦ´ìĿĦ": 992,
        "¤Ģ": 993,
        "¥ëł¥": 994,
        "Ġto": 995,
        "Ġë§Ĳíķ´ë³¼ê²Į": 996,
        "ìĹ¬": 997,
        "ĠëĬ¥ëł¥": 998,
        "Ġê³¼ìŀ¥": 999,
        "ĠìĤ¬ëŀĮê³¼": 1000,
        "´ìŀ": 1001,
        "Ġê³¼ìĿ¼": 1002,
        "ĠìĹĨìĿ´": 1003,
        "Ġë³´ëĤ´ì£¼ë©´": 1004,
        "//": 1005,
        "://": 1006,
        "ps": 1007,
        "ĠìĿ´ìķ¼ê¸°": 1008,
        "ĠíĨ¤": 1009,
        "ĠíĺķìĭĿìĿĦ": 1010,
        "ì¢ĭ": 1011,
        "ttps": 1012,
        "ĠëĤ´": 1013,
        "Ġê¸°ì": 1014,
        "Ġë¶Ģë¶Ħ": 1015,
        "ĠìĿĺëıĦë¥¼": 1016,
        "Ġì¡°ê¸Ī": 1017,
        "Ġë°Ķê¿Ķ": 1018,
        "´ìŀĲ": 1019,
        "Ġc": 1020,
        "Ġê·¸ëŁ¼": 1021,
        "Ġì§Īë¬¸ê³¼": 1022,
        "ĠìĿ´íķ´": 1023,
        "ìĻĢ": 1024,
        "ĠìĤ¬ìļ©ìŀĲìĿĺ": 1025,
        "Ġë§ĲíĪ¬ëĤĺ": 1026,
        "Ġhttps": 1027,
        "ìĹ°íķĺê²Į": 1028,
        "ì¢ĭìķĦ": 1029,
        "Įë¦¬": 1030,
        "ĠìĻ": 1031,
        "Ġëĭ¬": 1032,
        "ì²´ìł": 1033,
        "Ġë³´ëĬĶ": 1034,
        "Ġê±°ìķ¼": 1035,
        "Ġêµ¬ì²´ìł": 1036,
        "ĠìľłìĹ°íķĺê²Į": 1037,
        "Ġìŀ¡ëĭ´": 1038,
        "Ġwant": 1039,
        "Ġìĭ¶ìĿĢ": 1040,
        "ìĦ¸": 1041,
        "Ġë°ĺìĺ": 1042,
        "Ġë°©íĸ¥ìĿĢ": 1043,
        "Ġëį°ìĿ´íĦ°ë¥¼": 1044,
        "Ġë°ĺìĺģ": 1045,
        "Ġdo": 1046,
        "Ġì§§ê³ł": 1047,
        "Ġìĥģí": 1048,
        "Ġìĭľ": 1049,
        "ĠëŃĲíķłëŀĺ": 1050,
        "Ġë°ĺìĺģíķľëĭ¤": 1051,
        "ĠìĿ½ê³ł": 1052,
        "Ġìĺģìĸ´ë¡ľ": 1053,
        "ĠìłķìĿĺíĺķ": 1054,
        "ĠìĿ½ê¸°": 1055,
        "Ġìĭ¤ìłľë¡ľ": 1056,
        "ë´ĲëıĦ": 1057,
        "ĠC": 1058,
        "Ġíķľê³Ħ": 1059,
        "ĠíķĺëĤĺë§Į": 1060,
        "Ġë²ĶìľĦìĻĢ": 1061,
        "ģìĿ´ê³ł": 1062,
        "Ġê³łì¹ĺ": 1063,
        "Ġêµ¬ì²´ìłģìĿ´ê³ł": 1064,
        "Ġíķľê³Ħë¥¼": 1065,
        "Ġê³łì¹ĺëĿ¼ê³ł": 1066,
        "is": 1067,
        "Ġìĸ´ì": 1068,
        "ë³µ": 1069,
        "Ġê·¸ê±°": 1070,
        "Ġë°ĺë³µ": 1071,
        "Ġìĸ´ìĥī": 1072,
        "..": 1073,
        "ì¡°": 1074,
        "íĨ": 1075,
        "ìķĦì¤ĺ": 1076,
        "ĠìĹ¬": 1077,
        "ê¹Įì§Ģ": 1078,
        "Ġì°¾": 1079,
        "ĠìłľìķĪ": 1080,
        "ë£Į": 1081,
        "ĠëĤ´ê°Ģ": 1082,
        "µì§Ģ": 1083,
        "ê³µì§Ģ": 1084,
        "ì§Ģë¥¼": 1085,
        "Ġê¸Ģ": 1086,
        "ê³µì§ĢëĬ¥": 1087,
        "ìĿ´ë": 1088,
        "ĠíĶ": 1089,
        "ĠìŀĪìľ¼ë©´": 1090,
        "ë§¥": 1091,
        "Ġë²Ħ": 1092,
        "ë¥´ê²Į": 1093,
        "ĠíĿĲë¦ĦìĹĲ": 1094,
        "ë³´ëĭ¤": 1095,
        "ĺë¦¬": 1096,
        "ĠëŃĲíķ´": 1097,
        "Ġë¶Ļ": 1098,
        "Ġìĸ´ëķĮ": 1099,
        "Ġê³łìłķ": 1100,
        "Ġcan": 1101,
        "º¼": 1102,
        "ëĵ¤": 1103,
        "ľë§Į": 1104,
        "Ġëģ": 1105,
        "Ġë°°ìļ": 1106,
        "ĠíķĦìļĶíķĺë©´": 1107,
        "Ġê³łìłķìłģìĿ¸": 1108,
        "íĥ": 1109,
        "Ġhe": 1110,
        "ģ°": 1111,
        "Īìĸ´": 1112,
        "Ġìŀ¬": 1113,
        "ĠëĭµìĿ´": 1114,
        "ĠBeeìķ¼": 1115,
        "ĠìĤ¬ìĿ´íĬ¸": 1116,
        "Ġë¬¸ë²": 1117,
        "Ġë³´ê³ł": 1118,
        "ĠìĿ´ë¯¸": 1119,
        "ĠìĤ¬ê³¼ëĬĶ": 1120,
        "ĠìĹĨìĸ´": 1121,
        "Ġì£¼ìłľ": 1122,
        "Ġhel": 1123,
        "Ġë¬¸ë²ķ": 1124,
        "ĵ¤ë": 1125,
        "´ìĹ": 1126,
        "ìĭ¬": 1127,
        "Ġë³´íĨ": 1128,
        "Ġêµ¬ì¡°": 1129,
        "ĠìĤ¬ê³¼ê°Ģ": 1130,
        "Ġê°ľë¥¼": 1131,
        "Ġê°ķìķĦì§ĢëĬĶ": 1132,
        "ĠìĿ¸ê³µì§ĢëĬ¥": 1133,
        "Ġë³´íĨµ": 1134,
        "ëªħ": 1135,
        "Ġëĵ¤ë": 1136,
        "íķĺìŀĲ": 1137,
        "ëĬĶì§Ģ": 1138,
        "ĠìĿĮ": 1139,
        "ĠíĻ": 1140,
        "ê°ģ": 1141,
        "ëĤĮ": 1142,
        "ë³´ìŀĲ": 1143,
        "ĠìĦ¤ëªħíķłê²Į": 1144,
        "Ġì¤Ħë¡ľ": 1145,
        "ĠëĬĲëĤĮ": 1146,
        "Ġëįĺìł¸ì¤ĺ": 1147,
        "§Ħ": 1148,
        "êµ": 1149,
        "ķìĿ¸": 1150,
        "Ġë§Ĳíķ´": 1151,
        "ìĹŃ": 1152,
        "ê°ľ": 1153,
        "ĠìŀĪì§Ģ": 1154,
        "Ġë¬¸ë§¥": 1155,
        "íĻķ": 1156,
        "En": 1157,
        "gl": 1158,
        "ĠEn": 1159,
        "Ĥ°": 1160,
        "Ħë¡ľ": 1161,
        "ķìľ¼ë¡ľ": 1162,
        "ĸ¤": 1163,
        "Ġêº¼": 1164,
        "Ġë°Ķíĥ": 1165,
        "Ġì§Īë¬¸ìĿĦ": 1166,
        "ĠìļĶì²ŃìĿ´": 1167,
        "ìĸ´ì£¼ë©´": 1168,
        "Ġìĸ´ëĸ¤": 1169,
        "¤Ģëĭ¤": 1170,
        "ish": 1171,
        "Ġìĸ´ìĥīíĸĪ": 1172,
        "glish": 1173,
        "ĠEnglish": 1174,
        "Ġë°Ķíĥķìľ¼ë¡ľ": 1175,
        "GP": 1176,
        "ĠëĶĶ": 1177,
        "ìķķ": 1178,
        "ìłĢí": 1179,
        "ĠìłķíĻķ": 1180,
        "Ġë§ŀìķĦ": 1181,
        "ĠíĴĢ": 1182,
        "Ġìĺ¤ëŀľë§Į": 1183,
        "ĠìķĬê²Į": 1184,
        "łíģ°": 1185,
        "Ġê³¼ìĿ¼ìĿ´ìķ¼": 1186,
        "ĠíĶĦë¡ľ": 1187,
        "Ġë°°ìļ°": 1188,
        "GPT": 1189,
        "ĠëĶĶìłĢí": 1190,
        "ĠíĶĦë¡ľê·¸": 1191,
        "ĠëĶĶìłĢíĬ¸": 1192,
        "íĺĦ": 1193,
        "Ħ¤": 1194,
        "ĨĮ": 1195,
        "Ķìĭľ": 1196,
        "ìķħ": 1197,
        "ìĸ´ê°Ģ": 1198,
        "Ġíĳľ": 1199,
        "Ġì§ĢìĹŃ": 1200,
        "ìľ¼ë¡ľëĬĶ": 1201,
        "Ġìłķë¦¬íķĺê³ł": 1202,
        "ë¶Ģ": 1203,
        "Ġë°©íĸ¥ìĿĦ": 1204,
        "Ġë¶Ģë¥´ëĬĶ": 1205,
        "Ġìĺģìĸ´ë¡ľëıĦ": 1206,
        "ë¯Ģë¡ľ": 1207,
        "ĠëĤ´ìļ©ìĿĦ": 1208,
        "Ġìķŀìľ¼ë¡ľëĬĶ": 1209,
        "Ġë©Ķìĭľ": 1210,
        "Ġë¬¼ìĸ´": 1211,
        "ĠíĳľíĺĦ": 1212,
        "chat": 1213,
        "ëħ": 1214,
        "ì¤Ħê²Į": 1215,
        "£¼ëĬĶ": 1216,
        "ìłģìľ¼ë¡ľ": 1217,
        "Ġê°ľëħ": 1218,
        "chatgpt": 1219,
        "Ġê°ľëħĲ": 1220,
        "Ġë§ŀì¶°ìĦľ": 1221,
        "Ġë¬»": 1222,
        "ĠìĥĿìĦ±": 1223,
        "ĠíĻķìĿ¸": 1224,
        "ww": 1225,
        "´Ī": 1226,
        "ìķ½": 1227,
        "Ġë°Ľ": 1228,
        "ĠëĭµìĿĦ": 1229,
        "ĠìķĦìĿ´ë": 1230,
        "ĠìĥĪ": 1231,
        "Ġíķ¨ìĪĺ": 1232,
        "ĶĶìĸ´": 1233,
        "Ġë¶Ģëĵľ": 1234,
        "ìĬ¤í": 1235,
        "Įë¦¬ëĬĶ": 1236,
        "Ġë²Ħê·¸": 1237,
        "ĠëģĮë¦¬ëĬĶ": 1238,
        "ĠìķĦìĿ´ëĶĶìĸ´": 1239,
        "ĲëŁ¬": 1240,
        "ĠëķĮ": 1241,
        "ëıĦë¡Ŀ": 1242,
        "ê¸°ë¥¼": 1243,
        "ĠëĮĢ": 1244,
        "ĠìĹĲëŁ¬": 1245,
        "ĠìļĶìķ½": 1246,
        "ĠìĭĿ": 1247,
        "Ġê°ķìķĦì§Ģê°Ģ": 1248,
        "Ġì²ĺë¦¬": 1249,
        "Ġê·": 1250,
        "ìķĮ": 1251,
        "Ġìłģ": 1252,
        "ĠìłĦìķķ": 1253,
        "Ġê°ĢëĬ¥íķ´": 1254,
        "Ġê´Ģ": 1255,
        "ĠíĨłíģ°": 1256,
        "Ġë§ŀì¶°ë³¼ê²Į": 1257,
        "Ġë¬¼ìĸ´ë´ĲëıĦ": 1258,
        "ëıĻ": 1259,
        "ĳê³ł": 1260,
        "Ġëĸ": 1261,
        "Ġìłĳê³ł": 1262,
        "ëĿ¼ëĬĶ": 1263,
        "Ġì¤Ħë§Į": 1264,
        "Ġìª½ìĿĦ": 1265,
        "hatGPT": 1266,
        "ĠìĿ´ìĸ´ê°Ģ": 1267,
        "Ġë§ģíģ¬ëĬĶ": 1268,
        "ĠíĴĢì": 1269,
        "Ġë¹¼": 1270,
        "ĠìŀĳìĦ±": 1271,
        "Ġë¨¹ê±°ëĤĺ": 1272,
        "ìķĮê²łìĸ´": 1273,
        "ëĮ": 1274,
        "ìĸ´ìĦľ": 1275,
        "ĽìĿ´": 1276,
        "ere": 1277,
        "ĠìŀĪê³ł": 1278,
        "ĠìĿ´ìł": 1279,
        "ĠìķĦì": 1280,
        "Ġwhat": 1281,
        "Ġë§Įëĵ¤": 1282,
        "¨ëĿ¼": 1283,
        "ê°Ħ": 1284,
        "ë³¸": 1285,
        "Ġë¶Ī": 1286,
        "Ġë¬¸êµ¬": 1287,
        "Ġê°ĢìŀĲ": 1288,
        "ľê·¸": 1289,
        "½¤": 1290,
        "ê·¼": 1291,
        "ì½¤": 1292,
        "íĻĶ": 1293,
        "Ġì´Ī": 1294,
        "ĠìķĦê¹Į": 1295,
        "ìĤ¬ìĿ´íĬ¸": 1296,
        "Ġë¬¸ìŀ¥ìľ¼ë¡ľ": 1297,
        "ĨĮê°ľ": 1298,
        "Ġë¶ĢëĵľëŁ": 1299,
        "Ġë§Ĳíķĺê³ł": 1300,
        "Ġì§ĢëĤ´": 1301,
        "Ġê²ĥ": 1302,
        "Ġê²Į": 1303,
        "Ġì¤ĳìļĶ": 1304,
        "ìĺ¤": 1305,
        "Ġìĺ¤ëŀĺ": 1306,
        "ĠAIìķ¼": 1307,
        "Ġìŀ¡ëĭ´íķ´ëıĦ": 1308,
        "it": 1309,
        "or": 1310,
        "ê±": 1311,
        "ĵ°": 1312,
        "Ġìĵ°": 1313,
        "Ġêµ": 1314,
        "ìĸ´ëıĦ": 1315,
        "ëĭ¤ê³ł": 1316,
        "ĪëĶĶ": 1317,
        "Ġìłķë³´": 1318,
        "ë§ĪëĶĶ": 1319,
        "ĠíķĺëĬĶ": 1320,
        "ĠìŀĲë£Į": 1321,
        "ĠìŀĲëıĻ": 1322,
        "ëł¨": 1323,
        "Ġíķľë§ĪëĶĶ": 1324,
        "ëĭµ": 1325,
        "ìĿ¼ê²Į": 1326,
        "Ġìĺ¤ëĬĺìĿĢ": 1327,
        "Ġë¹Ħ": 1328,
        "ë§Ĳê³ł": 1329,
        "ĠìĽ¹ìĤ¬ìĿ´íĬ¸": 1330,
        "Ġê·¸ê±°ë§Ĳê³ł": 1331,
        "ĠìĿĮìķħ": 1332,
        "Ġê´Ģëł¨": 1333,
        "ĠìŀĲëıĻíĻĶ": 1334,
        "¸¡": 1335,
        "ì¸¡": 1336,
        "Ġë¡": 1337,
        "Ġë§ĲìĿ´ìķ¼": 1338,
        "ì²ľ": 1339,
        "ĠëĮĢíĻĶíķ´ëıĦ": 1340,
        "Ġìĺ¤ë¥ĺ": 1341,
        "ìĸ´ìķ¼": 1342,
        "ĠìĺĪì¸¡": 1343,
        "ĠíĨ¤ìľ¼ë¡ľ": 1344,
        "Ġë¬»ëĬĶ": 1345,
        "ĠëĶ": 1346,
        "íķĺìĦ¸": 1347,
        "Ġme": 1348,
        "Ġê·¸ëŁ": 1349,
        "Ġë§ŀê²Į": 1350,
        "ĠìĦ¤ëªħíķľëĭ¤": 1351,
        "Ġíķµìĭ¬ë¶ĢíĦ°": 1352,
        "Ġì¶Ķìłķ": 1353,
        "ë§ĲìķĦì¤ĺ": 1354,
        "Ġíķĺì§Ģë§ĲìķĦì¤ĺ": 1355,
        "ĠìļĶì²ŃìĿ´ë¯Ģë¡ľ": 1356,
        "íķĺìĦ¸ìļĶ": 1357,
        "´í": 1358,
        "ĠW": 1359,
        "ê²°": 1360,
        "Ġì§ģ": 1361,
        "Ġëĭµíķ´ì¤ĺ": 1362,
        "Ġëĭ¤ìĿĮ": 1363,
        "Ġìłķë¦¬íķ´ì": 1364,
        "Ġì¢ĭê³ł": 1365,
        "Ġì§Īë¬¸ëıĦ": 1366,
        "Ġë¶Ħëªħ": 1367,
        "Ġë§ĲíĪ¬ë¡ľ": 1368,
        "ĠìĥĿê°ģ": 1369,
        "Ġì°¨ë¶Ħ": 1370,
        "Ġë¶ĻìĹ¬": 1371,
        "Ġêº¼ëĤ´": 1372,
        "ì£¼ë©´": 1373,
        "ĥľ": 1374,
        "ëĬĲ": 1375,
        "Ġë§ĲìĿĦ": 1376,
        "ê¸Ģ": 1377,
        "ìłĲ": 1378,
        "rom": 1379,
        "ë¦°": 1380,
        "Ġëĭ¤ë¥´ê²Į": 1381,
        "Ġì¤ĳìĹĲìĦľ": 1382,
        "ĠíĮĮìĿ´ìį¬ìĿ´": 1383,
        "ëį°": 1384,
        "ĠìķĪëħķíķĺìĦ¸ìļĶ": 1385,
        "Ġì£¼ìĬ¤": 1386,
        "ĠìĺĪìĭľ": 1387,
        "Ġëª¨ëį¸ìĿ´": 1388,
        "Ġfrom": 1389,
        "Ġìĥģíĥľ": 1390,
        "Ġì´ĪìķĪ": 1391,
        "¬ìļ´": 1392,
        "Ġë§Ĳíķľ": 1393,
        "ĠëĭµìĿĢ": 1394,
        "ĠìĿ´ë¦Ħ": 1395,
        "ë³¼ê¹Į": 1396,
        "Ġì¹ľê·¼íķľ": 1397,
        "ĠëĶ±ëĶ±íķĺì§Ģ": 1398,
        "ĠChatGPT": 1399,
        "¶ĢíĦ°": 1400,
        "¼Ģ": 1401,
        "ì¼Ģ": 1402,
        "Ġíķ´ëıĦ": 1403,
        "ĠìĪ": 1404,
        "Īë¶ĢíĦ°": 1405,
        "Ġëĭµíķ´ë³¼ê²Į": 1406,
        "°ìĤ°": 1407,
        "ĠëŃĲë¶ĢíĦ°": 1408,
        "Ġê³¨ëĿ¼": 1409,
        "Ġì¤ĳìĿ´ìķ¼": 1410,
        "ĶĶìĺ¤": 1411,
        "ĠëĦĪëĬĶ": 1412,
        "Ġìĺ¤ëĶĶìĺ¤": 1413,
        "Ġhere": 1414,
        "Ġëª¨ëį¸ìĿĢ": 1415,
        "Ġëĭ¤ë¥¸ê±°": 1416,
        "Ġë°ĺëł¤ëıĻë¬¼ìĿ´ìķ¼": 1417,
        "ĠìĿ´íķ´íķł": 1418,
        "ĠìĿ´ë¯¸ì§Ģ": 1419,
        "Ġhelp": 1420,
        "Ġëĵ¤ë©´": 1421,
        "Ġë¹¼ê³ł": 1422,
        "Ġì¤ĳìļĶíķľ": 1423,
        "Ġì§ģìł": 1424,
        "ì¼ĢìĿ´": 1425,
        "sw": 1426,
        "¼ìĿĮ": 1427,
        "ëĦ¤": 1428,
        "Ĥ¤": 1429,
        "İĺ": 1430,
        "Ġëĵ¤": 1431,
        "Ġansw": 1432,
        "Ġê·¸ê±": 1433,
        "Ġë¶Ħë¥ĺ": 1434,
        "Ġìľ¼ìĿĮ": 1435,
        "Ġfi": 1436,
        "ĠCan": 1437,
        "...": 1438,
        "ĠìĹ¬ëŁ¬": 1439,
        "ì²ľíŀĪ": 1440,
        "İĺìĿ´ì§Ģ": 1441,
        "Ġëĵ¤ìĸ´ê°Ģ": 1442,
        "Ġanswer": 1443,
        "AI": 1444,
        "ë¹": 1445,
        "Ġgpt": 1446,
        "ĪĦ": 1447,
        "ĲìĦľ": 1448,
        "Ġì£¼ë©´": 1449,
        "Ġë´Ĳ": 1450,
        "Ġë§ĽìĿ´": 1451,
        "ĠíĺĦ": 1452,
        "Ġê°Ī": 1453,
        "ell": 1454,
        "ĠìŀĲìĦ¸": 1455,
        "ĠëıĮ": 1456,
        "Ġíķµìĭ¬ìĿĦ": 1457,
        "ë¬´ìĹ": 1458,
        "Ġì£¼ì": 1459,
        "ĠìłľìĿ¼": 1460,
        "ĠìĿ¸ê³µì§ĢëĬ¥ìĿ´": 1461,
        "ë¶Ģë¥¼": 1462,
        "Ġì§ĢëĤ´ëĬĶ": 1463,
        "ĠëĶ°": 1464,
        "ĠWhat": 1465,
        "ĠìŀĲìĦ¸íŀĪ": 1466,
        "ë¬´ìĹĲìĦľ": 1467,
        "Op": 1468,
        "¤ë¥´ëĬĶ": 1469,
        "ĠOp": 1470,
        "Īł": 1471,
        "Ĵ¤": 1472,
        "ĺ¤ë¥´ëĬĶ": 1473,
        "ŀĺ": 1474,
        "ĠëĪĦ": 1475,
        "Ġë§Ĳíķĺì§Ģ": 1476,
        "Ġíŀĺ": 1477,
        "rob": 1478,
        "enAI": 1479,
        "íķ´ë³´ìŀĲ": 1480,
        "ê¸°ìĹĲ": 1481,
        "Ġê±°ê¸°ìĹĲ": 1482,
        "łìĺ¤ë¥´ëĬĶ": 1483,
        "Ġë²Ī": 1484,
        "ĠìķĮëł¤ì¤Ħê²Į": 1485,
        "ĠëıĦìĻĢì¤Ħê²Į": 1486,
        "êµ¬ìķ¼": 1487,
        "Ġê¸°ê¸°": 1488,
        "Ġìĸĺê¸°íķ´ëıĦ": 1489,
        "íĸĪëĬĶì§Ģ": 1490,
        "ĠìĿĺëıĦìĹĲ": 1491,
        "Ġë°Ķê¿ĶìĦľ": 1492,
        "ĠìĥĪì½¤": 1493,
        "Ġëĸłìĺ¤ë¥´ëĬĶ": 1494,
        "Ġíķľë§ĪëĶĶë§Į": 1495,
        "ĠOpenAI": 1496,
        "ĠëĪĦêµ¬ìķ¼": 1497,
        "'l": 1498,
        "de": 1499,
        "ëĲĺ": 1500,
        "Ġco": 1501,
        "Ġì¤ĺ": 1502,
        "ê¸Īë¶ĢíĦ°": 1503,
        "ìŀ¬": 1504,
        "Ġì§Ģê¸Īë¶ĢíĦ°": 1505,
        "Ġìĸ´ëĬĲ": 1506,
        "ĠíĮĮìĿ¼ìĿĦ": 1507,
        "ĠëŃĲíķłê¹Į": 1508,
        "Ġê¸°ë¶Ħ": 1509,
        "Ġë§Įëĵľ": 1510,
        "lox": 1511,
        "ĠìĿ´ìķ¼ê¸°íķĺìŀĲ": 1512,
        "Ġìĸ´ìĥīíĸĪìĸ´": 1513,
        "Ġë©Ķìĭľì§Ģ": 1514,
        "ĠìĭĿìĤ¬": 1515,
        "Ġë¶ĢëĵľëŁ½ê²Į": 1516,
        "Ġì§ģìłĳ": 1517,
        "ĠíĺĦìŀ¬": 1518,
        "'ll": 1519,
        "Ġcode": 1520,
        "Ġë§ĮëĵľëĬĶ": 1521,
        "²ĺëŁ¼": 1522,
        "¹Ļ": 1523,
        "¼ìļ´": 1524,
        "ë©": 1525,
        "ì¤Ħ": 1526,
        "Ġ?": 1527,
        "ĸµ": 1528,
        "ĠìĤ": 1529,
        "´ì¡°": 1530,
        "ê¸°ì": 1531,
        "ê¸°ìĦľ": 1532,
        "íķ´ì§Ħ": 1533,
        "Ġëįľ": 1534,
        "Ġìłķíķ´ì§Ħ": 1535,
        "Ġë³´ì¡°": 1536,
        "ĠìŀĲê¸°ì": 1537,
        "ì¶ľ": 1538,
        "Ġê°Ģë²": 1539,
        "ëĭ¨": 1540,
        "Ġìĺ¤ì¼ĢìĿ´": 1541,
        "Ġìī¬ìļ´": 1542,
        "ľì¹Ļ": 1543,
        "ĠìķĦëĭĪì§Ģ": 1544,
        "ĠëĶ±ëĶ±íķĺê²Į": 1545,
        "Ġì¶Ķì¶ľ": 1546,
        "Ġíķ´ê²°": 1547,
        "Ġê¸°ìĸµ": 1548,
        "Ġëĭ¬ëĿ¼ê³ł": 1549,
        "ĠìĤ¬ìĿ´íĬ¸ëĬĶ": 1550,
        "Ġê·ľì¹Ļ": 1551,
        "ľê·¸ëŀĺ": 1552,
        "ĠìŀĲê¸°ìĨĮê°ľ": 1553,
        "Ġê°Ģë²¼ìļ´": 1554,
        "ig": 1555,
        "§ģ": 1556,
        "¨ìĿ´ìķ¼": 1557,
        "¬ìĭ¬": 1558,
        "±Ļ": 1559,
        "µíŀĪ": 1560,
        "»´í": 1561,
        "ëª¨": 1562,
        "ìª½": 1563,
        "íĤ¤": 1564,
        "ħį": 1565,
        "ĮëĬĶ": 1566,
        "ĵ¨í": 1567,
        "Ļ©": 1568,
        "ĽĮ": 1569,
        "ł¸": 1570,
        "Ġì±Ļ": 1571,
        "Ġì»´í": 1572,
        "ê²¼": 1573,
        "ĠìĿµíŀĪ": 1574,
        "Ġíħį": 1575,
        "ìĹħ": 1576,
        "ĠìĪĺëıĦ": 1577,
        "Ġìĺ¨": 1578,
        "ĠëŃĺ": 1579,
        "Ġê·¸ìª½": 1580,
        "ĠYes": 1581,
        "Ġìłķë¦¬íķ´ëıĦ": 1582,
        "ëŀ¨ìĿ´ìķ¼": 1583,
        "Ġíİ¸íķľ": 1584,
        "ìłķìĿ´ìķ¼": 1585,
        "Ġìĭ¬ìĭ¬": 1586,
        "Ġì¤ĦìĹ¬": 1587,
        "ĠìĿĳëĭµ": 1588,
        "ĠìłĦë¥ĺ": 1589,
        "Ġê³¼ìłķìĿ´ìķ¼": 1590,
        "Ġìĸ¸ìĸ´ìķ¼": 1591,
        "ĠíĿĲë¥´ê²Į": 1592,
        "Ġëį°ìĿ´íĦ°ëĬĶ": 1593,
        "ìľĦìķ¼": 1594,
        "ëŀĺë°": 1595,
        "Ġê¸°ë³¸": 1596,
        "ë§Ĳë¡ľ": 1597,
        "Ġë°°ìĽĮ": 1598,
        "ĠìŀĳìĹħ": 1599,
        "ĠíķĻìĬµìĿĢ": 1600,
        "Ġëĭ¨ìľĦìķ¼": 1601,
        "ĠìĿ´ìĥģíķĺê²Į": 1602,
        "ë°ĮëĬĶ": 1603,
        "ĠìĻľê·¸ëŀĺ": 1604,
        "ĠìĥģíĻ©": 1605,
        "ĠìĭľíĤ¤": 1606,
        "Ġê¸ĢìĿĦ": 1607,
        "Ġìŀ¬ë°ĮëĬĶ": 1608,
        "Ġë¬¸ë²ķìĿ´": 1609,
        "ĠëĬĲëĤĮìĿĦ": 1610,
        "ĠíĶĦë¡ľê·¸ëŀ¨ìĿ´ìķ¼": 1611,
        "ĠíĶĦë¡ľê·¸ëŀĺë°": 1612,
        "ìĬ¤íĬ¸": 1613,
        "ĠìĿ´ìłĦ": 1614,
        "Ġìĵ°ëĬĶ": 1615,
        "Ġì°¨ë¶Ħíķĺê²Į": 1616,
        "ĠìĺĪìĭľë¥¼": 1617,
        "Ġê¸°ê¸°ìĹĲìĦľ": 1618,
        "§ģìĿ´ìķ¼": 1619,
        "ĵ¨íĦ°": 1620,
        "Ġì±Ļê²¼": 1621,
        "Ġì»´íĵ¨íĦ°": 1622,
        "ĠíħįìĬ¤íĬ¸": 1623,
        "ĠìĭľíĤ¤ëĬĶ": 1624,
        "ĠíĶĦë¡ľê·¸ëŀĺë°į": 1625,
        "Hel": 1626,
        "Tell": 1627,
        "¶ìĿĮ": 1628,
        "ì¤Ģëĭ¤": 1629,
        "ĠTell": 1630,
        "ľì²ľíŀĪ": 1631,
        "´ìĦľ": 1632,
        "Ġê·¸ê²Į": 1633,
        "ìļ°": 1634,
        "ê¸°ë³´ëĭ¤": 1635,
        "Ġìłķë¦¬íķ´ìĦľ": 1636,
        "Ġë¶ĦìľĦ": 1637,
        "Ġë¬¶ìĿĮ": 1638,
        "ìĽĢ": 1639,
        "Ġì²ľì²ľíŀĪ": 1640,
        "Ġë¬¸ìŀ¥ìĿĦ": 1641,
        "Ġíķ´ë³¼ê¹Į": 1642,
        "Ġhello": 1643,
        "ĠìĿ¸ê³µì§ĢëĬ¥ìĿĢ": 1644,
        "ĠìłķíĻķíķĺê²Į": 1645,
        "Ġë°°ìļ°ê³ł": 1646,
        "ë©´ìĦľ": 1647,
        "Hello": 1648,
        "Ġë¬¶ìĿĮìĿ´ìķ¼": 1649,
        "¸Ķ": 1650,
        "ëĵ": 1651,
        "ë¸Ķ": 1652,
        "Ġor": 1653,
        "Ħì": 1654,
        "ĸĳ": 1655,
        "Ġë§ī": 1656,
        "ê°Ĳ": 1657,
        "ëĤĺëĬĶ": 1658,
        "ĠíķĺìĿ´": 1659,
        "ĸ´ì£¼ëĬĶ": 1660,
        "ë¡ĿìĬ¤": 1661,
        "Ġìŀ¬ë£Į": 1662,
        "ĠíĳľíĺĦìľ¼ë¡ľ": 1663,
        "www": 1664,
        "ĠìĥĪì½¤íķľ": 1665,
        "ë¸Ķë¡ĿìĬ¤": 1666,
        "Ĥĺ": 1667,
        "ħľ": 1668,
        "ľë¸Ķë¡ĿìĬ¤": 1669,
        "Ġìµ": 1670,
        "íķĺê¸°ë³´ëĭ¤": 1671,
        "Ġë§ĲìĹĲëĬĶ": 1672,
        "ìŀĪìĸ´": 1673,
        "Ġìłķë¦¬íķĺëĬĶ": 1674,
        "Ġìłķë¦¬íķ´ë³¼ê²Į": 1675,
        "Ĭ¤ëĤĺ": 1676,
        "ê²łëĭ¤ê³ł": 1677,
        "Ġê±°ê¸°ìĦľ": 1678,
        "Ġì¤Ģ": 1679,
        "ĠëĤĺëıĦ": 1680,
        "ìĽĲ": 1681,
        "Ġë§ģíģ¬ëıĦ": 1682,
        "ĠëŃĲíķłìĪĺ": 1683,
        "Ġê¸°ê³Ħ": 1684,
        "ĠìķŀìĹĲìĦľ": 1685,
        "Ġê¸°ì¤Ģ": 1686,
        "Ġë°ĺë³µíķĺê¸°ë³´ëĭ¤": 1687,
        "Ġê¸ĢìŀĲ": 1688,
        "ĠëĶĶìłĢíĬ¸ë¡ľëıĦ": 1689,
        "Ġë©Ķìĭľì§Ģë¥¼": 1690,
        "ĠíĻķìĿ¸íķ´ìĦľ": 1691,
        "Ġê²ĥë¶ĢíĦ°": 1692,
        "Ġë¡ľë¸Ķë¡ĿìĬ¤": 1693,
        "Ġê·¸ëŁ´": 1694,
        "Ġì£¼ìĬ¤ëĤĺ": 1695,
        "ĠëĶ°ëĿ¼": 1696,
        "Ġê±°ê¸°ìĦľë¶ĢíĦ°": 1697,
        "ĠëŃĲíķłìĪĺìŀĪìĸ´": 1698,
        "ug": 1699,
        "¥ê¸Ģ": 1700,
        "ĳ¥ê¸Ģ": 1701,
        "ĶíŀĪ": 1702,
        "Ġëª": 1703,
        "Ġëĳ¥ê¸Ģ": 1704,
        "ëĬĶëĭ¤": 1705,
        "ìĿ´ê¸°": 1706,
        "Ġë°¥": 1707,
        "ĠíĻĶ": 1708,
        "ìĹĪìĸ´": 1709,
        "ĠìłĲ": 1710,
        "ĠìŀĪê²Į": 1711,
        "ĠìĪĺëĭ¤": 1712,
        "ëĤĺìĦľ": 1713,
        "ĠìĿ´ìĸ´ì": 1714,
        "Ġê³µ": 1715,
        "ĠìĽĲë¦¬": 1716,
        "Ġì¤ĳìĭ¬": 1717,
        "Ġê±¸ìĸ´ì£¼ë©´": 1718,
        "ĠíĿĶíŀĪ": 1719,
        "ĠíĮĮìĿ´ìį¬ìĿĢ": 1720,
        "ĠìĥĿìľ¼ë¡ľ": 1721,
        "ĠìĿĺë¯¸": 1722,
        "ĠíĿĲë¦ĦìĿĦ": 1723,
        "Ġë§ĮëĤĺìĦľ": 1724,
        "ĠìĤ¬ëŀĮì²ĺëŁ¼": 1725,
        "Ġì¶Ķìłģ": 1726,
        "ĠíķĦìļĶíķľ": 1727,
        "ĠìķĬê³ł": 1728,
        "Ġë¬¸ìłľë¥¼": 1729,
        "Ġë°ĺëł¤ëıĻë¬¼ìĿ´ê¸°": 1730,
        "Ġë°Ķê¿Ķì¤ĺ": 1731,
        "ĠìĭľìĬ¤í": 1732,
        "Ġì°¾ê¸°": 1733,
        "ĠíĴĢìĸ´ìĦľ": 1734,
        "ëĮĢë¡ľ": 1735,
        "ĠìķĦê¹Įì²ĺëŁ¼": 1736,
        "ĠìĿ´ë¦ĦìĿ´ìķ¼": 1737,
        "Ġê·¸ê±´": 1738,
        "ĠëıĮëł¤": 1739,
        "Ġëĳ¥ê¸Ģê³ł": 1740,
        "Ġë°ĺëł¤ëıĻë¬¼ìĿ´ê¸°ëıĦ": 1741,
        "ĠìĭľìĬ¤íħľ": 1742,
        "ak": 1743,
        "ht": 1744,
        "if": 1745,
        "rst": 1746,
        "¨ê·¼": 1747,
        "°¨ê·¼": 1748,
        "¸ë¡ľ": 1749,
        "ì°¨ê·¼": 1750,
        "ĠHello": 1751,
        "ĭĢ": 1752,
        "Ĳìłģ": 1753,
        "´ì§Ģ": 1754,
        "ĠíĽ": 1755,
        "ĠíĭĢ": 1756,
        "Ġspe": 1757,
        "ìĭł": 1758,
        "Ġreply": 1759,
        "Ġê°Ģìŀ¥": 1760,
        "Ġë§ŀì¶°ì": 1761,
        "Ġìĸ¸ìĸ´ë¡ľ": 1762,
        "ĠìłķìĿĺë¥¼": 1763,
        "Ġë²ĶìľĦë¥¼": 1764,
        "íĺķìľ¼ë¡ľ": 1765,
        "ĠìŀĳìĿĢ": 1766,
        "Ġì°¨ê·¼": 1767,
        "Ġëĭ¨ìĸ´": 1768,
        "Ġëĭ¬ê±°ëĤĺ": 1769,
        "êµĲìłģ": 1770,
        "Ġë°ĽìķĦ": 1771,
        "Ġë¬¸êµ¬ë¥¼": 1772,
        "Ġë¹ĦêµĲìłģ": 1773,
        "Ġfirst": 1774,
        "ight": 1775,
        "Ġspeak": 1776,
        "Ġì°¨ê·¼ì°¨ê·¼": 1777,
        "ore": 1778,
        "¦ĺ": 1779,
        "¶Ģ": 1780,
        "ë¬¸": 1781,
        "ì¦ĺ": 1782,
        "Ġíķľëĭ¤": 1783,
        "ħëł¥": 1784,
        "Ĩį": 1785,
        "Īì¶": 1786,
        "Ĺ·": 1787,
        "łìĿĢ": 1788,
        "Ġì¡": 1789,
        "ĠìĤ°": 1790,
        "Ġìŀħëł¥": 1791,
        "ìĸ´ë¥¼": 1792,
        "ĠíĹ·": 1793,
        "íķľëį°": 1794,
        "Ġmore": 1795,
        "íķ´ìł¸": 1796,
        "ì§Ģíķĺê³ł": 1797,
        "ĠëĤłìĿĢ": 1798,
        "Ġìłķë¦¬íķł": 1799,
        "Ġìłķë¦¬íķłê²Į": 1800,
        "ìĿ¸ì§Ģ": 1801,
        "Ġíİ¸íķĺê³ł": 1802,
        "ëł¤ê³ł": 1803,
        "ĠìļĶì¦ĺ": 1804,
        "Ġì§§ê²Įë§Į": 1805,
        "Ġì¤Ħê²Į": 1806,
        "ĠìĿ¼ë¶Ģë¥¼": 1807,
        "ĠíķĺëĤĺë¥¼": 1808,
        "Ġìª½ìĹĲìĦľ": 1809,
        "ë¯¼": 1810,
        "ĠìķĪë¶Ģ": 1811,
        "Ġì½ĶëĶ©ìĿĢ": 1812,
        "ĠíĿĲë¦ĦìĿĢ": 1813,
        "ĠìłľëĮĢë¡ľ": 1814,
        "Ġê²Ģìĥīìĸ´ë¥¼": 1815,
        "ĠìĺĪë¥¼": 1816,
        "Ġê³łë¯¼": 1817,
        "Ġìľłì§Ģíķĺê³ł": 1818,
        "Ġë©Īì¶": 1819,
        "Ġë¬¸ìłľìłĲ": 1820,
        "Ġë¶Ģë¶ĦìĿĦ": 1821,
        "Ġì°¾ìķĦ": 1822,
        "ĠìłľìķĪíķľëĭ¤": 1823,
        "ĠìĿ´ë¯¸ì§Ģë¥¼": 1824,
        "Ġë¬¸ë§¥ìĿĢ": 1825,
        "ĠìłķíĻķíķ´ìł¸": 1826,
        "ĠíĴĢìĸ´ëıĦ": 1827,
        "ĠíĳľíĺĦë§Į": 1828,
        "ĠëĮĢíķ´": 1829,
        "Ġìłģìĸ´ì£¼ë©´": 1830,
        "ĠìłĦìķķìĿĢ": 1831,
        "ĠíĨłíģ°ìĿĢ": 1832,
        "ĠíĴĢìĸ´ì": 1833,
        "ĠìķĦì§ģìĿ´ìķ¼": 1834,
        "Ġê³¨ëĿ¼ë³´ìŀĲ": 1835,
        "Ġìĺ¤ëĶĶìĺ¤ê°Ģ": 1836,
        "Ġëĵ¤ìĸ´ê°ĢëıĦ": 1837,
        "Ġê°Īê²Į": 1838,
        "Ġìĭ¬ìĭ¬íķ´": 1839,
        "ĠìĿĳëĭµìĿ´": 1840,
        "ĠìĥģíĻ©ìĹĲ": 1841,
        "ëĵł": 1842,
        "ĠìĿĺë¯¸ëĬĶ": 1843,
        "ĠìĭľìĬ¤íħľìĿĦ": 1844,
        "ĠìķĪë¶ĢìĹĲëĬĶ": 1845,
        "ì½Ķë": 1846,
        "íİĺìĿ´ì§Ģ": 1847,
        "ĢìĹ": 1848,
        "ľìĦľ": 1849,
        "ìķĪë": 1850,
        "Ġë§ĲìĿ´ëĤĺ": 1851,
        "ì§Ģê¸Ī": 1852,
        "ĠìĤ¬ëĬĶ": 1853,
        "Ġìłķë¦¬íķ´ì¤ĺ": 1854,
        "Ġê°Ģì§Ģ": 1855,
        "Ķëī": 1856,
        "Ġìª½ìĹĲ": 1857,
        "Ġë§ĲíĪ¬ê°Ģ": 1858,
        "ĠëĬĲëł¤": 1859,
        "Ġë©Ķëī": 1860,
        "Ġë¶Ģë¶ĦìĿ´": 1861,
        "Ġë¶Ģë¶Ħë¶ĢíĦ°": 1862,
        "ĠìĻ¸ë¡ľ": 1863,
        "Ġìĺ¤ëŀľë§ĮìĿ´ìķ¼": 1864,
        "Ġê·ĢìĹ": 1865,
        "Ġë¶Ħëªħíķĺê²Į": 1866,
        "ĠìĪľìĦľ": 1867,
        "ê°ĲìĿ´": 1868,
        "Ġê·ĢìĹ½ê²Į": 1869,
        "ĩ½": 1870,
        "ĺ¸": 1871,
        "ľë¶ĢíĦ°": 1872,
        "Ńìĸ´": 1873,
        "Ġë§ĲìĹĲ": 1874,
        "ĠìŀĪìĸ´ìĦľ": 1875,
        "ëĭ¤ëĬĶ": 1876,
        "ĪëĿ¼": 1877,
        "ĠìĦ¤ëªħìĿĦ": 1878,
        "Ġíķľêµ": 1879,
        "Ġë³´ë©´": 1880,
        "ëĭĪëĿ¼": 1881,
        "ĠìķĦëĭĪëĿ¼": 1882,
        "ĠëĤĺë¬´ìĹĲìĦľ": 1883,
        "Ġë§ģíģ¬ë¥¼": 1884,
        "ë¥´ë©´": 1885,
        "ìĸ´ì¤ĺ": 1886,
        "íĸĪìĸ´": 1887,
        "ĠìĿ¸ìłķ": 1888,
        "ĠëĤłìĶ¨ë¥¼": 1889,
        "Ġë¨¹ìĹĪìĸ´": 1890,
        "Ġì£¼ìłľë¡ľ": 1891,
        "Ġêº¼ëĤ´ì": 1892,
        "ĠìĿ´ìĸ´ê°ĢëıĦ": 1893,
        "ĠìĿ´ìłľë¶ĢíĦ°": 1894,
        "Ġë¶ĦëªħíŀĪ": 1895,
        "ë¹Ħ": 1896,
        "roblox": 1897,
        "Ġì§ģìłĳìłģìľ¼ë¡ľ": 1898,
        "ĠìŀĳìĹħìĿĦ": 1899,
        "ìĽĢìĿĦ": 1900,
        "Ġìŀ¬ë£Įë¡ľëıĦ": 1901,
        "Ġëª©": 1902,
        "ì§Ģê¸ĪìĿĢ": 1903,
        "ĠìĪľìĦľë¡ľ": 1904,
        "ĠíķľêµŃìĸ´": 1905,
        "´ë¦¬": 1906,
        "½ëĭ¤": 1907,
        "Â·": 1908,
        "Ģë³¼ê²Į": 1909,
        "ĮĢë¡ľ": 1910,
        "ĺëĭ¤": 1911,
        "ĺĢë³¼ê²Į": 1912,
        "Ľê³¼": 1913,
        "ĠëĴ¤": 1914,
        "íķĦìļĶ": 1915,
        "Ġë§Ĳíķł": 1916,
        "Ġë§ĲìķĦì¤ĺ": 1917,
        "ê°ģìĿ´": 1918,
        "ëĭ¤ë©´": 1919,
        "Ġì¢ģí": 1920,
        "ê³¼ëĬĶ": 1921,
        "Ġë³´ê¸°": 1922,
        "ĠëĮĢíĻĶë¥¼": 1923,
        "Ġê¸¸": 1924,
        "ĠëıĮë¦¬": 1925,
        "ĠìĿ¼ë³¸": 1926,
        "ĠíķĺëĤĺìķ¼": 1927,
        "ĠëĤĺë": 1928,
        "ĠëĤĺê³ł": 1929,
        "Ġë¬´ìĹ": 1930,
        "ĠíĮĮìĿ´ìį¬ëıĦ": 1931,
        "Ġwit": 1932,
        "Ġê·¸ëĮĢë¡ľ": 1933,
        "Ġêµ¬ë¶Ħ": 1934,
        "ìĤ¬ê³¼ëĬĶ": 1935,
        "ĠìĿ¸ìĤ¬": 1936,
        "Ġë°Ķê¾": 1937,
        "ĠëĬĲê»": 1938,
        "Ġëĭ¨ë§": 1939,
        "ĠìĿ´ìĥģíķ´": 1940,
        "ĠìĽĲìĿ¸ë¶ĢíĦ°": 1941,
        "Ġëįĺìł¸ëıĦ": 1942,
        "ĠìĻľ": 1943,
        "êµ°ìĤ°": 1944,
        "Ġë¶ĪíķĦìļĶ": 1945,
        "Ġêµ°ìĤ°": 1946,
        "Ġìłķë¦¬íķ´ì¤Ħê²Į": 1947,
        "Ġìĺ¨ëıĦ": 1948,
        "Ġì¤Ģë¹Ħ": 1949,
        "Ġê¸°ì¤Ģìľ¼ë¡ľ": 1950,
        "ĠíĻĶë©´": 1951,
        "Ġê³µë¶Ģ": 1952,
        "ìķĪëħķ": 1953,
        "´ë¦¬ëĬĶ": 1954,
        "Ġì¢ģíĺĢë³¼ê²Į": 1955,
        "ĠëıĮë¦¬ì§Ģ": 1956,
        "Ġë¬´ìĹĩ": 1957,
        "Ġwith": 1958,
        "Ġì¤Ģë¹Ħë¥¼": 1959,
        "ch": 1960,
        "¤ĳ": 1961,
        "¨ìĸ´ëıĦ": 1962,
        "ì¤ĳ": 1963,
        "Ġon": 1964,
        "Ġif": 1965,
        "Ħł": 1966,
        "ı¬": 1967,
        "ľł": 1968,
        "ìĿ´ëĭ¤": 1969,
        "Ġë§ĲìĿ´": 1970,
        "Ġíĸ": 1971,
        "Ġíı¬": 1972,
        "ĠìķĪ": 1973,
        "°ìĦł": 1974,
        "ĠìĿ´ìľł": 1975,
        "Ġìĺ®": 1976,
        "ĠBeeê³ł": 1977,
        "Ġì§Ģë£": 1978,
        "ĠìĦłí": 1979,
        "Ġì¢ĭìĿĢ": 1980,
        "Ġìļ°ìĦł": 1981,
        "ĠìĹ°": 1982,
        "ĠìĹ´ì": 1983,
        "Ġì¤ĦìĿ´": 1984,
        "ĠìļĶì²ŃìĿĢ": 1985,
        "ĠìķĪëĩ½": 1986,
        "Ġwor": 1987,
        "ĠìľĦì": 1988,
        "ĠìķĦëĭĪìķ¼": 1989,
        "ĠíĿĲë¦Ħìľ¼ë¡ľ": 1990,
        "Ġìļ°ë¦¬ê°Ģ": 1991,
        "Ġë¨¹ëĬĶ": 1992,
        "Ġtoo": 1993,
        "ëĵ¤ìĸ´": 1994,
        "Ġëĸ¨ìĸ´ëıĦ": 1995,
        "ĠíķĺëĬĶê±°": 1996,
        "Ġë¡ľê·¸": 1997,
        "Ġíŀĺëĵ¤ìĸ´": 1998,
        "Ġìµľ": 1999,
        "Ġì¤ĳìĭ¬ìľ¼ë¡ľ": 2000,
        "Ġë¶ĪíķĦìļĶíķľ": 2001,
        "Ġì§Ģë£¨": 2002,
        "Ġwork": 2003,
        "ay": 2004,
        "right": 2005,
        "way": 2006,
        "§Į": 2007,
        "§ë¶": 2008,
        "³Ĳ": 2009,
        "´ľì°®ìķĦ": 2010,
        "ê´ľì°®ìķĦ": 2011,
        "ìĸĳ": 2012,
        "íİ¸": 2013,
        "Ġ`": 2014,
        "Ġright": 2015,
        "ĺ¨": 2016,
        "ĠìĨĮê°ľ": 2017,
        "íķĺëĭ¤ê³ł": 2018,
        "íķĺê²łëĭ¤ê³ł": 2019,
        "íķĺëł¤ê³ł": 2020,
        "ìĿ´ë©´": 2021,
        "ìĿ´ë¯Ģë¡ľ": 2022,
        "ê°ķìķĦì§Ģ": 2023,
        "Ġaway": 2024,
        "Ġëį§ë¶": 2025,
        "íķ´ë³¼": 2026,
        "Īë§Į": 2027,
        "Ġìłķíķ´ë³´ìŀĲ": 2028,
        "ë¦¬ë©´": 2029,
        "ĠëŃĲíķĺëĬĶ": 2030,
        "ĠìĦ¤ëªħìĿĢ": 2031,
        "ĠëĮĢíĻĶìĹĲìĦľ": 2032,
        "ĠìķĮëł¤ì£¼ë©´": 2033,
        "Ġìī½ëĭ¤": 2034,
        "Ġë¬¼ìľ¼ë©´": 2035,
        "Ġì£¼ìłľë¥¼": 2036,
        "Ġë°°ìļ°ê¸°": 2037,
        "Ġë¶Īíİ¸": 2038,
        "Ġê·¸ëŁ°": 2039,
        "Ġë¶ĻìĹ¬ì£¼ë©´": 2040,
        "Ġêº¼ëĤ´ë´Ĳ": 2041,
        "Ġë¶ĦìľĦê¸°ë¥¼": 2042,
        "ìĽĲíķĺëĬĶ": 2043,
        "Ġë§ŀì¶°ì§Ħ": 2044,
        "ĠëĴ¤ìĹĲ": 2045,
        "Ġì¤ĦìĿ´ê³ł": 2046,
        "ê°ķìķĦì§ĢëĬĶ": 2047,
        "Ġëį§ë¶Ļ": 2048,
        "Go": 2049,
        "PI": 2050,
        "ad": 2051,
        "as": 2052,
        "¤ê³Ħ": 2053,
        "¦¬": 2054,
        "§ģìĿ´": 2055,
        "ª¼": 2056,
        "«ìŀĲ": 2057,
        "®ì¶": 2058,
        "´ëĮ": 2059,
        "ëĳ": 2060,
        "ëĴ¤": 2061,
        "ì§Ħ": 2062,
        "Ġit": 2063,
        "ĥĿ": 2064,
        "īíķĺëĬĶ": 2065,
        "ĳì¤ĳ": 2066,
        "ĵë§Ĳë¡ľ": 2067,
        "ķë¶Ħ": 2068,
        "Ġìª¼": 2069,
        "´ìķ¼": 2070,
        "íķĺëĦ¤": 2071,
        "ìķĺ": 2072,
        "Ġë§ĲëıĦ": 2073,
        "Ġë§Ĳë§Į": 2074,
        "Ġë§ĲíķĺëĬĶ": 2075,
        "Ġë§Ĳë¡ľëıĦ": 2076,
        "Ġë°Ģì": 2077,
        "§ĢëıĦë¡Ŀ": 2078,
        "ĠíİĺìĿ´ì§Ģ": 2079,
        "ìĿĦì§Ģ": 2080,
        "Ġìķ±": 2081,
        "Ġì§ĳì¤ĳ": 2082,
        "Ġëįķë¶Ħ": 2083,
        "ĠìĪĺíĸ": 2084,
        "ë³´ìķ¼": 2085,
        "ìĹĲê²Į": 2086,
        "ìĹĲëıĦ": 2087,
        "ê°ĢëĬĶ": 2088,
        "Ġìłķíķĺë©´": 2089,
        "Ġìłķíķ´ìĦľ": 2090,
        "ĠìłķíķĺìŀĲ": 2091,
        "Ġìłķë³´ìķ¼": 2092,
        "ĠëĭµíķĺëĬĶ": 2093,
        "ëĤĺë¬´ìĹĲìĦľ": 2094,
        "ĠAPI": 2095,
        "ìŀĳ": 2096,
        "Ġê·¸ëŀĺ": 2097,
        "ìĿ´ì²ĺëŁ¼": 2098,
        "ĠëŃĲëĵł": 2099,
        "Ġread": 2100,
        "íķĺê²ĮëıĦ": 2101,
        "ê¸°ìłģìĿ¸": 2102,
        "ĠëĤ®ì¶": 2103,
        "ĠìĽĢì": 2104,
        "Ġìłķë¦¬íķĺë©´": 2105,
        "ëŁ°": 2106,
        "ĠìĦ¤ê³Ħ": 2107,
        "Ġì¢ĭê²łìĸ´": 2108,
        "Ġì¢ĭìĿĦì§Ģ": 2109,
        "ê³¼ìĿ¼": 2110,
        "Ġë°ĺìĿĳ": 2111,
        "Ġë°ĺë§Ĳë¡ľ": 2112,
        "Ġë³´ìĿ´ì§Ģ": 2113,
        "Ġë³´ë©´ìĦľ": 2114,
        "Ġì§Ģê¸Īì²ĺëŁ¼": 2115,
        "Ġë°©ìĭĿ": 2116,
        "ĠìĿ´ëª¨": 2117,
        "ĠìĿ´ëŁ°": 2118,
        "ê²łìĬµ": 2119,
        "ĠëĮĢíĻĶì²ĺëŁ¼": 2120,
        "ĠëıĻ": 2121,
        "ìłķíķĺê²ĮëıĦ": 2122,
        "ĠìĤ¬ìļ©íķĺëĬĶ": 2123,
        "Ġì¤ĦìĿ¼ê²Į": 2124,
        "Ġë²Īë§Į": 2125,
        "Ġìĺ¤ê°Ħ": 2126,
        "Ġì¤ĳê°Ħ": 2127,
        "ĠìłĦê¸°ë¥¼": 2128,
        "ĠìłĦê¸°ìłģìĿ¸": 2129,
        "ĠëĬĺë¦¬": 2130,
        "Ġìĸ´ë¦°": 2131,
        "ëĭĪëĭ¤": 2132,
        "Ġê¶ģê¸ĪíķĺëĦ¤": 2133,
        "Ġë¶ĦìĦĿìĿ´ëĤĺ": 2134,
        "Ġë¶ĦìĦĿíķĺê±°ëĤĺ": 2135,
        "Ġëľ»íķĺê±°ëĤĺ": 2136,
        "Ġëľ»ìĿ´ì§Ģ": 2137,
        "ĠìĤ¬ê³¼ëĤĺë¬´ìĹĲìĦľ": 2138,
        "Ġê°ľìĿĺ": 2139,
        "ê°Īë¦¬ë©´": 2140,
        "Ġë§İìĿĢ": 2141,
        "ĠìĥĿê³¼ìĿ¼": 2142,
        "Ġë³¼ìĪĺ": 2143,
        "Ġê¸°ë¡Ŀ": 2144,
        "Ġìĸĺê¸°íķĺìŀĲ": 2145,
        "ĠìĺĪìłľ": 2146,
        "Ġëª¨ëį¸ëıĦ": 2147,
        "ĠëĶ±ëĶ±íķĺë©´": 2148,
        "Ġê³łë¥´ë©´": 2149,
        "Ġì¡°ê°ģ": 2150,
        "ë¯¸ê°Ģ": 2151,
        "ĠëĤłìĶ¨ëĬĶ": 2152,
        "ĠìķŀëĴ¤": 2153,
        "Ġì°¨ìĿ´ìķ¼": 2154,
        "Ġì°¨ìĿ´ì²ĺëŁ¼": 2155,
        "ĠíķĻìĬµíķł": 2156,
        "ĠíķĻìĬµìĹĲ": 2157,
        "Ġë¨¹ìĸ´": 2158,
        "Ġê³łì³Ĳ": 2159,
        "Ġë°Ķê¿Ģ": 2160,
        "Ġëĭ¨ìłķíķĺê²ĮëıĦ": 2161,
        "Ġìĭ¶ìĸ´": 2162,
        "ĠëıĦêµ¬ë¥¼": 2163,
        "ĠìĿ´ìķ¼ê¸°íķł": 2164,
        "ĠìĿ´ìķ¼ê¸°íķ´ì¤ĺ": 2165,
        "ĠìĿ´ìķ¼ê¸°ê¹Įì§Ģ": 2166,
        "Ġê¸°ìĪł": 2167,
        "Ġë°Ķê¿Ķë³¼ê²Į": 2168,
        "ĠìĿ´íķ´íķĺê³ł": 2169,
        "ĠìĿ´íķ´íķĺë©´": 2170,
        "Ġìĭľê¸°ë¥¼": 2171,
        "Ġë°ĺë³µíķ´ìĦľ": 2172,
        "Ġë°ĺë³µë³´ëĭ¤": 2173,
        "ĠìĹ¬ê¸°": 2174,
        "ìĿ´ëĦ¤": 2175,
        "Ġë¶ĻìĿ¼ê²Į": 2176,
        "ëªħìĿĦ": 2177,
        "Ġëĵ¤ë¦¬": 2178,
        "Ġì¤Ħë¡ľë§Į": 2179,
        "ĠëĬĲëĤĮìĿ´": 2180,
        "Ġëįĺìł¸ì¤ĺëıĦ": 2181,
        "ê°ľìĦľ": 2182,
        "Ġë¬¸ë§¥ìĿ´": 2183,
        "ĠìļĶì²ŃìĿ´ëĿ¼": 2184,
        "Ġë°°ìļ°ëĬĶ": 2185,
        "Ġê°ľëħĲìĿĦ": 2186,
        "Ġê°ľëħĲë¶ĢíĦ°": 2187,
        "Ġì²ĺë¦¬íķł": 2188,
        "Ġìłģìĸ´ìĦľ": 2189,
        "ĠìĿ´ìĸ´ê°Ģê³ł": 2190,
        "Ġë§Įëĵ¤ê±°ëĤĺ": 2191,
        "Ġë¬¸êµ¬ì²ĺëŁ¼": 2192,
        "Ġë¶ĢëĵľëŁ½ê³ł": 2193,
        "Ġìĵ°ìĹ¬": 2194,
        "ĠìĺĪì¸¡íķĺëĬĶ": 2195,
        "ĠìĪ«ìŀĲ": 2196,
        "Ġê³¨ëĿ¼ì¤ĺ": 2197,
        "ë¹ĽìĿ´": 2198,
        "ĠíŀĺìĿĺ": 2199,
        "ĠìĭĿìĤ¬íĸĪëĬĶì§Ģ": 2200,
        "Ġê¸°ìĸµíķł": 2201,
        "Ġê·ľì¹ĻìĿĦ": 2202,
        "Ġê·ľì¹Ļê³¼": 2203,
        "ëª¨ëį¸": 2204,
        "ĠìĿµíŀĪëĬĶ": 2205,
        "ĠìĿµíŀĪê³ł": 2206,
        "Ġê·¸ìª½ìľ¼ë¡ľ": 2207,
        "Ġì¤ĦìĹ¬ê°ĢëĬĶ": 2208,
        "ĠìłĦë¥ĺë¥¼": 2209,
        "ĠìłĦë¥ĺê°Ģ": 2210,
        "Ġë°°ìĽĮìĦľ": 2211,
        "Ġì±Ļê²¼ìĸ´": 2212,
        "Ġì±Ļê²¼ìľ¼ë©´": 2213,
        "Ġì»´íĵ¨íĦ°ê°Ģ": 2214,
        "Ġì»´íĵ¨íĦ°ìĹĲê²Į": 2215,
        "Ġê¸°ê³Ħìłģìľ¼ë¡ľ": 2216,
        "Ġê¸ĢìŀĲìĿ¼": 2217,
        "ĠìłĲìĿĦ": 2218,
        "ĠìĿ´ìĸ´ì§ĢëıĦë¡Ŀ": 2219,
        "ĠìĽĲë¦¬ëĿ¼ê³ł": 2220,
        "ĠíĭĢë¦°": 2221,
        "Ġì¡´ëĮ": 2222,
        "ĠìĤ°ë¯¸ê°Ģ": 2223,
        "Ġìŀħëł¥ìĹĲ": 2224,
        "ĠíĹ·ê°Īë¦¬ë©´": 2225,
        "Ġê³łë¯¼ìĿ´ëĤĺ": 2226,
        "Ġë©Īì¶°ìĦľ": 2227,
        "ĠíĴĢìĸ´ì¤Ģëĭ¤": 2228,
        "Ġë©Ķëī´": 2229,
        "Ġêº¼ëĤ´ì¤ĺ": 2230,
        "Ġê¸¸ê²Į": 2231,
        "Ġëĭ¨ë§Ľê³¼": 2232,
        "ĠìĦłíĥĿ": 2233,
        "Ġìļ°ìĦłíķľëĭ¤": 2234,
        "ĠëĮĢíĻĶìĹĲìĦľëĬĶ": 2235,
        "Ġë¶Īíİ¸íķľ": 2236,
        "Ġëį§ë¶ĻìĿ¼ê²Į": 2237,
        "Got": 2238,
        "§ģìĿ´ëıĦë¡Ŀ": 2239,
        "Ġìª¼ê°ľìĦľ": 2240,
        "Ġë°Ģìĸ´ì£¼ëĬĶ": 2241,
        "ĠíİĺìĿ´ì§ĢëĤĺ": 2242,
        "Ġì§ĳì¤ĳíķĺê³ł": 2243,
        "Ġëįķë¶ĦìĹĲ": 2244,
        "ĠìĪĺíĸīíķĺëĬĶ": 2245,
        "Ġê·¸ëŀĺìĦľ": 2246,
        "ĠëĤ®ì¶ĺëĭ¤": 2247,
        "ĠìĽĢì§ģìĿ´ëıĦë¡Ŀ": 2248,
        "ê²łìĬµëĭĪëĭ¤": 2249,
        "Ġì¤ĳê°ĦìĹĲ": 2250,
        "Ġëľ»ìĿ´ì§Ģë§Į": 2251,
        "ĠìĥĿê³¼ìĿ¼ë¡ľëıĦ": 2252,
        "Ġë³¼ìĪĺë¡Ŀ": 2253,
        "Ġê¸°ë¡Ŀì²ĺëŁ¼": 2254,
        "Ġì¡°ê°ģìĿ¼": 2255,
        "Ġê³łì³Ĳì¤Ħê²Į": 2256,
        "Ġëĵ¤ë¦¬ëıĦë¡Ŀ": 2257,
        "Ġì¡´ëĮĵë§Ĳë¡ľ": 2258,
        "iz": 2259,
        "¸Į": 2260,
        "ì§": 2261,
        "ĤŃ": 2262,
        "ĺĲ": 2263,
        "ļìĸ´ì£¼ë©´": 2264,
        "ŀìķĦ": 2265,
        "Ġë¯": 2266,
        "Ġë¸Į": 2267,
        "ĠëĺĲ": 2268,
        "ê²¨": 2269,
        "lem": 2270,
        "lear": 2271,
        "Ġì§ļìĸ´ì£¼ë©´": 2272,
        "ìľł": 2273,
        "ë§ŀìķĦ": 2274,
        "Ġprob": 2275,
        "ĠëĤ¨": 2276,
        "Ġìłķë¦¬ë¥¼": 2277,
        "ìĦł": 2278,
        "ëĿ¼ìļ°": 2279,
        "Ġêµ¬ê¸Ģ": 2280,
        "Ġëľ»íķ´": 2281,
        "ìłĢë¡ľ": 2282,
        "Ġê°ľìĦł": 2283,
        "ĠíĮĮìĿ¼ìĿ´ëĤĺ": 2284,
        "ìķĪíķ´": 2285,
        "Ġê°Ģë³´ìŀĲ": 2286,
        "Ġìŀĺë": 2287,
        "ĠìĿ´ìĥģíĸĪëĬĶì§Ģ": 2288,
        "ĠìĽ¹íİĺìĿ´ì§Ģ": 2289,
        "Ġëĭ¬ì½¤": 2290,
        "ĠíĴĢìĸ´": 2291,
        "ĠëĶĶìłĢíĬ¸ìĹĲëıĦ": 2292,
        "ĠìĭĿê°ĲìĿ´": 2293,
        "ĠìķĦìĤŃ": 2294,
        "ĠìĽ¹ìĤ¬ìĿ´íĬ¸ê°Ģ": 2295,
        "Ġë¶Ħë¥ĺíķĺê±°ëĤĺ": 2296,
        "Ġëĵ¤ìĸ´ê°ĢìĦľ": 2297,
        "ì½ĶëĶ©": 2298,
        "Ġê¸°ìĪłìĿĦ": 2299,
        "ĠìĦłíĥĿì§Ģë¥¼": 2300,
        "ize": 2301,
        "Ġë¸ĮëĿ¼ìļ°": 2302,
        "Ġproblem": 2303,
        "ĠìĽ¹íİĺìĿ´ì§ĢìĿĺ": 2304,
        "Ġëĭ¬ì½¤íķĺê±°ëĤĺ": 2305,
        "ĠìķĦìĤŃíķľ": 2306,
        "Ġë¸ĮëĿ¼ìļ°ìłĢë¡ľ": 2307,
        "'m": 2308,
        "10": 2309,
        "ChatGPT": 2310,
        "ain": 2311,
        "blox": 2312,
        "ce": 2313,
        "ft": 2314,
        "here": 2315,
        "lain": 2316,
        "ns": 2317,
        "nction": 2318,
        "oblox": 2319,
        "plain": 2320,
        "ts": 2321,
        "ue": 2322,
        "unction": 2323,
        "xes": 2324,
        "ëĦ": 2325,
        "íļ": 2326,
        "Ġ'": 2327,
        "Ġ4": 2328,
        "Ġex": 2329,
        "Ġis": 2330,
        "ĠGot": 2331,
        "ĺìĸ´ê°Ģ": 2332,
        "ŃëıĦ": 2333,
        "ĠëĨ": 2334,
        "Ġëªħ": 2335,
        "Ġthere": 2336,
        "Ġsug": 2337,
        "ĠìŀĪìĸ´ìķ¼": 2338,
        "ĠëĭµìĿĺ": 2339,
        "Ġdra": 2340,
        "Ġê°ĻìķĦ": 2341,
        "ĠëŃĲê°Ģ": 2342,
        "ĠëŃĲíķĺì§Ģ": 2343,
        "gest": 2344,
        "ê¸°ë§Į": 2345,
        "Ġì§ĢëĤ´ì": 2346,
        "ĠìŀĲëĿ¼ëĬĶ": 2347,
        "ĠëĦĺìĸ´ê°Ģ": 2348,
        "Ġì¢ĭëĭ¤": 2349,
        "Ġê°ĢëıĦ": 2350,
        "ĠíĮĮëıĦ": 2351,
        "ĠëıĦìĽĢìĿĦ": 2352,
        "Ġìĭłí": 2353,
        "Ġë²ĪìĹ": 2354,
        "ĠëıĦìĻĢì£¼ëĬĶ": 2355,
        "íŀĮ": 2356,
        "Ġëľ»ìľ¼ë¡ľ": 2357,
        "Ġíķłì¤Ħ": 2358,
        "Ġë³¼ê¹Į": 2359,
        "Ġì¡°íļ": 2360,
        "Ġë¬¼ìĿĢ": 2361,
        "Ġë°ĺëł¤ëıĻë¬¼ìĿ´ì§Ģ": 2362,
        "Ġfunction": 2363,
        "ĠìĹ¬ë¶Ģë¥¼": 2364,
        "Ġìĸ´ìĥīíĸĪìľ¼ë©´": 2365,
        "ĠíĴĢê³ł": 2366,
        "Ġì§ĢìĹŃëªħìĿĦ": 2367,
        "Ġë°ĽìĿĦ": 2368,
        "Ġë°ĽëĬĶëĭ¤": 2369,
        "ĠìķĦìĿ´ëĶĶìĸ´ë¥¼": 2370,
        "ĠëĮĢìĭł": 2371,
        "ĠìĹĲëŁ¬ê°Ģ": 2372,
        "Ġë¹¼ë©´": 2373,
        "ĠìĥĿê°ģëĤĺëĬĶ": 2374,
        "Ġêº¼ëĤ´ë´ĲëıĦ": 2375,
        "Ġfixes": 2376,
        "Ġë´ĲëıĦ": 2377,
        "Ġë´Ĳì¤ĺ": 2378,
        "Ġê¸°ë¶ĦìĿ´": 2379,
        "Ġë¶ĦìľĦê¸°ë§Į": 2380,
        "Ġë§īíŀĮ": 2381,
        "Ġëª©ë¡Ŀ": 2382,
        "Ġexplain": 2383,
        "Ġsuggest": 2384,
        "Ġdraft": 2385,
        "Ġì§ĢëĤ´ìĺ¨": 2386,
        "Ġë²ĪìĹŃëıĦ": 2387,
        "Ġì¡°íļĮ": 2388,
        "Ġfunctions": 2389,
        "wit": 2390,
        "´ëıĦ": 2391,
        "´ë³¼ê²Į": 2392,
        "ëĥ": 2393,
        "íĬ¸": 2394,
        "Ġ2": 2395,
        "Ġ10": 2396,
        "Ħëĭ¨": 2397,
        "Īì§Ģ": 2398,
        "Īì¢": 2399,
        "Ĭ¨": 2400,
        "İ´ë³¼ê²Į": 2401,
        "Ķìĸ´": 2402,
        "ĹëĤĺ": 2403,
        "ľ¬": 2404,
        "ĠëĲ": 2405,
        "´ìĬ¨": 2406,
        "Ġë§´ëıĦ": 2407,
        "Ġíģ¬": 2408,
        "Ġê°ķ": 2409,
        "Ġê°Ħëĭ¨": 2410,
        "ê°Ķìĸ´": 2411,
        "Ġswit": 2412,
        "Ġam": 2413,
        "Ġëĭµëĭµ": 2414,
        "íķ´ì¤ĺëıĦ": 2415,
        "ĠëŃĶ": 2416,
        "ìŀĪì§Ģ": 2417,
        "ê¸°ê±°ëĤĺ": 2418,
        "Ġì§Ģìłķ": 2419,
        "Ġìłķë¦¬ëĤĺ": 2420,
        "Ġìłķë¦¬íķĺê±°ëĤĺ": 2421,
        "Ġë§ŀìľ¼ë©´": 2422,
        "ĠìĦ¤ëªħì²ĺëŁ¼": 2423,
        "ĠìĦ¤ëªħíĺķìľ¼ë¡ľ": 2424,
        "ìĿ¸íĬ¸": 2425,
        "ĠìķĦë¬": 2426,
        "ĠëıĦìĭľ": 2427,
        "Ġë¨¸": 2428,
        "Ġë°©íĸ¥ê¹Įì§Ģ": 2429,
        "ĠëıĦìĻĢì¤ĺ": 2430,
        "Ġë¬´ìĬ¨": 2431,
        "ĶĶê°Ģ": 2432,
        "ĠìļĶì²ŃëıĦ": 2433,
        "Ġê°ĢëĬ¥ìĦ±": 2434,
        "Ġìī½ê³ł": 2435,
        "Ġê´ľì°®": 2436,
        "Ġì½ĶëĶ©ìĿĦ": 2437,
        "Ġì½ĶëĶ©ëıĦ": 2438,
        "Ġëį°ìĿ´íĦ°ìĹĲìĦľ": 2439,
        "Ġê°ľë°": 2440,
        "ĠìĥĿê°ģìĿ´": 2441,
        "ìĸ´ì²ĺëŁ¼": 2442,
        "Ġìĸ´ëĶĶê°Ģ": 2443,
        "Ġë³¼ì§Ģ": 2444,
        "Ġë¬¸ìĦľëıĦ": 2445,
        "Ġìĸ¸ìĸ´ìĿ¸ì§Ģ": 2446,
        "Ġìĸĺê¸°íķ´ë³´ìŀĲ": 2447,
        "ĠíĴĪì¢": 2448,
        "ĠëĤ´ìļ©ìĿ´ëĤĺ": 2449,
        "Ġë¹¨ëĿ¼": 2450,
        "Ġë¹ĹëĤĺ": 2451,
        "Ġë²ĶìľĦìĹĲìĦľ": 2452,
        "Ġë°°ì¹ĺ": 2453,
        "Ġê³łìĸĳ": 2454,
        "ĠíĺķìĭĿë§Į": 2455,
        "ë°Ľ": 2456,
        "ĠìŀĪëĬĶì§Ģ": 2457,
        "ĠíĨ¤ìĿ´ëĤĺ": 2458,
        "ĠíĨ¤ê¹Įì§Ģ": 2459,
        "Ġëĭ¬ëĿ¼": 2460,
        "Ġdog": 2461,
        "Ġì°¾ëĬĶ": 2462,
        "Ġì°¾ìķĦì¤ĺ": 2463,
        "Ġëĵ¤ëľ¬": 2464,
        "ĠëĬĲëĤĮìĿ´ëĤĺ": 2465,
        "Ġìĺ¤ëŀľë§ĮìĿ´ëĦ¤": 2466,
        "Ġì§ĢìĹŃìĿ´": 2467,
        "Ġë¬»ê±°ëĤĺ": 2468,
        "ĠìļĶìķ½íķĺê±°ëĤĺ": 2469,
        "ĠìŀĳìĦ±ê¹Įì§Ģ": 2470,
        "Ġíķľë§ĪëĶĶëıĦ": 2471,
        "ĠìĽ¹ìĤ¬ìĿ´íĬ¸ëĬĶ": 2472,
        "ĠíĨ¤ìľ¼ë¡ľëıĦ": 2473,
        "´íİ´ë³¼ê²Į": 2474,
        "Ġìłķë¦¬íķ´ì¤Ħ": 2475,
        "Ġìłķë¦¬íķ´ì£¼ëĬĶ": 2476,
        "Ġì°¨ë¶Ħíķľ": 2477,
        "Ġêº¼ëĤ´ëıĦ": 2478,
        "Ġìĥģíĥľë¥¼": 2479,
        "ĠìĿ´ë¦Ħë§Į": 2480,
        "Ġê·¸ê±¸": 2481,
        "ĪłìĦľ": 2482,
        "Ġë²ĪìĹĲ": 2483,
        "Ġë©Ķìĭľì§ĢëıĦ": 2484,
        "Ġë©Ķìĭľì§ĢëĤĺ": 2485,
        "ĠìĤ´ë¦¬ëĬĶ": 2486,
        "ĠìĤ´íİ´ë³¼ê²Į": 2487,
        "Ġíķ´ê²°íķĺëł¤ê³ł": 2488,
        "ĠìŀĲê¸°ìĨĮê°ľíķ´ì¤ĺ": 2489,
        "ĠíħįìĬ¤íĬ¸ë¡ľ": 2490,
        "Ġíķ´ë³¼ê¹ĮìļĶ": 2491,
        "´ì§Ģì§Ģ": 2492,
        "ìĿ¸ì§ĢëıĦ": 2493,
        "Ġë¬¸ìłľìłĲìĿĦ": 2494,
        "Ġì°¾ìķĦìĦľ": 2495,
        "Ġì°¾ìķĦì¤Ħ": 2496,
        "Ġê°Ģì§Ģë§Į": 2497,
        "ĠìĻ¸ë¡ľìĽĮ": 2498,
        "ĠìĿ¸ìłķíķĺê³ł": 2499,
        "Ġë³´ê¸°ë¡ľ": 2500,
        "ĠìĿ¼ë³¸ìĸ´ì²ĺëŁ¼": 2501,
        "ĠëĤĺëĪłìĦľ": 2502,
        "Ġêµ¬ë¶Ħíķ´ìĦľ": 2503,
        "Ġë°Ķê¾¸": 2504,
        "ĠëĬĲê»´ì§Ģì§Ģ": 2505,
        "Ġê³µë¶Ģíķł": 2506,
        "Ġë¬´ìĹĩìĿ¸ì§ĢëıĦ": 2507,
        "Ġíı¬ìĿ¸íĬ¸": 2508,
        "ĠìĿ´ìľłê°Ģ": 2509,
        "Ġìĺ®ê¸°ê±°ëĤĺ": 2510,
        "Ġìµľìĭł": 2511,
        "ĠëĺĲëĬĶ": 2512,
        "ĠëĦĺìĸ´ê°ĢëıĦ": 2513,
        "Ġìĭłíĺ¸": 2514,
        "Ġë§´ëıĦëĬĶì§Ģ": 2515,
        "Ġíģ¬ê²Į": 2516,
        "Ġê°Ħëĭ¨íŀĪ": 2517,
        "Ġswitch": 2518,
        "Ġëĭµëĭµíķľ": 2519,
        "Ġì§Ģìłķíķ´ì¤ĺëıĦ": 2520,
        "ĠìĦ¤ëªħíĺķìľ¼ë¡ľëıĦ": 2521,
        "ĠìķĦë¬´": 2522,
        "Ġê´ľì°®ëĭ¤ë©´": 2523,
        "Ġê°ľë°ľ": 2524,
        "ĠíĴĪì¢ħ": 2525,
        "Ġë¹ĹëĤĺê°Ķìĸ´": 2526,
        "Ġê³łìĸĳìĿ´": 2527,
        "¹¨": 2528,
        "¿ì": 2529,
        "Ģìŀ¥": 2530,
        "ĺìĿĮ": 2531,
        "ĻìķĦ": 2532,
        "ŀĳ": 2533,
        "Ġë§ĲìĿĢ": 2534,
        "ĠìłĢìŀ¥": 2535,
        "ê°ĻìķĦ": 2536,
        "Ġìķķ": 2537,
        "ë¦¿ì": 2538,
        "ìķĦê°Ģ": 2539,
        "íķ´ë³¼ê¹Į": 2540,
        "ê°ĢìĽĮ": 2541,
        "Ġìłķíķĺì§Ģ": 2542,
        "Ġëĭµíķĺê³ł": 2543,
        "ĠRoblox": 2544,
        "Ġë³´ìĹ": 2545,
        "Ġì§Ģëĥ": 2546,
        "Ġì¢ĭëĦ¤": 2547,
        "ìĿ¸ëį°": 2548,
        "ìłģìĿ´ìķ¼": 2549,
        "ĠìļĶìłĲ": 2550,
        "Ġê±´ì§Ģ": 2551,
        "Ġì½ĶëĶ©ìĿ´": 2552,
        "Ġë§ĲíĪ¬ë¥¼": 2553,
        "Ġëľ»ìĿ¸ëį°": 2554,
        "Ġëį°ìĿ´íĦ°ê°Ģ": 2555,
        "ĠìĤ¬ê³¼ë¥¼": 2556,
        "ĠìķĦëĭĪê³ł": 2557,
        "ĠìĹĨëĤĺ": 2558,
        "Ġíķłê¹Į": 2559,
        "Ġê°ķìķĦì§Ģë¥¼": 2560,
        "ê·¸ëŁ¼": 2561,
        "Ġìĸĺê¸°ë¶ĢíĦ°": 2562,
        "Ġìĸĺê¸°íķ´ë³¼ê¹Į": 2563,
        "Ġëª¨ëį¸ìĿĦ": 2564,
        "ĠëĶ±ëĶ±íķ´": 2565,
        "ĠëĶ±ëĶ±íķľëį°": 2566,
        "Ġì°¨ê°ĢìĽĮ": 2567,
        "ĠíķĻìĬµìĿ´": 2568,
        "ĠíķĻìĬµìĿĦ": 2569,
        "Ġì²ĺìĿĮ": 2570,
        "ĠíĨ¤ìĿĦ": 2571,
        "ĠíĶ¼": 2572,
        "Ġë¬¸ë§¥ìĿĦ": 2573,
        "Ġìĺ¤ëŀľë§ĮìĿ´ì§Ģ": 2574,
        "Ġìĺ¤ëŀľë§ĮìĿ´ëĭ¤": 2575,
        "ìĸ´ê°ĢëĬĶ": 2576,
        "ĠíĻķìĿ¸íķľëĭ¤": 2577,
        "ĠìłĦìķķìĿ´": 2578,
        "ĠìłĦìķķìĿĦ": 2579,
        "ĠíĨłíģ°ìĿ´": 2580,
        "ĠíĨłíģ°ìĿĦ": 2581,
        "ĠìķĦì¹¨": 2582,
        "Ġê²ĥë§Į": 2583,
        "ĠêµĲ": 2584,
        "Ġëĭ¤ìĿĮìĹĲ": 2585,
        "ĠìĥĿê°ģíķ´ëıĦ": 2586,
        "ĠëıĮìķĦê°Ģ": 2587,
        "ĠìĭĿìĤ¬íĸĪìĸ´": 2588,
        "Ġì§ģìłĳìłģìĿ¸": 2589,
        "Ġê¸°ê³ĦìłģìĿ´ìķ¼": 2590,
        "ĠìłĲìĭ¬": 2591,
        "Ġë°ĽìķĦì¤Ģëĭ¤": 2592,
        "ĨįìĹĲ": 2593,
        "ĠìĻ¸ë¡ľìļ´": 2594,
        "ĠìĿ¸ìĤ¬ë¡ľ": 2595,
        "ĠìĹ°ê²°": 2596,
        "ĠíķĺëĬĶê±°ê°ĻìķĦ": 2597,
        "Ġì§Ģë£¨íķ´": 2598,
        "Ġë°ĺìĿĳìĿ´": 2599,
        "Ġë¨¸ë¦¿ì": 2600,
        "Ġë³´ìĹ¬": 2601,
        "Ġì§ĢëĥĪìĸ´": 2602,
        "ĠìļĶìłĲë§Į": 2603,
        "ĠëıĮìķĦê°Ģì¤ĺ": 2604,
        "Ġë¨¸ë¦¿ìĨįìĹĲ": 2605,
        "og": 2606,
        "¥ë": 2607,
        "°ëį": 2608,
        "´ëĭ¤": 2609,
        "¹ľ": 2610,
        "½ìĿĦ": 2611,
        "½ìļ°": 2612,
        "ëľ»": 2613,
        "ĠGPT": 2614,
        "ģìľ¼ë¡ľ": 2615,
        "Ĭ¹": 2616,
        "įĶ": 2617,
        "ķíķ´ìĦľ": 2618,
        "Ńíķł": 2619,
        "íķ¨": 2620,
        "Ġë§¥ë": 2621,
        "íķĺëĭ¤": 2622,
        "íķĺëĲĺ": 2623,
        "íķĺëĭ¤ëĬĶ": 2624,
        "ìĿ´ëĿ¼ëĬĶ": 2625,
        "Ġë§Ĳë¡ľ": 2626,
        "ĠíĬ¹": 2627,
        "ê¸´ëĭ¤": 2628,
        "ìłĦ": 2629,
        "ë¦¬ê³ł": 2630,
        "ëĤĺëıĦ": 2631,
        "ìļ¸": 2632,
        "£¼ë¡ľ": 2633,
        "ìĭľìłģìľ¼ë¡ľ": 2634,
        "ì¶ķíķ´ìĦľ": 2635,
        "Ġì§Īë¬¸ìĿ´ë¯Ģë¡ľ": 2636,
        "ĶëįĶ": 2637,
        "ĠìĹŃíķł": 2638,
        "ĠëıĦìļ¸": 2639,
        "ëŀĢ": 2640,
        "Ġê±´": 2641,
        "Ġë°©íĸ¥ìľ¼ë¡ľ": 2642,
        "Ġê²½ìļ°": 2643,
        "ĠìĿ´ìĸ´ë°Ľ": 2644,
        "Ġì¹ľê·¼íķĺê³ł": 2645,
        "ĠëĦĪëŀĳ": 2646,
        "Ġëª¨ë¥´": 2647,
        "Ġëª¨ëĵľ": 2648,
        "ĠìķĬëĬĶëĭ¤": 2649,
        "ĠìĻĢ": 2650,
        "Ġìĭ¶ìĿĢì§Ģ": 2651,
        "Ġë°ĺë³µíķĺì§Ģ": 2652,
        "Ġë²Ħë¦¬ê³ł": 2653,
        "ĨĮë¥¼": 2654,
        "ĠëĮĢìĿĳ": 2655,
        "Ġë§Įëĵ¤ìĸ´ì¤ĺ": 2656,
        "Ġë¬¸êµ¬ëĤĺ": 2657,
        "Ġêµ°ëį": 2658,
        "Ġë¬»ëĬĶëĭ¤": 2659,
        "ĠìĥĿê°ģíķ´ë³¼": 2660,
        "Ġë¶ĻìĹ¬ì¤Ħê²Į": 2661,
        "Ġì£¼ìĨĮë¥¼": 2662,
        "ĠëĶ°ëľ»": 2663,
        "ĦìĨį": 2664,
        "ĠíĽĦìĨį": 2665,
        "ĠíķľêµŃìĸ´ë¡ľ": 2666,
        "ĠìĹ´ìĸ´ì£¼ëĬĶ": 2667,
        "ĠìľĦì¹ĺ": 2668,
        "ĠìľĦì£¼ë¡ľ": 2669,
        "ĠëĤ¨ê¸´ëĭ¤": 2670,
        "ĠíĴĢìĸ´ë³¼ê²Į": 2671,
        "Ġëªħìĭľìłģìľ¼ë¡ľ": 2672,
        "Ġìķķì¶ķíķ´ìĦľ": 2673,
        "Ġë§¥ëĿ": 2674,
        "ĶëįĶê¸°": 2675,
        "Ġêµ°ëįĶëįĶê¸°": 2676,
        "Su": 2677,
        "clear": 2678,
        "ea": 2679,
        "ew": 2680,
        "go": 2681,
        "gan": 2682,
        "hou": 2683,
        "iew": 2684,
        "ld": 2685,
        "lv": 2686,
        "nclear": 2687,
        "ow": 2688,
        "our": 2689,
        "olv": 2690,
        "view": 2691,
        "¡Į": 2692,
        "§ê²Į": 2693,
        "¨ê³¼": 2694,
        "©ìĸ´": 2695,
        "ª»": 2696,
        "¬ëĿ¼ê³ł": 2697,
        "°ìĸ´": 2698,
        "²Ħ": 2699,
        "³¼": 2700,
        "³ìĹĲìĦľ": 2701,
        "´ëĭ¤ëĬĶ": 2702,
        "µíķ´": 2703,
        "µìĽĲ": 2704,
        "µìĸĳ": 2705,
        "¸ë¥¸": 2706,
        "¸ìķĪíķ´": 2707,
        "¹Ĭ": 2708,
        "¹ê²¨": 2709,
        "¼íķľ": 2710,
        "¼ëĭ¤": 2711,
        "½ì§Ģ": 2712,
        "ì³": 2713,
        "ìħ": 2714,
        "ìĨ": 2715,
        "ì£¼": 2716,
        "ìĪł": 2717,
        "ì§ģìĿ´ìķ¼": 2718,
        "ì¹ľ": 2719,
        "íħ": 2720,
        "íĦ°": 2721,
        "Ġst": 2722,
        "Ġge": 2723,
        "Ġid": 2724,
        "ĠTh": 2725,
        "ģ¼íķľ": 2726,
        "Ħìĺ": 2727,
        "Ħê°ģ": 2728,
        "ĩê²Į": 2729,
        "ĩëĤĺ": 2730,
        "ĩë¹ĽìĿ´": 2731,
        "ĪíİĺìĿ´ì§Ģ": 2732,
        "īìĿĦ": 2733,
        "Įëł¤": 2734,
        "ĲëĲĺ": 2735,
        "Ĳëĭ¨": 2736,
        "ĳ¸ë¥¸": 2737,
        "ĵì¹ľ": 2738,
        "Ķê³ł": 2739,
        "ķìĿĦ": 2740,
        "ķĦìĺ": 2741,
        "Ĺê²Į": 2742,
        "ĺê²Į": 2743,
        "Ľ°ìĸ´": 2744,
        "ľíķĺê²Į": 2745,
        "ŀľë§Į": 2746,
        "ŀìĸ´ìĦľ": 2747,
        "łìĿĺ": 2748,
        "ł¨ê³¼": 2749,
        "Ńê°ģìĿ´": 2750,
        "ĠëĽ°ìĸ´": 2751,
        "íķĻ": 2752,
        "íķĻìĬµ": 2753,
        "Ġê¹Ĭ": 2754,
        "´ì¡Į": 2755,
        "´ìķĦìĺ": 2756,
        "Ġë§Ī": 2757,
        "ssage": 2758,
        "íķĺëĭĪ": 2759,
        "ĸ´ëĳ": 2760,
        "ë¡łìĿĺ": 2761,
        "Ġìŀ¥": 2762,
        "ìĸ´ë¡ľ": 2763,
        "ìĸ´ëĬĲ": 2764,
        "ìĿ´ê²Į": 2765,
        "ìĿ´ëĿ¼": 2766,
        "ìĿ´ëŀ": 2767,
        "Ġíĳ¸ë¥¸": 2768,
        "ìĹĪë": 2769,
        "íķľíħ": 2770,
        "leas": 2771,
        "ê°Īë": 2772,
        "Ġshou": 2773,
        "Ġsolv": 2774,
        "¤ëŀľë§Į": 2775,
        "íķ´ì¤Ħê²Į": 2776,
        "ëĤłìĶ¨": 2777,
        "ìķĦì§ģìĿ´ìķ¼": 2778,
        "ì§ĢëıĦ": 2779,
        "Ġëĭ¹ê²¨": 2780,
        "íķ´ëĳ": 2781,
        "ë³įê²Į": 2782,
        "ê°Ģë³įê²Į": 2783,
        "Īëł¨ê³¼": 2784,
        "ë¦¬ê²łìĬµëĭĪëĭ¤": 2785,
        "Ġëĭµíķĺë©´": 2786,
        "Ġëĭµíķĺê²łëĭ¤ê³ł": 2787,
        "ëĤĺê³ł": 2788,
        "ëĤĺë©´ìĦľ": 2789,
        "Ġê·¸ëŁ¬": 2790,
        "ĠPleas": 2791,
        "Ġreview": 2792,
        "ĠíķĺëĬĺ": 2793,
        "Ġëĭ¤ìĸĳ": 2794,
        "ĠìĤ¬ì§Ħ": 2795,
        "Ġnow": 2796,
        "art": 2797,
        "Ġunclear": 2798,
        "Ġask": 2799,
        "Ġê³³ìĹĲìĦľ": 2800,
        "Ġë³Ģ": 2801,
        "Ġë³´ìł": 2802,
        "Ġë³µìĽĲ": 2803,
        "ê¸°ëĬĶ": 2804,
        "Ġì§Ģì³": 2805,
        "Ġì§ĢëĤĺë©´ìĦľ": 2806,
        "ìĦľìĪł": 2807,
        "ëłĩê²Į": 2808,
        "Ġìłķë¦¬íķľëĭ¤": 2809,
        "ĠëĮĢì": 2810,
        "ĠëĮĢë¡ľ": 2811,
        "ëŁīìĿĦ": 2812,
        "ĠìĦŀìĸ´ìĦľ": 2813,
        "ĠíĮĲëĭ¨": 2814,
        "ĠìĽĲíķ´": 2815,
        "ĠìĦ¤ëªħíķĺê³ł": 2816,
        "ĠìĦ¤ëªħíķ´ë³¼ê²Į": 2817,
        "Ġìļ©ìĸ´": 2818,
        "Ġì§Īë¬¸ìĹĲ": 2819,
        "ĠìŀĲìĹ°ìĬ¤ëŁ¬ìļ´": 2820,
        "ĠìŀĲìĹ°ìĬ¤ëŁ½ì§Ģ": 2821,
        "ìĦ¤ëªħ": 2822,
        "Ķë²Ħ": 2823,
        "Ġë³´ìĿ´ê²Į": 2824,
        "ĠíĮĮëŀ": 2825,
        "ĠíĮĮìŀ¥": 2826,
        "ĠìķĦëĬĶ": 2827,
        "ĠìĿ´ê²Į": 2828,
        "ĠìĿ´ê±°": 2829,
        "ĠìĹ´ë¦¬ëĬĶ": 2830,
        "ĠìĹĩëĤĺ": 2831,
        "Ġìĸµìĸĳ": 2832,
        "ëł¤ìļ´": 2833,
        "Ġë¶ĦëŁīìĿĦ": 2834,
        "ĠìĤ¬ìļ©íķ´ì¤ĺ": 2835,
        "ë¶ĢíĦ°ëĬĶ": 2836,
        "ê¹ħ": 2837,
        "ĠëĤĺíķľíħ": 2838,
        "ĠìłĦìĹĲ": 2839,
        "ĠìķĮëł¤ì¤Ģëĭ¤": 2840,
        "Ġìª½ìĿ´": 2841,
        "Ġìª½ìĿĢ": 2842,
        "Ġê³¼íķĻ": 2843,
        "ĠìļĶì²Ńíķľ": 2844,
        "Ġìĸ´ëł¤ìļ´": 2845,
        "ĥģìĿ´ë¯Ģë¡ľ": 2846,
        "Ġê°ĢëĬ¥íķĺëĲĺ": 2847,
        "Ġì¹ľíķĺê²Į": 2848,
        "Ġwe": 2849,
        "Ġwas": 2850,
        "ìĿ´íĦ°ëĬĶ": 2851,
        "Ġë¶ĦìĦĿìĿĦ": 2852,
        "Ġë¶ĦìĦĿìĿĢ": 2853,
        "Ġë¶ĦìĦĿëıĦ": 2854,
        "Ġë¶ĦìĦĿíķł": 2855,
        "íŀĪëĬĶ": 2856,
        "Ġëľ»ìĿĺ": 2857,
        "ĠìķĦëĭĪìĹĪë": 2858,
        "Ġëĭµë³Ģëĵľ": 2859,
        "ĠíĮĮìĿ¼ëıĦ": 2860,
        "Ġê°ķìķĦì§ĢìĹĲ": 2861,
        "ìĸ´ì¤Ħ": 2862,
        "ĠíĨµíķ´": 2863,
        "Ġë¬¸ìĦľë¥¼": 2864,
        "Ġyour": 2865,
        "Ġìĸ¸ìĸ´ëª¨ëį¸": 2866,
        "ĠíĿĲë¦Ħê³¼": 2867,
        "ìĺ¤ëŀľë§Į": 2868,
        "ìķĪìĿĦ": 2869,
        "ìĿĮìķħ": 2870,
        "ìĦ±ëıĦ": 2871,
        "Ġë§ŀì¶°ìķ¼": 2872,
        "Ġë°ĺê°ĢìĽĢ": 2873,
        "Ġë°ĺê°ĢìĽĢìĿĦ": 2874,
        "Ġê²Ģìĥīíķ´ì¤ĺ": 2875,
        "ê³Ħìłģìľ¼ë¡ľ": 2876,
        "Ġìĸĺê¸°ë¥¼": 2877,
        "íĸĪì§Ģ": 2878,
        "ĠìłķìĿĺë¡ľ": 2879,
        "ĠìłķìĿĺíķľëĭ¤": 2880,
        "ĠëĤ´ìļ©ëıĦ": 2881,
        "ĠëĤ´ìļ©ìĿ´ë©´": 2882,
        "ĠëĤ´ìļ©ìĿ´ëĿ¼": 2883,
        "Ġë§Įëĵł": 2884,
        "ĠëĶ±ëĶ±íķĺëĭ¤ëĬĶ": 2885,
        "ĠìĤ¬ëŀĮìĿ´": 2886,
        "ĠìĿ¸ê°Ħ": 2887,
        "ĠìĿ¸íĦ°": 2888,
        "Ġì¶Ķëł¤ë": 2889,
        "Ġì¶Ķë¡łìĿĺ": 2890,
        "Ġê³łë¥¼": 2891,
        "ĠëĬĲë¦°": 2892,
        "ĠíķĦìļĶíķł": 2893,
        "ĠíķĦìļĶíķĺëĭĪ": 2894,
        "Ġìŀ¡ê³ł": 2895,
        "Ġìŀ¡ìķĺ": 2896,
        "ëŁ¬ìļ´": 2897,
        "ĠíķĻìĬµê³¼": 2898,
        "Ġì²Ńê°ģìĿ´": 2899,
        "ĠìĿ½ìĿĦ": 2900,
        "ĠìĿ½ìĸ´ì¤Ħ": 2901,
        "ĠìķĬìķĺ": 2902,
        "ë¬¼ìĿ´ìķ¼": 2903,
        "Ġë³´ëĤ´ì¤ĺ": 2904,
        "Ġëĭ¨ê³Ħìłģìľ¼ë¡ľ": 2905,
        "ĠìłĦíĻĺìĿĢ": 2906,
        "ĠìłĦíĻĺíķľëĭ¤": 2907,
        "ĠìĿ´ìĥģíķľ": 2908,
        "ĠìĿ´ìĥģíķľëį°": 2909,
        "ĠìĿ´ìĥģíĸĪì§Ģ": 2910,
        "Ġë¬¼ìĸ´ìĦľ": 2911,
        "ĠìĽĲìĿ¸ìĿĦ": 2912,
        "tting": 2913,
        "Ġëįĺìł¸ì£¼ë©´": 2914,
        "Ġìŀ¡ëĭ´ìĿĦ": 2915,
        "Ġê³¼ìŀ¥íķĺì§Ģ": 2916,
        "ĠìĿ´ìķ¼ê¸°íķ´ëıĦ": 2917,
        "ĠíĨ¤ìĿĢ": 2918,
        "Ġê¸°ì´Ī": 2919,
        "Ġë¶Ģë¶ĦìĿĢ": 2920,
        "Ġë°Ķê¿Ķì¤Ħ": 2921,
        "Ġchat": 2922,
        "ĠìĿ´íķ´ë¥¼": 2923,
        "ĠìĿ´íķ´ëĲĺ": 2924,
        "Ġdoing": 2925,
        "Ġìĥģíģ¼íķľ": 2926,
        "Ġìĭľìŀĳ": 2927,
        "Ġë°ĺë³µê³¼": 2928,
        "Ġìĸ´ìĥīíķł": 2929,
        "ì¡°íķľëĭ¤": 2930,
        "íĨłíģ°": 2931,
        "ë§¥ìĿĢ": 2932,
        "ĠëģĮëł¤": 2933,
        "Ġë°°ìļ´ëĭ¤ëĬĶ": 2934,
        "Ġìŀ¬ìĦľìĪł": 2935,
        "ĠìĤ¬ìĿ´íĬ¸ìĹĲìĦľ": 2936,
        "ĠìĿĮìĦ±ëıĦ": 2937,
        "ĠíĻĪíİĺìĿ´ì§Ģ": 2938,
        "ë³´ìŀĲëıĦ": 2939,
        "ĠëĬĲëĤĮìľ¼ë¡ľ": 2940,
        "ĠìŀĪì§Ģë§Į": 2941,
        "Ġìĸ´ìĥīíĸĪìĿĦ": 2942,
        "Ġìĸ´ìĥīíĸĪì§Ģ": 2943,
        "ìķķìĿĢ": 2944,
        "ĠìłķíĻķíķľ": 2945,
        "Ġìĺ¤ëŀľë§ĮìĿ´ëĿ¼ëĬĶ": 2946,
        "Ġì§ĢìĹŃìĿĦ": 2947,
        "ĠíĳľíĺĦìĹĲëĬĶ": 2948,
        "Ġê°ľëħĲìĿĢ": 2949,
        "ĠìĥĿìĦ±ê³¼": 2950,
        "ĠìĥĿìĦ±íķĺê±°ëĤĺ": 2951,
        "ĠíĻķìĿ¸íķĺê³ł": 2952,
        "ĠíĻķìĿ¸íķ´ì¤Ħê²Į": 2953,
        "Ġë¶ĢëĵľëŁ¬ìļ´": 2954,
        "ĠëķĮëĬĶ": 2955,
        "ĠëķĮë¬¸": 2956,
        "ĠëĮĢê¸°ë¥¼": 2957,
        "ĠìļĶìķ½íĺķìľ¼ë¡ľ": 2958,
        "ĠìĭĿìľ¼ë¡ľ": 2959,
        "Ġì²ĺë¦¬íķ´": 2960,
        "Ġì²ĺë¦¬íķľëĭ¤": 2961,
        "Ġê´ĢìłĲ": 2962,
        "ĠìĿ´ìĸ´ê°Ģë©´": 2963,
        "ëĮĢ": 2964,
        "Ġì´Īë³´ìŀĲëıĦ": 2965,
        "Ġì¤ĳìļĶíķĺê²Į": 2966,
        "Ġìłķë³´ê°Ģ": 2967,
        "Ġìłķë³´ìĿĺ": 2968,
        "ĠìŀĲë£Įë¥¼": 2969,
        "Ġë¹Ħìľł": 2970,
        "ĠìĿĮìķħìĿĢ": 2971,
        "ĠìĿĮìķħëıĦ": 2972,
        "ì²ľì²ľíŀĪ": 2973,
        "Ġìĺ¤ë¥ĺê°Ģ": 2974,
        "ĠëĶĶë²Ħ": 2975,
        "Ġmessage": 2976,
        "Ġëĭ¤ìĿĮë¶ĢíĦ°ëĬĶ": 2977,
        "Ġë¶ĻìĹ¬ìĦľ": 2978,
        "ëį°ìĿ´íĦ°ëĬĶ": 2979,
        "ĠìĥģíĥľëĿ¼": 2980,
        "Ġìĺ¤ëĶĶìĺ¤ëıĦ": 2981,
        "ĠìĿ´ë¯¸ì§ĢëĬĶ": 2982,
        "ëĲĺê¸°": 2983,
        "ĠìĤ´ìķĦìĺ": 2984,
        "Ġì¶Ķì¶ľíķĺëĬĶ": 2985,
        "Ġê¸°ìĸµíķ´": 2986,
        "Ġê¸°ìĸµíķ´ì¤ĺ": 2987,
        "ł¸ëĬĶì§Ģ": 2988,
        "Ġê·¸ìª½ìĿĢ": 2989,
        "Ġì¤ĦìĹ¬ìĦľ": 2990,
        "Ġì¤ĦìĹ¬ë³¼ê²Į": 2991,
        "ĠìĿĳëĭµíķľëĭ¤": 2992,
        "ĠìĥģíĻ©ìĹĲìĦľ": 2993,
        "Ġì°¨ë¶Ħíķĺê²Įì²ĺëŁ¼": 2994,
        "Ġorgan": 2995,
        "Ġë§īíŀĪëĬĶ": 2996,
        "Ġìŀ¬ë£ĮëĿ¼ëĬĶ": 2997,
        "Ġìµľê·¼": 2998,
        "Ġì¤Ģëĭ¤": 2999,
        "Ġê¸°ì¤ĢìĿĦ": 3000,
        "ĠìĪĺëĭ¤ë¥¼": 3001,
        "ĠìĪĺëĭ¤ì²ĺëŁ¼": 3002,
        "ĠìĿ´ìĸ´ì¤Ģëĭ¤": 3003,
        "ĠëıĮëł¤ì¤Ģëĭ¤": 3004,
        "ĠíĽĦê°ģ": 3005,
        "ĠíĽĪëł¨ê³¼": 3006,
        "ĠíĭĢìĿĦ": 3007,
        "Ġë§ŀì¶°ì¤Ģëĭ¤": 3008,
        "Ġë°ĽìķĦë³¼ê²Į": 3009,
        "ë¬¸ìĦľ": 3010,
        "ë¬¸ë§¥ìĿĢ": 3011,
        "ĠìĤ°ëŀĢ": 3012,
        "ĠíĹ·ê°Īë": 3013,
        "Ġê³łë¯¼ìĿĦ": 3014,
        "Ġë©Īì¶Ķê³ł": 3015,
        "ĠíĴĢìĸ´ì¤Ħê²Į": 3016,
        "ì½Ķëĵľ": 3017,
        "Ġê°Ģì§Ģë¶ĢíĦ°": 3018,
        "Ġëª©ìĨ": 3019,
        "ĠìĿ¼ë³¸ìĸ´ë¡ľ": 3020,
        "Ġêµ¬ë¶Ħíķľëĭ¤": 3021,
        "Ġë°Ķê¾¼ëĭ¤": 3022,
        "ĠëĬĲê»´ì¡Į": 3023,
        "Ġìĺ¨ëıĦë¡ľ": 3024,
        "Ġìĺ¨ëıĦë¥¼": 3025,
        "ĠíĻĶë©´ìĿĦ": 3026,
        "Ġê³µë¶ĢëĤĺ": 3027,
        "ĠìĹ°ëĭ¤": 3028,
        "ĠìĹ´ìĸ´ëĳ": 3029,
        "Ġì§Ģë£¨íķ¨": 3030,
        "ì§Ħëĭ¤": 3031,
        "ìŀĳê³¼": 3032,
        "Ġready": 3033,
        "Ġreading": 3034,
        "Ġë°©ìĭĿìĿĢ": 3035,
        "ĠìĿ´ëª¨ì§Ģë¥¼": 3036,
        "ĠìĿ´ëª¨ì§ĢëıĦ": 3037,
        "ĠëıĻë¬¼ìĿ´ìķ¼": 3038,
        "ĠëıĻìŀĳê³¼": 3039,
        "ĠëĬĺë¦¬ì§Ģ": 3040,
        "ĠëĬĺë¦¬ëĿ¼ëĬĶ": 3041,
        "Ġë°ĺë³µë³´ëĭ¤ëĬĶ": 3042,
        "ëª¨ëį¸ìĿĢ": 3043,
        "ì§§ê²Į": 3044,
        "Ġë¯¸ìķĪíķ´": 3045,
        "Ġìŀĺëª»": 3046,
        "ì½ĶëĶ©ìĿĢ": 3047,
        "ëĦ·": 3048,
        "ĠëĨĵì¹ľ": 3049,
        "Ġê°ķì¡°íķľëĭ¤": 3050,
        "Ġê°ĢëĬ¥ìĦ±ìĿĦ": 3051,
        "Ġëĭ¬ëĿ¼ì§Ħëĭ¤": 3052,
        "Ġë°Ķê¾¸ëĿ¼ëĬĶ": 3053,
        "Ġìĭłíĺ¸ëĿ¼": 3054,
        "ĠíĴĪì¢ħìĿ´": 3055,
        "ĠìłĢìŀ¥íķ´ëĳ": 3056,
        "ĠêµĲê°ĲìĿ´": 3057,
        "ĠìĹ°ê²°íķ´": 3058,
        "ogle": 3059,
        "ìłĦìķķìĿĢ": 3060,
        "Ġê²½ìļ°ìĹĲëĬĶ": 3061,
        "ĠìĿ´ìĸ´ë°Ľê¸°ëĬĶ": 3062,
        "Ġëª¨ë¥´ê²łìĸ´": 3063,
        "ĠëĶ°ëľ»íķĺê³ł": 3064,
        "ĠìľĦì¹ĺë¥¼": 3065,
        "Ġë§¥ëĿ½ìĿĦ": 3066,
        "Sure": 3067,
        "google": 3068,
        "³¼ê²Į": 3069,
        "Ġstart": 3070,
        "Ġgetting": 3071,
        "Ġidea": 3072,
        "ĠThat": 3073,
        "ĠëĽ°ìĸ´ëĤĺê³ł": 3074,
        "íķĻìĬµìĿĢ": 3075,
        "Ġê¹Ĭê²Į": 3076,
        "ìĿ´ëŀĳ": 3077,
        "Ġíĳ¸ë¥¸ë¹ĽìĿ´": 3078,
        "Ġshould": 3079,
        "Ġsolve": 3080,
        "Ġê·¸ëŁ¬ë©´": 3081,
        "ĠPlease": 3082,
        "ĠíķĺëĬĺìĿ´": 3083,
        "Ġëĭ¤ìĸĳíķĺê³ł": 3084,
        "ĠìĤ¬ì§ĦëıĦ": 3085,
        "Ġë³´ìłķìĿĦ": 3086,
        "Ġë³µìĽĲíķľëĭ¤": 3087,
        "ĠëĮĢìĥģìĿ´ë¯Ģë¡ľ": 3088,
        "ĠíĮĲëĭ¨íķĺëĬĶ": 3089,
        "Ġìļ©ìĸ´ëĬĶ": 3090,
        "ĠíĮĮëŀĹê²Į": 3091,
        "ĠíĮĮìŀ¥ìĿĺ": 3092,
        "ĠìĹĩëĤĺê°Ħ": 3093,
        "ĠìĸµìĸĳìĿĦ": 3094,
        "ĠëĤĺíķľíħĮ": 3095,
        "ĠìķĦëĭĪìĹĪëĦ¤": 3096,
        "Ġëĭµë³Ģëĵľë¦¬ê²łìĬµëĭĪëĭ¤": 3097,
        "ĠëĤ´ìļ©ìĿ´ëĿ¼ëıĦ": 3098,
        "ĠìĿ¸ê°ĦìłģìĿ¸": 3099,
        "ĠìĿ¸íĦ°ëĦ·": 3100,
        "Ġì¶Ķëł¤ë³¼ê²Į": 3101,
        "ĠëĬĲë¦°ì§Ģ": 3102,
        "Ġìŀ¡ìķĺëĦ¤": 3103,
        "ĠìķĬìķĺì§Ģ": 3104,
        "ĠìĿ´íķ´ëĲĺê²Į": 3105,
        "Ġìĭľìŀĳíķł": 3106,
        "íĨłíģ°ìĿĢ": 3107,
        "ĠëķĮë¬¸ìĿ´ìķ¼": 3108,
        "Ġê´ĢìłĲìľ¼ë¡ľ": 3109,
        "Ġë¹Ħìľłë³´ëĭ¤": 3110,
        "ĠëĶĶë²Ħê¹ħ": 3111,
        "ĠìĤ´ìķĦìĺ¨": 3112,
        "Ġorganize": 3113,
        "ĠíĽĦê°ģê³¼": 3114,
        "ĠìĤ°ëŀĢëĲĺê¸°": 3115,
        "ĠíĹ·ê°Īëł¸ëĬĶì§Ģ": 3116,
        "Ġëª©ìĨĮë¦¬": 3117,
        "ĠëĬĲê»´ì¡Įëĭ¤ë©´": 3118,
        "ĠìĹ´ìĸ´ëĳĲëĲĺ": 3119,
        "Ġì§Ģë£¨íķ¨ìĹĲëĬĶ": 3120,
        "ĠìłĢìŀ¥íķ´ëĳĺê²Į": 3121,
        "Yes": 3122,
        "bug": 3123,
        "ci": 3124,
        "ech": 3125,
        "ebug": 3126,
        "gn": 3127,
        "gy": 3128,
        "gen": 3129,
        "ici": 3130,
        "lts": 3131,
        "no": 3132,
        "pon": 3133,
        "que": 3134,
        "rt": 3135,
        "su": 3136,
        "ter": 3137,
        "tin": 3138,
        "tell": 3139,
        "¡ìĭĿ": 3140,
        "¤íķ´": 3141,
        "¤ê²ł": 3142,
        "¨¸": 3143,
        "©ë¶Ħ": 3144,
        "©íķ´ìĦľ": 3145,
        "°ê³ł": 3146,
        "±ìłķ": 3147,
        "´ëł¤": 3148,
        "´ê±": 3149,
        "¼ë§": 3150,
        "¼ì²": 3151,
        "êº¼": 3152,
        "íĭ": 3153,
        "íĮ": 3154,
        "Ġ3": 3155,
        "Ġ5": 3156,
        "Ġ6": 3157,
        "Ġcom": 3158,
        "Ġlear": 3159,
        "ĠSure": 3160,
        "Ġgen": 3161,
        "Ġque": 3162,
        "ĪìĹĲ": 3163,
        "Īìķ¼": 3164,
        "īíķľ": 3165,
        "īëıĻ": 3166,
        "Ĳìłķ": 3167,
        "ļ´": 3168,
        "ľëĭ¤": 3169,
        "stion": 3170,
        "ans": 3171,
        "erate": 3172,
        "íķĺë©´ìĦľ": 3173,
        "ê³¤íķ´": 3174,
        "ontin": 3175,
        "Ġtra": 3176,
        "Ġthat": 3177,
        "Ġtech": 3178,
        "Ġë§Ĳíķĺë©´": 3179,
        "Ġíģ°": 3180,
        "ĠíĤ¤": 3181,
        "Ġê°Ĳìłķ": 3182,
        "ata": 3183,
        "atter": 3184,
        "Ġart": 3185,
        "ence": 3186,
        "ents": 3187,
        "ì§ĢëĬĶ": 3188,
        "íķ´ë´ĲëıĦ": 3189,
        "Ġìłķíķ´ë´ĲëıĦ": 3190,
        "°ìļ©": 3191,
        "°ìļ´": 3192,
        "Ġdebug": 3193,
        "Ġdata": 3194,
        "Ġê·¸ëłĩê²Į": 3195,
        "Ġreco": 3196,
        "Ġresu": 3197,
        "Ġintell": 3198,
        "ĠíķĺëıĦë¡Ŀ": 3199,
        "ĠëįĶíķĺë©´": 3200,
        "Ġëĭ¤ë£": 3201,
        "Ġpatter": 3202,
        "ĠRight": 3203,
        "Ġbug": 3204,
        "Ġë³´ìŀĲ": 3205,
        "ĠìķĮê²łìĬµëĭĪëĭ¤": 3206,
        "ĠëĦĮ": 3207,
        "Ġìłķë¦¬ëıĦ": 3208,
        "Ġìłķë¦¬ê¹Įì§Ģ": 3209,
        "Ġìłķë¦¬íķ´ë³´ìŀĲ": 3210,
        "Ġì§§ìķĦ": 3211,
        "Ġë¬¸ëĭ¨": 3212,
        "ĠìĦ¤ëªħìĿ´ëĤĺ": 3213,
        "ĠìĦ¤ëªħë³´ëĭ¤": 3214,
        "ìĿ¸ëĭ¤": 3215,
        "ìĿ¸ê³µì§ĢëĬ¥": 3216,
        "Ġì§Īë¬¸ìĿĢ": 3217,
        "Ġíķľêº¼": 3218,
        "ëĭ¬ëĿ¼ê³ł": 3219,
        "ĠíĮĮìķħ": 3220,
        "ĠëĮĢíĻĶíķĺë©´ìĦľ": 3221,
        "Ġê¸īíķľ": 3222,
        "Ġìĸ¼ë§": 3223,
        "ìłľë¥¼": 3224,
        "Ġê±±ìłķ": 3225,
        "ĠìĿ¼ëĭ¨": 3226,
        "ĠìĤ¬ìļ©ìŀĲëĬĶ": 3227,
        "Ġë¬´ê±": 3228,
        "Ġê±¸ê¹Į": 3229,
        "ë²ĪìĹĲ": 3230,
        "Ġìĺģìĸ´ëıĦ": 3231,
        "Ġê°ĢëĬ¥íķĺëĭ¤ê³ł": 3232,
        "Ġë¶ĦìĦĿíķ´ì¤ĺ": 3233,
        "Ġëľ»ìĿ´": 3234,
        "Ġìľ¡ìĭĿ": 3235,
        "Ġëĭµë³ĢìĿĦ": 3236,
        "Ġë§Ĳíķ´ì¤Ħê²Į": 3237,
        "ĠIf": 3238,
        "ĠIt": 3239,
        "Ġìĸĺê¸°ëĤĺ": 3240,
        "ë¥ĺë¡ľ": 3241,
        "Ġìŀĺíķĺê³ł": 3242,
        "ĠëĤłìĶ¨ì²ĺëŁ¼": 3243,
        "ĠíķĻìĬµíķ´ìĦľ": 3244,
        "Ġë¬¸ìŀ¥ìĿ´ëĤĺ": 3245,
        "logy": 3246,
        "ìĹ°íķĺë©´": 3247,
        "Ġcontin": 3248,
        "Ġêµ¬ì²´ìłģìľ¼ë¡ľ": 3249,
        "ĠìłľìķĪìĿĦ": 3250,
        "ĠìłľìķĪê¹Įì§Ģ": 3251,
        "Ġë²Ħíĭ": 3252,
        "ĠíĴĢëł¤ê³ł": 3253,
        "Ġìłģìĸ´ì¤ĺ": 3254,
        "Ġë¶ĪìķĪíķ´": 3255,
        "Ġë¶ĪìķĪìĿĦ": 3256,
        "ìĺ¤ì¼ĢìĿ´": 3257,
        "Ġë¹Ħìĸ´": 3258,
        "ĠìĺĪì¸¡íķĺê±°ëĤĺ": 3259,
        "Ġmeans": 3260,
        "ĠWe": 3261,
        "Ġì£¼ìĬ¤ë¡ľëıĦ": 3262,
        "ĠìĥĪì½¤íķĺê³ł": 3263,
        "Ġë³´ì¡°ë¥¼": 3264,
        "Ġíķ´ê²°ìĿĦ": 3265,
        "igence": 3266,
        "ìļ°ëĬĶ": 3267,
        "Ġë§īìĹ°íķĺë©´": 3268,
        "ĠíĻĶìłľë¥¼": 3269,
        "ifici": 3270,
        "Ġì¡°ìļ©": 3271,
        "Ġë©Ķëī´ì": 3272,
        "ĠëĤĺë¨¸": 3273,
        "Ġë¬´ìĹĩìĿĦ": 3274,
        "Ġíĸĩë¹ĽìĿ´": 3275,
        "ĠíĸīëıĻ": 3276,
        "Ġíı¬ìľł": 3277,
        "ĠìĿ´ìľłë¥¼": 3278,
        "Ġìĺ®ê²¨": 3279,
        "ĠìµľëĮĢ": 3280,
        "Ġë©Ķëī´ë¥¼": 3281,
        "ì§ķìĿ¸": 3282,
        "Ġë¯¼ì²": 3283,
        "ĠìŀĺëĲĺê³ł": 3284,
        "Ġproblems": 3285,
        "ĠëĲľëĭ¤": 3286,
        "ĠëŃĶì§Ģ": 3287,
        "ĠìŀĪëĬĶì§Ģë¶ĢíĦ°": 3288,
        "Ġdogê°Ģ": 3289,
        "Ġê³łìĸĳìĿ´ê°Ģ": 3290,
        "ĠíĶ¼ê³¤íķ´": 3291,
        "ĠíĬ¹ì§ķìĿ¸": 3292,
        "ìħĶ": 3293,
        "Ġë§ĪìħĶ": 3294,
        "Ġì§Ģì³¤ê²ł": 3295,
        "gnize": 3296,
        "nology": 3297,
        "ponents": 3298,
        "©ë¶ĦíŀĪ": 3299,
        "íĮĮ": 3300,
        "Ġcomponents": 3301,
        "Ġlearns": 3302,
        "Ġgenerate": 3303,
        "Ġquestion": 3304,
        "Ġtrace": 3305,
        "Ġtechnology": 3306,
        "ĠíĤ¤ìļ°ëĬĶ": 3307,
        "Ġartifici": 3308,
        "Ġrecognize": 3309,
        "Ġresults": 3310,
        "Ġintelligence": 3311,
        "Ġëĭ¤ë£°": 3312,
        "Ġpatterns": 3313,
        "Ġbugs": 3314,
        "Ġë¬¸ëĭ¨ìĿĦ": 3315,
        "ìĿ¸ê³µì§ĢëĬ¥ìĿĢ": 3316,
        "Ġíķľêº¼ë²ĪìĹĲ": 3317,
        "Ġìĸ¼ë§Īìķ¼": 3318,
        "Ġê±±ìłķìĿ´": 3319,
        "Ġë¬´ê±°ìļ´": 3320,
        "Ġcontinue": 3321,
        "Ġë²Ħíĭ°ê³ł": 3322,
        "Ġìłģìĸ´ì¤ĺëıĦ": 3323,
        "Ġì¡°ìļ©íķĺê³ł": 3324,
        "ĠëĤĺë¨¸ì§ĢëĬĶ": 3325,
        "ĠíĸīëıĻìĿĦ": 3326,
        "Ġíı¬ìľłë¥ĺë¡ľ": 3327,
        "Ġìĺ®ê²¨ë³¼ê²Į": 3328,
        "ĠìµľëĮĢíķľ": 3329,
        "Ġë¯¼ì²©íķ´ìĦľ": 3330,
        "Ġì§Ģì³¤ê²łëĭ¤": 3331,
        "Ġquestions": 3332,
        "Ġartificial": 3333,
        "Hi": 3334,
        "¡ê³ł": 3335,
        "¤íĸĪëĬĶì§Ģ": 3336,
        "¦ī": 3337,
        "©ê¸Ī": 3338,
        "«ìĸ´": 3339,
        "¬ìĽĮ": 3340,
        "¯ìĿ´": 3341,
        "´ë¥¼": 3342,
        "íĺ¸": 3343,
        "Ġíķ´ë³¼ê²Į": 3344,
        "Ģëĵ": 3345,
        "ĪìĹĲëĬĶ": 3346,
        "ķł": 3347,
        "Ŀê¹Įì§Ģ": 3348,
        "łë§": 3349,
        "Ġì¦ī": 3350,
        "ĠëĲĺ": 3351,
        "ë¡ľìļ´": 3352,
        "ìĿ´ëĿ¼ê³ł": 3353,
        "Ġë§Ĳíķ´ëıĦ": 3354,
        "ìĹ´": 3355,
        "Ġìķłë§": 3356,
        "ìłĪ": 3357,
        "íķ´ì£¼ëĬĶ": 3358,
        "ìŀ¡ê³ł": 3359,
        "ìļ°ë¦¬": 3360,
        "ë§Įíķľ": 3361,
        "ëŁ´": 3362,
        "ì²´ë¥¼": 3363,
        "Ġê°Ģê¹Į": 3364,
        "ĠìĦ¤ëªħíķ´ì£¼ëĬĶ": 3365,
        "Ġì§Īë¬¸íķ´ëıĦ": 3366,
        "Ġë³´ëĤ´": 3367,
        "ì¤ĺëıĦ": 3368,
        "ĠëĮĢíĻĶíķĺëĬĶ": 3369,
        "ĠëĮĢíĻĶíĺķìľ¼ë¡ľ": 3370,
        "Ġíİ¸ìĿ´": 3371,
        "Ġê±°ëĤĺ": 3372,
        "Ġìĭ«ìĸ´": 3373,
        "ĠëĤĺìĹ´": 3374,
        "Ġê±¸ë¡ľ": 3375,
        "Ġê±¸ìĸ´ì¤ĺ": 3376,
        "Ġë¶Ģë¥´ë©´": 3377,
        "ĠìļĶì²Ńíķĺë©´": 3378,
        "Ġê¶ģê¸Īíķ´": 3379,
        "ìĿ´ìį¬ìĿĢ": 3380,
        "Ġìī¬ìĽĮ": 3381,
        "Ġë¶ĦìĦĿíķĺëł¤ê³ł": 3382,
        "ĠìķĦëĭĪë©´": 3383,
        "Ġì½ĶëĵľëĤĺ": 3384,
        "Ġíķłì§Ģ": 3385,
        "Ġíķłë§Įíķľ": 3386,
        "Ġë§İìķĦ": 3387,
        "Ġìĸ´ëķł": 3388,
        "Ġë¬¸ìĦľëĤĺ": 3389,
        "Ġê¸°ëĬ¥": 3390,
        "ê·¸ëŁ´": 3391,
        "Ġhi": 3392,
        "Ġì¶©ë¶ĦíŀĪ": 3393,
        "Ġìĸĺê¸°íķĺê³ł": 3394,
        "Ġë§Įíķľ": 3395,
        "ĠëĶ±ëĶ±íĸĪìĸ´": 3396,
        "ĠìĿ´ë²Īë¶ĢíĦ°": 3397,
        "ĠìĿ´ë²ĪìĹĲëĬĶ": 3398,
        "ĠìĿ½ìĸ´ëıĦ": 3399,
        "ĠìĿ½ìĹĪìĸ´": 3400,
        "Ġë³´ëĤ´ì¤Ħê²Į": 3401,
        "ë´Ĳì¤ĺëıĦ": 3402,
        "ĠìĿ´ìĥģíĸĪìĸ´": 3403,
        "ĠìĿ´ìĥģíķĺëĭ¤ê³ł": 3404,
        "ë°©ê¸Ī": 3405,
        "ĠëĬ¥ëł¥ìĿĦ": 3406,
        "ĠìĹ¬ê¸°ìĦľ": 3407,
        "Ġë¶Ļìŀ¡ê³ł": 3408,
        "ĠëģĿê¹Įì§Ģ": 3409,
        "ëĬĶì§Ģë¶ĢíĦ°": 3410,
        "Ġë¬¸ë§¥ìĹĲ": 3411,
        "ĠíĴĢìĸ´ê°ĢëĬĶ": 3412,
        "Ġë¬¼ìĸ´ë´Ĳì¤ĺëıĦ": 3413,
        "Ġë°Ľê³ł": 3414,
        "ĠìĥĪë¡ľìļ´": 3415,
        "ĠìĿ´ìĸ´ê°ĢìŀĲ": 3416,
        "Ġë§Įëĵ¤ìĸ´ê°ĢëĬĶ": 3417,
        "Ġêµ´ëł¤": 3418,
        "ĠìĽ¹ìĤ¬ìĿ´íĬ¸ìĹĲìĦľ": 3419,
        "ĠìĥĿê°ģíķĺë©´": 3420,
        "Ġë¶ĻìĹ¬ì£¼": 3421,
        "Ġì§ģìłĦ": 3422,
        "Ġë²Īíĺ¸": 3423,
        "Ġì¶Ķì¶ľë¶ĢíĦ°": 3424,
        "Ġìĭ¬ìĭ¬íķľëį°": 3425,
        "Ġëª»": 3426,
        "Ġê³µê°Ĳ": 3427,
        "Ġë°ĽìķĦìķ¼": 3428,
        "ĠìĿ¸ìłķíķľëĭ¤": 3429,
        "Ġêº¼ëĤ´ì§Ģ": 3430,
        "ĠìĿ´ìłľë¶ĢíĦ°ëĬĶ": 3431,
        "Ġêµ°ìĤ°ìĿ´ë©´": 3432,
        "ĠíĸĪìĸ´": 3433,
        "ĠìķĪëĤ´": 3434,
        "Ġë¡ľê·¸ë¥¼": 3435,
        "Ġê·¸ëŁ°ì§Ģ": 3436,
        "ĠëĤ¨ëĬĶ": 3437,
        "ĠíĴĢìĸ´ë´ĲëıĦ": 3438,
        "ĠëĨĢëĵ": 3439,
        "Ġë°ĽìĿĦê²Į": 3440,
        "ĠëĲł": 3441,
        "ĠëŃĶê°Ģ": 3442,
        "ĠdogëĬĶ": 3443,
        "ĠìķĦë¬´ê±°ëĤĺ": 3444,
        "Ġê³łìĸĳìĿ´ëĬĶ": 3445,
        "Ġìĸĺê¸°íķ´ë³¼ê¹ĮìļĶ": 3446,
        "ĠìĹŃíķłìĿ´ëĿ¼ê³ł": 3447,
        "Ġëª¨ëĵľë¡ľ": 3448,
        "Ġë³Ģëªħ": 3449,
        "Ġì§§ìķĦìĦľ": 3450,
        "Ġë©Ķëī´ì²ĺëŁ¼": 3451,
        "íĮĮìĿ´ìį¬ìĿĢ": 3452,
        "Ġì¦īìĭľ": 3453,
        "Ġìķłë§¤íĸĪëĬĶì§Ģ": 3454,
        "Ġê°Ģê¹ĮìĽĮ": 3455,
        "Ġìĭ«ìĸ´íķľëĭ¤": 3456,
        "Ġìī¬ìĽĮìĦľ": 3457,
        "Ġìĸ´ëķłëĬĶì§Ģë¶ĢíĦ°": 3458,
        "ĠìĿ´ë²Īë¶ĢíĦ°ëĬĶ": 3459,
        "Ġêµ´ëł¤ëıĦ": 3460,
        "Ġë¶ĻìĹ¬ì£¼ê±°ëĤĺ": 3461,
        "ĠëĨĢëĵ¯ìĿ´": 3462,
        "ëŃ": 3463,
        "ìĪ": 3464,
        "íĽ": 3465,
        "ĠHi": 3466,
        "īìĿ´": 3467,
        "ĵì§Ģ": 3468,
        "ĽìĿ´ëĤĺ": 3469,
        "Ŀëĭ¤": 3470,
        "ĠìĨį": 3471,
        "íķµìĭ¬": 3472,
        "Ġë§Ľê³¼": 3473,
        "ê³µìĭĿ": 3474,
        "Ġë§Ĳíķĺê²łëĭ¤ê³ł": 3475,
        "ì§ĢìĹŃ": 3476,
        "ê°ĢëĬ¥": 3477,
        "Ġìłķì²´ë¥¼": 3478,
        "ĠíķĺëĬĶì§Ģ": 3479,
        "Ġì§Ģìłģ": 3480,
        "Ġê°Ģê¸°": 3481,
        "Ġê°Ģê¹": 3482,
        "ê³¼ìĹĲ": 3483,
        "ĠìĽĲíķľëĭ¤": 3484,
        "ĠìĦ¤ëªħë¶ĢíĦ°": 3485,
        "ĠìĦ¤ëªħìĿ´ëŀĳ": 3486,
        "Ġì§Īë¬¸ìĿ´ëĭ¤": 3487,
        "Ġë§ŀì¶ĺëĭ¤": 3488,
        "ìĦ¤": 3489,
        "ĠìĿ´íĽ": 3490,
        "ĠìĥīìĿ´": 3491,
        "ĠëĤĺìĦľ": 3492,
        "Ġë¶Ģëĭ": 3493,
        "íĻ©": 3494,
        "ĠíĮĮìĿ¼ìĿ´": 3495,
        "ë¬»": 3496,
        "Ġì¶Ķê°Ģ": 3497,
        "ë¯¸ê³¼ìĹĲ": 3498,
        "Ġëĭ¨ìĪ": 3499,
        "Ġê¸°ìĺ¨": 3500,
        "Ġë¶ĻìĿĦ": 3501,
        "íĥĢ": 3502,
        "ĠíĻķìĿ¸íķ´ë³¼": 3503,
        "Ġìłģìļ©": 3504,
        "ĠíĴĢìĸ´ì£¼ëĬĶ": 3505,
        "ĠìķĦì£¼": 3506,
        "Ġë§Įëĵ¤ê¸°": 3507,
        "Ġê²ĥìĿ´": 3508,
        "ĠìĺĪì¸¡ìĿ´ëĤĺ": 3509,
        "Ġë¶ĻìĹ¬ì¤ĺ": 3510,
        "Ġìĥģíĥľë¶ĢíĦ°": 3511,
        "Ġë¶Ħë¥ĺëĤĺ": 3512,
        "ĠìĿ¸ìĤ¬ìĹĲëĬĶ": 3513,
        "Ġëĭ¨ë§ĽìĿ´ëĤĺ": 3514,
        "Ġêµ°ìĤ°ëĤłìĶ¨": 3515,
        "ĠìĨĮê°ľíķľëĭ¤": 3516,
        "ëĦĪ": 3517,
        "Ġëª©ë¡ĿìĿĦ": 3518,
        "Ġì¡°íļĮíķ´ìĦľ": 3519,
        "Ġì¡°íļĮíķ´ë³¼": 3520,
        "Ġê°ķìĪĺ": 3521,
        "Ġê°ĢëĬ¥ìĦ±ê¹Įì§Ģ": 3522,
        "ĠíĴĪì¢ħìĹĲ": 3523,
        "ĠìĹŃíķłìĿĦ": 3524,
        "Ġìŀ¥íĻ©": 3525,
        "Ġìŀ¥ë¯¸ê³¼ìĹĲ": 3526,
        "ëĤłìĶ¨ëĬĶ": 3527,
        "ìĺ¤ëŀľë§ĮìĿ´ìķ¼": 3528,
        "ìĺ¤ëŀľë§ĮìĿ´ëĦ¤": 3529,
        "ìĿĮìķħìĿĢ": 3530,
        "ĠíĻĪíİĺìĿ´ì§ĢëĤĺ": 3531,
        "ĠëĲĺë¬»": 3532,
        "ĠëĤĺìĹ´íķĺì§Ģ": 3533,
        "ĠìķĪëĤ´íķľëĭ¤": 3534,
        "Ġìĭ«ìĸ´íķľëĭ¤ê³ł": 3535,
        "ĠìĨįíķĺëĬĶ": 3536,
        "íķµìĭ¬ë§Į": 3537,
        "ê°ĢëĬ¥íķ´": 3538,
        "Ġê°Ģê¹Ŀëĭ¤": 3539,
        "ĠìĿ´íĽĦ": 3540,
        "Ġëĭ¨ìĪľ": 3541,
        "Ġê¸°ìĺ¨ìĿ´ëŀĳ": 3542,
        "Roblox": 3543,
        "](": 3544,
        "https": 3545,
        "¤íĥĢ": 3546,
        "§Ī": 3547,
        "´ë¦°": 3548,
        "¹ìĤ¬ìĿ´íĬ¸": 3549,
        "ëĨ": 3550,
        "ëĲ": 3551,
        "ìĭ¤": 3552,
        "Ġ[": 3553,
        "Ĭ¤íĥĢ": 3554,
        "Ķë¡ľ": 3555,
        "ĺìĸ´": 3556,
        "łģìľ¼ë¡ľ": 3557,
        "ĠìĬ¤íĥĢ": 3558,
        "ê²©": 3559,
        "íķĺìĿ´": 3560,
        "ìĸ´íķĺì§Ģ": 3561,
        "íķ´ìķ¼": 3562,
        "ìķĦëĭĪ": 3563,
        "Ġìłķëĭµ": 3564,
        "Ġìłķì¤ĳ": 3565,
        "ĢíĻĶ": 3566,
        "ĠBeeëĿ¼ëĬĶ": 3567,
        "ìľ¼ëĭĪ": 3568,
        "ìĭľê°Ħ": 3569,
        "ĠìŀĲìĹ°ìĬ¤ëŁ½ëĭ¤": 3570,
        "Ġë°©ìĸ´ì": 3571,
        "Ġë°©ìĸ´íķĺì§Ģ": 3572,
        "ĠìķĦëĬĶì§Ģ": 3573,
        "ĠìĿ´ê±": 3574,
        "ĠìĹ´ë¦°": 3575,
        "ìłľëĮĢë¡ľ": 3576,
        "Ġìĥģ": 3577,
        "Ġì¤ĦìĿ¸ëĭ¤": 3578,
        "ĠëĬĺìĸ´": 3579,
        "ìĽ¹ìĤ¬ìĿ´íĬ¸": 3580,
        "ĠìĿĺìĤ¬": 3581,
        "Ġì£¼ëĬĶ": 3582,
        "Ġìłľìĭľ": 3583,
        "ĠìłķìĿĺëĬĶ": 3584,
        "ĠëĶ±ëĶ±íķľ": 3585,
        "ĠìľłëıĦ": 3586,
        "ëĵľë°": 3587,
        "Ġìĭ¤ìĭľê°Ħ": 3588,
        "Ġì²«": 3589,
        "ìĿĳíķĺê²łëĭ¤ê³ł": 3590,
        "Ġíķ´ëĭ¬ëĿ¼ê³ł": 3591,
        "ë°Ķë¡ľ": 3592,
        "Ġê³¼ìŀ¥ëĲ": 3593,
        "Ġë°Ķê¿Ķì¤Ģëĭ¤": 3594,
        "ĠìĹ¬ë¶Ģ": 3595,
        "Ġë¶ĻìĿ¸ëĭ¤": 3596,
        "ĠìĤ¬ìĿ´íĬ¸ë¥¼": 3597,
        "íĻķíŀĪ": 3598,
        "ĠìļĶì²ŃìĿ´ëĭ¤": 3599,
        "ĠìłģìłĪ": 3600,
        "ĠìłģìĿĳíķĺê²łëĭ¤ê³ł": 3601,
        "ëĮĢíĻĶ": 3602,
        "Ġêµ´ì§Ģ": 3603,
        "Ġì§ģìĦ¤": 3604,
        "ĠìĿ´ë¦Ħê³¼": 3605,
        "ëĦ¤ê°Ģ": 3606,
        "ĠìĿ´ìķ¼ê¸°íķĺìŀĲê³ł": 3607,
        "ë©°": 3608,
        "ĠìŀĲê¸°ìĨĮê°ľíķľëĭ¤": 3609,
        "Ġìĭ¬ìĭ¬íķĺëĭ¤ê³ł": 3610,
        "Ġê¸°ë³¸ìłģìĿ¸": 3611,
        "ĠìĿ´ìĸ´ì§Ī": 3612,
        "ìķĪëĩ½": 3613,
        "Ġê¸¸ìĿ´": 3614,
        "ĠìĿ¸ìĤ¬ë¥¼": 3615,
        "êµ°ìĤ°ìĿ´ë©´": 3616,
        "ìķĪëħķíķĺìĦ¸ìļĶ": 3617,
        "ĠìĦłíĺ¸": 3618,
        "Ġë°ĺìĿĳíķľëĭ¤": 3619,
        "ĠëªħíĻķíŀĪ": 3620,
        "Ġì¡°íļĮê°Ģ": 3621,
        "Ġë°Ķê¾¸ê²łëĭ¤ê³ł": 3622,
        "Ġìĭłíĺ¸ëĭ¤": 3623,
        "ĠíĶ¼ëĵľë°": 3624,
        "ĠêµĲìłķ": 3625,
        "ĠìĹ°ê²°íķľëĭ¤": 3626,
        "ĠíĬ¹ìłķ": 3627,
        "Ġëª¨ëĵľê°Ģ": 3628,
        "Ġë³Ģê²": 3629,
        "Ġë³´ëĤ´ë©´": 3630,
        "Ġë³´ëĤ´ëĭ¬ëĿ¼ê³ł": 3631,
        "Ġê³µê°Ĳíķĺê³ł": 3632,
        "Ġë³Ģëªħíķĺì§Ģ": 3633,
        "ëŃĲ": 3634,
        "ì§ĢìĹŃëªħìĿĦ": 3635,
        "Ġì§Ģìłģíķĺë©´": 3636,
        "Ġë¶Ģëĭ´": 3637,
        "Ġìŀ¥íĻ©íķĺì§Ģ": 3638,
        "ĠëĲĺë¬»ê¸°ë³´ëĭ¤": 3639,
        "Ġëĭ¨ìĪľíŀĪ": 3640,
        "ëĨĵì§Ģ": 3641,
        "ĠìĬ¤íĥĢìĿ¼": 3642,
        "ìķĦëĭĪìĺ¤": 3643,
        "Ġë°©ìĸ´ìłģìľ¼ë¡ľ": 3644,
        "ĠìĿ´ê±´": 3645,
        "ĠëĬĺìĸ´ëĨĵì§Ģ": 3646,
        "ìĽ¹ìĤ¬ìĿ´íĬ¸ëĬĶ": 3647,
        "ĠìĿĺìĤ¬ë¥¼": 3648,
        "Ġê³¼ìŀ¥ëĲľ": 3649,
        "ĠìłģìłĪíķĺëĭ¤": 3650,
        "Ġì§ģìĦ¤ìłģìľ¼ë¡ľ": 3651,
        "ĠíĶ¼ëĵľë°±": 3652,
        "?'": 3653,
        "Right": 3654,
        "We": 3655,
        "dog": 3656,
        "¡±": 3657,
        "¢°": 3658,
        "§Ø": 3659,
        "§ë°Ķë¡ľ": 3660,
        "¨íķĺëĭ¤": 3661,
        "©ëł¤": 3662,
        "«ëĭ¤": 3663,
        "¬ë¥¼": 3664,
        "°½": 3665,
        "°ê³¼": 3666,
        "±ê²©": 3667,
        "³Ø": 3668,
        "´ī": 3669,
        "µìħ": 3670,
        "·íķĺê²Į": 3671,
        "¸ë¡": 3672,
        "¸ëĭ¤ê³ł": 3673,
        "»Ķ": 3674,
        "¼ëŀĢ": 3675,
        "½ìĹĲ": 3676,
        "Ø§Ø": 3677,
        "Ùħ": 3678,
        "ÙĨ": 3679,
        "ê¶ģ": 3680,
        "ëĵ¤ë": 3681,
        "ë¢°": 3682,
        "ì£¼ëĬĶ": 3683,
        "ìħľ": 3684,
        "ì³Ĳ": 3685,
        "ì´ī": 3686,
        "íĳľ": 3687,
        "ĠÙħ": 3688,
        "ĦíĻĶ": 3689,
        "ĩê±°": 3690,
        "ĪìĿĺ": 3691,
        "Īìľ¼ëĭĪ": 3692,
        "ĭĿ": 3693,
        "ĭ¬ëĿ¼ê³ł": 3694,
        "įê³ł": 3695,
        "įìłķ": 3696,
        "İìĿ´": 3697,
        "Ĳê³ł": 3698,
        "ĳìłķ": 3699,
        "ĵł": 3700,
        "ĵê²Į": 3701,
        "Ķê²łëĭ¤ê³ł": 3702,
        "ķëĬĶëĭ¤": 3703,
        "ĹĲ": 3704,
        "ĺìĿĦ": 3705,
        "ĺ¸ë¡ľ": 3706,
        "ĺ¼ëŀĢ": 3707,
        "ľë¥¼": 3708,
        "ĿìĦ¤": 3709,
        "łë¥¸": 3710,
        "łë¢°": 3711,
        "Ńëĭ¤ëĬĶ": 3712,
        "ĠìĦľ": 3713,
        "ĠìĨĮ": 3714,
        "ĠëĤ¬": 3715,
        "Ġë»Ķ": 3716,
        "Ġëĵł": 3717,
        "Ġë§ĿìĦ¤": 3718,
        "íķĺëıĦë¡Ŀ": 3719,
        "íķĺëĥ": 3720,
        "íķĺë©°": 3721,
        "ìĸ´ëĤ´ì": 3722,
        "ìĸ´ëĭ¬ëĿ¼ê³ł": 3723,
        "ë¡ľë¸Ķë¡ĿìĬ¤": 3724,
        "ìĿ´ëĬĶ": 3725,
        "ìĿ´ê²łëĭ¤ê³ł": 3726,
        "Ġë§Ĳíķĺê²Į": 3727,
        "Ġë§ĲëĿ¼ê³ł": 3728,
        "Ġë§ĲëĿ¼ëĬĶ": 3729,
        "Ġë§ĲíķĺëıĦë¡Ŀ": 3730,
        "ê³łìĸĳ": 3731,
        "ĭ¤ëĬĶ": 3732,
        "ĭ¤ê³ł": 3733,
        "Ġíĺ¸": 3734,
        "Ġíĺ¼ëŀĢ": 3735,
        "ìĹĶ": 3736,
        "íķľìĿĺ": 3737,
        "ëıĦíķľ": 3738,
        "¤ëĭ¤ê³ł": 3739,
        "ĠìŀĪìĿĦ": 3740,
        "ĠìŀĪëĭ¤": 3741,
        "ĠìŀĪìľ¼ëĭĪ": 3742,
        "íķ´ìĹĲ": 3743,
        "ìķĦíĥĢ": 3744,
        "ì§Ģê°Ģ": 3745,
        "ĪĺëĬĶ": 3746,
        "Ġì§ĪìĿĺ": 3747,
        "íķłê¹Į": 3748,
        "ìĹĲëŁ¬": 3749,
        "ê°Ģìŀ¥": 3750,
        "Īëŀĳ": 3751,
        "ĠìłķíķĺëĬĶ": 3752,
        "ë¦¬íķĺëĭ¤": 3753,
        "Ġëĭµìľ¼ë¡ľ": 3754,
        "Ġëĭµíķĺì§Ģ": 3755,
        "°ì°½": 3756,
        "°ìĪĺëĬĶ": 3757,
        "Ģíĥģ": 3758,
        "ë§İìĿ´": 3759,
        "Ġìĺµìħ": 3760,
        "ìŀĦ": 3761,
        "ìľ¼ëĿ¼ëĬĶ": 3762,
        "ĠëŃĲíķĺëĥ": 3763,
        "ĠíķĺëĲĺ": 3764,
        "ĠìĤ¬ìłĦ": 3765,
        "ĠìĤ¬ìĭ¤": 3766,
        "Ġë¶Ģì": 3767,
        "Ġë¶Īë§Į": 3768,
        "Ġë¶Ģíĥģ": 3769,
        "Ġê³Ħì": 3770,
        "Ġê³§ë°Ķë¡ľ": 3771,
        "ĸ´ì¤Ģëĭ¤": 3772,
        "ê¸°ìķ¼": 3773,
        "Ġì§ĢìĽĲ": 3774,
        "Ġì§Ģìĸ´ëĤ´ì": 3775,
        "ĠëĤ«ëĭ¤": 3776,
        "ĠìŀĲê¸°": 3777,
        "ĠìŀĲì²´ë¥¼": 3778,
        "ëł·íķĺê²Į": 3779,
        "ëł¸ëĭ¤ê³ł": 3780,
        "ĠëĦĵì§Ģ": 3781,
        "ĠëĦĵê²Į": 3782,
        "Ġìłķë¦¬íķĺìŀĲ": 3783,
        "Ġë§ŀëĭ¤": 3784,
        "ĠìĦ±ê²©": 3785,
        "ì¶©ë¶ĦíŀĪ": 3786,
        "Ġì¢ĭëĭ¤ëĬĶ": 3787,
        "Ġê°Ģê²łëĭ¤ê³ł": 3788,
        "ĠìĦ¤ëªħìĿ´": 3789,
        "ĠìĦ¤ëªħíķĺëĬĶ": 3790,
        "ĠìĦ¤ëªħíķĺì§Ģ": 3791,
        "ĠìĦ¤ëªħíķĺê²łëĭ¤ê³ł": 3792,
        "Ġì§Īë¬¸ìĿ´": 3793,
        "Ġì§Īë¬¸ê¹Įì§Ģ": 3794,
        "Ġì§Īë¬¸ìĹĲëıĦ": 3795,
        "Ġë§ŀì¶Ķê²łëĭ¤ê³ł": 3796,
        "Ķëĭ¬ëĿ¼ê³ł": 3797,
        "ìŀĲëĬĶ": 3798,
        "ìŀĲê³ł": 3799,
        "Ġë³´ìĿ´ë©´": 3800,
        "íĸĩë¹ĽìĿ´": 3801,
        "ìĿ¼ìĿĦ": 3802,
        "ĠìĿ´íķ´ìĹĲ": 3803,
        "µ¬ì²ĺëŁ¼": 3804,
        "ĠìĹ´ìĹ": 3805,
        "ĠìĹ´ëł¤": 3806,
        "ĠëıĦìĽĢ": 3807,
        "Ġê¸įìłķ": 3808,
        "ĠëıķëĬĶëĭ¤": 3809,
        "Ġíİ¸ìķĪ": 3810,
        "ìĻľê·¸ëŀĺ": 3811,
        "ìĻ¸ë¡ľ": 3812,
        "ëł¤ëĬĶ": 3813,
        "Ġê±°ë¶Ģ": 3814,
        "Ġê±°ìłĪ": 3815,
        "ìłķíķĺë©´": 3816,
        "Ġìĭłë¢°": 3817,
        "ëĬ¥ê°Ĳ": 3818,
        "Ġì¤ĦìĿĦ": 3819,
        "Ġì¤Ħë¶ĢíĦ°": 3820,
        "Ġê±°ì°½": 3821,
        "ľêµ¬ì²ĺëŁ¼": 3822,
        "Ġë°©íĸ¥ë§Į": 3823,
        "Ġê²©ëł¤": 3824,
        "Ġê²°ê³¼": 3825,
        "ĠëıĦìĻĢì¤Ģëĭ¤": 3826,
        "Ġì¤ĳìĿ´ëĿ¼ëĬĶ": 3827,
        "ĠìłĦëĬ¥ê°Ĳ": 3828,
        "Ġë¬´ìŀ": 3829,
        "Ġê³¼íķľ": 3830,
        "Ġê³¼íķĺê²Į": 3831,
        "Ġê³¼ëıĦíķľ": 3832,
        "ĠìĿ´ìĸ´ê°Ħ": 3833,
        "Ġë¶Ģìłķíķĺë©´": 3834,
        "ĠìļĶì²ŃìĿĦ": 3835,
        "ĠìļĶì²ŃìĹĲ": 3836,
        "ĠìļĶì²Ńíķľëĭ¤": 3837,
        "ĠìļĶì²Ńíķĺë©°": 3838,
        "ìĹĲìĦľëĬĶ": 3839,
        "Ġì¹ľêµ¬ì²ĺëŁ¼": 3840,
        "Ġìī´": 3841,
        "ĠíĮĮìĿ´ìį¬ìĿĦ": 3842,
        "ľìĨĮ": 3843,
        "êµ¬ê¸Ģ": 3844,
        "Ġëľ»ìĹĲ": 3845,
        "ĠìľĦë¡ľ": 3846,
        "Ġì½Ķëĵľë¥¼": 3847,
        "ĠìĹĨëĬĶ": 3848,
        "ĠìĿĺì§Ģê°Ģ": 3849,
        "Ġì£¼ê³ł": 3850,
        "ìĺĪ": 3851,
        "ìķĪìĿ´": 3852,
        "ìķĪíķĺëĭ¤ê³ł": 3853,
        "Ġìłľìķ½": 3854,
        "íķĺì§Ģë§Į": 3855,
        "ê·¸ëłĩê²Į": 3856,
        "ìĿĮìĿĦ": 3857,
        "ìĿĮìĹĲ": 3858,
        "ìĿĮíĳľ": 3859,
        "Ġê°Ģë³įê³ł": 3860,
        "ìĬ¤ë¥¼": 3861,
        "ĠìłķìĿĺëĭ¤": 3862,
        "Ġë¹łë¥¸": 3863,
        "Ġì¶Ķê¶ģ": 3864,
        "Ġì¡°ìłĪ": 3865,
        "Ġìŀĺê²Į": 3866,
        "ĠíķĦìļĶíķ´": 3867,
        "Ġìľłë¦¬íķĺëĭ¤": 3868,
        "Ġìŀ¡ëĬĶëĭ¤": 3869,
        "Ġìŀ¡ìŀĲëĬĶ": 3870,
        "Ġê³łì¹ľ": 3871,
        "Ġë³´ëĤ´ì§Ģ": 3872,
        "Ġë°Ķê¿Ķëĭ¬ëĿ¼ê³ł": 3873,
        "Ġíĺķíĥ": 3874,
        "ëĤ´ê°Ģ": 3875,
        "ĠìłĦíĻĺìĿĦ": 3876,
        "ĠìĪĺìłķíķĺê²łëĭ¤ê³ł": 3877,
        "ĠìĿ´ìĥģíķĺëĭ¤ëĬĶ": 3878,
        "Ġë¬¼ìĿĮíĳľ": 3879,
        "ë°ķ": 3880,
        "ĠìĿ¼ìĥģìłģìĿ¸": 3881,
        "ĠëıĦêµ¬íĺķ": 3882,
        "ìĹ¬ê¸°ìķ¼": 3883,
        "´ìŀ¬ë¥¼": 3884,
        "ĠíĨ¤ìĿ´": 3885,
        "ì¢ĭìĿĢ": 3886,
        "ì¢ĭëĦ¤": 3887,
        "ĠëĤ´ë¶Ģ": 3888,
        "ĠìĻ¸ë¡": 3889,
        "ĠìĻĦíĻĶ": 3890,
        "Ġëĭ¬ëĿ¼ëĬĶ": 3891,
        "Ġë°ĺìĺģíķĺê³ł": 3892,
        "Ġë°ĺë³µìĿĦ": 3893,
        "Ġìĸ´ìĥīíķľ": 3894,
        "Ġìĸ´ìĥīíķĺê²Į": 3895,
        "Ġìĸ´ìĥīíķĺëĭ¤ê³ł": 3896,
        "Ġìĸ´ìĥīíķĺëĭ¤": 3897,
        "ĠìĹ¬ì§Ģë¥¼": 3898,
        "Ġì°¾ìľ¼ë©´": 3899,
        "Ġì°¾ìľ¼ëĿ¼ëĬĶ": 3900,
        "ĠìłľìķĪíķľ": 3901,
        "ĠìłľìķĪíķĺëĬĶ": 3902,
        "Ġë¶ĻìĿ´ê²łëĭ¤ê³ł": 3903,
        "Ġìŀ¬ì´ī": 3904,
        "Ġêµ¬ì¡°ë¥¼": 3905,
        "Ġêµ¬ì¡°íĻĶ": 3906,
        "ëªħìĿ´": 3907,
        "ëªħìĹĲ": 3908,
        "Ġìĸ´ìĥīíĸĪìĿĮìĿĦ": 3909,
        "ĠìłķíĻķíķĺëĭ¤": 3910,
        "Ġì§ĢìĹŃëªħìĿ´": 3911,
        "Ġë¬¼ìĸ´ëıĦ": 3912,
        "ĠíĳľíĺĦìĿ´ëĭ¤": 3913,
        "Ġë¬»ê³ł": 3914,
        "ĠìĥĿìĦ±ì²ĺëŁ¼": 3915,
        "Ġë°Ľì³Ĳ": 3916,
        "ĠëĮĢìķĪìĿĦ": 3917,
        "ĠëĮĢìķĪìĿ´": 3918,
        "ĠìļĶìķ½íķľëĭ¤": 3919,
        "ìķĮê²łìĬµëĭĪëĭ¤": 3920,
        "ĠìĿ´ìĸ´ê°Ģìķ¼": 3921,
        "ĠìĿ´ìĸ´ê°ĢëıĦë¡Ŀ": 3922,
        "ĠìĿ´ìĸ´ê°Ģëł¤ëĬĶ": 3923,
        "Ġë¹¼ê¸°": 3924,
        "Ġë§Įëĵ¤ìĸ´ìķ¼": 3925,
        "Ġë§Įëĵ¤ìĸ´ëĭ¬ëĿ¼ê³ł": 3926,
        "Ġë¶ĪìķĪíķĺëĭ¤ê³ł": 3927,
        "Ġì¤ĳìļĶíķĺëĭ¤": 3928,
        "ëĭµìĿĦ": 3929,
        "Ġì§ģëĭµìĿĦ": 3930,
        "Ġêº¼ëĤ´ê¸°": 3931,
        "ĠìĥģíĥľëĤĺ": 3932,
        "ĠìĪ¨": 3933,
        "ĪĦìŀĲê³ł": 3934,
        "ĠíĺĦìĥģ": 3935,
        "ĠíĺĦìĭ¤": 3936,
        "Ġê°ĪìķĦíĥĢ": 3937,
        "Ġíŀĺëĵ¤ë": 3938,
        "Ġì¤ĺìķ¼": 3939,
        "ĠìĤ°ìĪĺëĬĶ": 3940,
        "Ġíķ´ê²°ë³´ëĭ¤": 3941,
        "ĠìŀĲê¸°ìĨĮê°ľë¡ľ": 3942,
        "ĠìŀĲê¸°ìĨĮê°ľë¥¼": 3943,
        "ĠìŀĲê¸°ìĨĮê°ľíķĺì§Ģ": 3944,
        "ĠìŀĳìĹħìĿ´ëĭ¤": 3945,
        "Ġë§īìĹ°íķĺê²Į": 3946,
        "ĠìµľìĨĮ": 3947,
        "ìĽĲíķĺë©´": 3948,
        "Ġê³µê²©": 3949,
        "ĠìĿĺë¯¸ë¥¼": 3950,
        "ĠìĿĺë¯¸ê°Ģ": 3951,
        "ĠíĭĢëł¸ëĭ¤ê³ł": 3952,
        "Ġë°ĽìķĦì£¼": 3953,
        "Ġì¡´ìŀ¬ë¥¼": 3954,
        "ĠìĪľìĦľê°Ģ": 3955,
        "ĠìĿ¸ìłķê³¼": 3956,
        "ĠìĿ¸ìłķíķĺëĬĶ": 3957,
        "ĠìĿ¸ìłķíķ´ìķ¼": 3958,
        "ë¹ĦìĬ¤ë¥¼": 3959,
        "ĠëĴ¤ìĹĲëĬĶ": 3960,
        "Ġê¸¸ì§Ģ": 3961,
        "ĠëĤĺëĪĦìŀĲê³ł": 3962,
        "ĠìĿ¸ìĤ¬íķľëĭ¤": 3963,
        "ĠìĻľëĿ¼ëĬĶ": 3964,
        "Ġë¶ĪíķĦìļĶíķĺê²Į": 3965,
        "Ġë¬´ìĹĩê¹Įì§Ģ": 3966,
        "Ġìļ°ìĦłìĿ´ëĭ¤": 3967,
        "ĠìĹ´ìĸ´ì¤Ģëĭ¤": 3968,
        "Ġì¤ĦìĿ´ê²łëĭ¤ê³ł": 3969,
        "Ġë¡ľê·¸ëĤĺ": 3970,
        "ĠìĨĮê°ľë³´ëĭ¤": 3971,
        "Ġìłķíķ´ë³´ìŀĲëĬĶ": 3972,
        "Ġë¶Īíİ¸íķ¨": 3973,
        "Ġëį§ë¶ĻìĿ¸ëĭ¤": 3974,
        "Ġë°ĺìĿĳìĿĦ": 3975,
        "Ġë°ĺìĿĳíķĺë©´": 3976,
        "ĠìĹ¬ê¸°ìķ¼": 3977,
        "Ġë©Ķëī´ë¡ľ": 3978,
        "Ġë©Ķëī´íĺķ": 3979,
        "ĠìĦłíĥĿì§Ģ": 3980,
        "ĠëĺĲëł·íķĺê²Į": 3981,
        "ëĦĪëŀĳ": 3982,
        "ĠëªħìĤ¬": 3983,
        "ĠëĦĺìĸ´ê°Ģìķ¼": 3984,
        "Ġìĭłíĺ¸ë¡ľ": 3985,
        "Ġëª©ë¡Ŀíĺķ": 3986,
        "Ġëª©ë¡Ŀë³´ëĭ¤": 3987,
        "Ġì¡°íļĮë¡ľ": 3988,
        "Ġë¨¸ëŃ": 3989,
        "ë°Ľì§Ģ": 3990,
        "ë°Ľìľ¼ë©´": 3991,
        "ĠìŀĪëĬĶì§ĢëıĦ": 3992,
        "Ġë°Ķê¾¸ëĬĶ": 3993,
        "Ġìĭłíĺ¸ë¥¼": 3994,
        "Ġìķķë°ķ": 3995,
        "ĠíĶ¼íķĺê³ł": 3996,
        "Ġë³´ìĹ¬ì£¼": 3997,
        "Ġë³´ìĹ¬ì£¼ëĬĶ": 3998,
        "ĠìĿ´ìĸ´ë°ĽëĬĶëĭ¤": 3999,
        "Ġëª¨ë¥´ê²łëĭ¤ê³ł": 4000,
        "Ġëª¨ëĵľë³´ëĭ¤": 4001,
        "ĠìĻĢìķ¼": 4002,
        "ĠëĮĢìĿĳìĹĲìĦľëĬĶ": 4003,
        "ĠëĶ°ëľ»íķĺê²Į": 4004,
        "ĠìľĦì¹ĺê°Ģ": 4005,
        "Ġë§¥ëĿ½ìĹĲ": 4006,
        "Ġë§ĪìĿĮìĹĲ": 4007,
        "Ġì§Ģì³¤ëĭ¤ê³ł": 4008,
        "Ġë§Įëĵłëĭ¤": 4009,
        "ëĮĢìĿĺ": 4010,
        "Ġê°ĲìłķìĿĦ": 4011,
        "Ġê°Ĳìłķìłģìľ¼ë¡ľ": 4012,
        "Ġì§§ìķĦëıĦ": 4013,
        "Ġë©Ķëī´ìĭĿ": 4014,
        "íĮĮìĿ¼ìĿĦ": 4015,
        "ĠëĲĺë°Ľì§Ģ": 4016,
        "ĠëĤĺìĹ´ë³´ëĭ¤": 4017,
        "Ġê³µê°Ĳê³¼": 4018,
        "Ġê³µê°Ĳë¶ĢíĦ°": 4019,
        "ĠìķĪëĤ´ë³´ëĭ¤": 4020,
        "Ġë³Ģëªħë³´ëĭ¤": 4021,
        "ì§ĢìĹŃìĿĦ": 4022,
        "Ġì§Ģìłģë°Ľìľ¼ë©´": 4023,
        "Ġë¶Ģëĭ´ìĿĦ": 4024,
        "Ġìłģìļ©ìĿĦ": 4025,
        "Ġìłģìļ©íķ´ìķ¼": 4026,
        "Ġìŀ¥íĻ©íķľ": 4027,
        "ĠëĲĺë¬»ì§Ģ": 4028,
        "ĠìĿ´íĽĦìĹĲëĬĶ": 4029,
        "ĠìĿ´íĽĦìĹĶ": 4030,
        "Ġìłķëĭµë¶ĢíĦ°": 4031,
        "Ġìłķì¤ĳíķľ": 4032,
        "Ġìłķì¤ĳíķĺì§Ģë§Į": 4033,
        "ĠìĥģìĦ¸": 4034,
        "ĠìĥģëĮĢìĿĺ": 4035,
        "Ġìłľìĭľíķľëĭ¤": 4036,
        "Ġìłľìĭľíķĺê³ł": 4037,
        "ĠìľłëıĦíķľëĭ¤": 4038,
        "ĠìľłëıĦíķĺëĲĺ": 4039,
        "ĠìĹ¬ë¶Ģë§Į": 4040,
        "Ġê¸¸ìĿ´ë¥¼": 4041,
        "ĠìĦłíĺ¸ë¥¼": 4042,
        "ĠêµĲìłķë³´ëĭ¤": 4043,
        "Ġë³Ģê²½": 4044,
        "Ġë³Ģê²½ìĿĦ": 4045,
        "ëŃĲíķ´": 4046,
        "ëŃĲíķłê¹Į": 4047,
        "ìķĦëĭĪìĺ¤ìĻĢ": 4048,
        "ĠíĶ¼ëĵľë°±ìĿĦ": 4049,
        "ĠíĶ¼ëĵľë°±ìĹĲëĬĶ": 4050,
        "dogëĬĶ": 4051,
        "¡±ë³´ëĭ¤": 4052,
        "³Ø¨íķĺëĭ¤": 4053,
        "Ø§Ø³Ø¨íķĺëĭ¤": 4054,
        "ÙĨØ§Ø³Ø¨íķĺëĭ¤": 4055,
        "ĠÙħÙĨØ§Ø³Ø¨íķĺëĭ¤": 4056,
        "ĩê±°ë¦¬ë©´": 4057,
        "ĠìĦľë¹ĦìĬ¤ë¥¼": 4058,
        "ĠìĨĮìħľ": 4059,
        "ĠëĤ¬ëĭ¤ëĬĶ": 4060,
        "Ġë»Ķíķľ": 4061,
        "Ġëĵłëĭ¤ê³ł": 4062,
        "Ġë§ĿìĦ¤ìŀĦ": 4063,
        "ê³łìĸĳìĿ´ëĬĶ": 4064,
        "Ġíĺ¸ëªħìĹĲ": 4065,
        "Ġì§ĪìĿĺëĭ¤": 4066,
        "ĠìĺµìħĺìĿĦ": 4067,
        "ĠëŃĲíķĺëĥĲê³ł": 4068,
        "ĠìĤ¬ìłĦìĭĿ": 4069,
        "ĠìĤ¬ìĭ¤ìĿĦ": 4070,
        "Ġë¶Ģì¡±ë³´ëĭ¤": 4071,
        "Ġë¶Īë§ĮìĿĦ": 4072,
        "Ġë¶Ģíĥģíķĺë©´": 4073,
        "Ġê³ĦìĤ°": 4074,
        "Ġì§Ģìĸ´ëĤ´ì§Ģ": 4075,
        "Ġìłķë¦¬íķĺìŀĲê³ł": 4076,
        "ĠìĦ±ê²©ìĿĦ": 4077,
        "ĠìĹ´ìĹĪìľ¼ëĭĪ": 4078,
        "Ġê¸įìłķìłģìľ¼ë¡ľ": 4079,
        "Ġíİ¸ìķĪíķľ": 4080,
        "ìĻ¸ë¡ľìļ´": 4081,
        "Ġê±°ë¶Ģíķĺë©´": 4082,
        "Ġê±°ìłĪíķĺë©´": 4083,
        "Ġìĭłë¢°ìĹĲ": 4084,
        "Ġê±°ì°½íķĺì§Ģ": 4085,
        "Ġê²©ëł¤ê°Ģ": 4086,
        "Ġë¬´ìŀĳìłķ": 4087,
        "ĠìĿ´ìĸ´ê°Ħëĭ¤": 4088,
        "ĠìľĦë¡ľë³´ëĭ¤": 4089,
        "Ġìłľìķ½ìĿĢ": 4090,
        "Ġì¶Ķê¶ģíķĺì§Ģ": 4091,
        "Ġê³łì¹ľëĭ¤": 4092,
        "Ġíĺķíĥľë¥¼": 4093,
        "Ġë¬¼ìĿĮíĳľë§Į": 4094,
        "ĠìĻ¸ë¡Ńëĭ¤ëĬĶ": 4095,
        "ĠìĻĦíĻĶíĺķ": 4096,
        "Ġìŀ¬ì´īíķĺì§Ģ": 4097,
        "Ġêµ¬ì¡°íĻĶíķĺì§Ģ": 4098,
        "Ġë°Ľì³Ĳì¤Ģëĭ¤": 4099,
        "ĠíĺĦìĭ¤ìłģìĿ¸": 4100,
        "Ġê°ĪìķĦíĥĢë©°": 4101,
        "Ġíŀĺëĵ¤ëĭ¤ëĬĶ": 4102,
        "ĠìµľìĨĮíķľìĿĺ": 4103,
        "Ġê³µê²©ìłģìľ¼ë¡ľ": 4104,
        "Ġë°ĽìķĦì£¼ê³ł": 4105,
        "Ġë¶Īíİ¸íķ¨ìĿĦ": 4106,
        "Ġë¨¸ëŃĩê±°ë¦¬ë©´": 4107,
        "Ġë³´ìĹ¬ì£¼ê²łëĭ¤ê³ł": 4108
      },
      "merges": [
        [
          "Ġ",
          "ì"
        ],
        [
          "Ġ",
          "ë"
        ],
        [
          "í",
          "ķ"
        ],
        [
          "ì",
          "Ŀ"
        ],
        [
          "s",
          "t"
        ],
        [
          "a",
          "n"
        ],
        [
          "Ġ",
          "ê"
        ],
        [
          "e",
          "r"
        ],
        [
          "´",
          "ì"
        ],
        [
          "s",
          "er"
        ],
        [
          "ê",
          "²"
        ],
        [
          "ê²",
          "Į"
        ],
        [
          "Ġë",
          "§"
        ],
        [
          "c",
          "t"
        ],
        [
          "an",
          "t"
        ],
        [
          "s",
          "s"
        ],
        [
          "A",
          "ss"
        ],
        [
          "U",
          "ser"
        ],
        [
          "i",
          "st"
        ],
        [
          "Ass",
          "ist"
        ],
        [
          "Assist",
          "ant"
        ],
        [
          "ë",
          "Ĭ"
        ],
        [
          "íķ",
          "ĺ"
        ],
        [
          "ê",
          "³"
        ],
        [
          "ĸ",
          "´"
        ],
        [
          "o",
          "n"
        ],
        [
          "i",
          "on"
        ],
        [
          "ct",
          "ion"
        ],
        [
          "I",
          "n"
        ],
        [
          "r",
          "u"
        ],
        [
          "st",
          "ru"
        ],
        [
          "In",
          "stru"
        ],
        [
          "Instru",
          "ction"
        ],
        [
          "ëĬ",
          "Ķ"
        ],
        [
          "ë",
          "¡"
        ],
        [
          "Ġì",
          "ŀ"
        ],
        [
          "Ġì",
          "Ŀ"
        ],
        [
          "ì",
          "ķ"
        ],
        [
          "ì",
          "ĸ´"
        ],
        [
          "ë¡",
          "ľ"
        ],
        [
          "ìĿ",
          "´"
        ],
        [
          "Ġ",
          "t"
        ],
        [
          "r",
          "e"
        ],
        [
          "l",
          "y"
        ],
        [
          "Ġë§",
          "Ĳ"
        ],
        [
          "Ġë",
          "°"
        ],
        [
          "ê³",
          "ł"
        ],
        [
          "§",
          "Ģ"
        ],
        [
          "ĭ",
          "¤"
        ],
        [
          "Ġ",
          "í"
        ],
        [
          "ì",
          "Ĺ"
        ],
        [
          "íķ",
          "ľ"
        ],
        [
          "ı",
          "Ħ"
        ],
        [
          "ê",
          "¸"
        ],
        [
          "Ġê",
          "°"
        ],
        [
          "a",
          "t"
        ],
        [
          "i",
          "n"
        ],
        [
          "ë",
          "¥"
        ],
        [
          "Ġì",
          "ł"
        ],
        [
          "l",
          "e"
        ],
        [
          "ê",
          "°"
        ],
        [
          "ìĿ",
          "Ħ"
        ],
        [
          "Ġì",
          "ķ"
        ],
        [
          "u",
          "r"
        ],
        [
          "Ġ",
          "an"
        ],
        [
          "ì",
          "ł"
        ],
        [
          "r",
          "o"
        ],
        [
          "h",
          "e"
        ],
        [
          "Ġ",
          "m"
        ],
        [
          "ìĿ",
          "Ģ"
        ],
        [
          "Ġ",
          "s"
        ],
        [
          "Ġ",
          "a"
        ],
        [
          "Ġan",
          "d"
        ],
        [
          "e",
          "n"
        ],
        [
          "ë",
          "ıĦ"
        ],
        [
          "Ġ",
          "l"
        ],
        [
          "Ġt",
          "he"
        ],
        [
          "¤",
          "ĺ"
        ],
        [
          "¤",
          "ë"
        ],
        [
          "Ġìŀ",
          "Ī"
        ],
        [
          "íķ",
          "´ì"
        ],
        [
          "ë",
          "Ĥ"
        ],
        [
          "Ħ",
          "ľ"
        ],
        [
          "ì",
          "ĭ"
        ],
        [
          "ë",
          "¦"
        ],
        [
          "ìķ",
          "Ħ"
        ],
        [
          "ì",
          "§Ģ"
        ],
        [
          "Ī",
          "ĺ"
        ],
        [
          "ë",
          "ĭ¤"
        ],
        [
          "Ġë",
          "ĭ"
        ],
        [
          "©",
          "´"
        ],
        [
          "Ġì",
          "§"
        ],
        [
          "ë",
          "©´"
        ],
        [
          "Ġë",
          "į"
        ],
        [
          "íķ",
          "ł"
        ],
        [
          "íķ",
          "´"
        ],
        [
          "ë¥",
          "¼"
        ],
        [
          "Ġì",
          "Īĺ"
        ],
        [
          "¬",
          "¸"
        ],
        [
          "ë",
          "³"
        ],
        [
          "ìĹ",
          "Ĳ"
        ],
        [
          "ê°",
          "Ģ"
        ],
        [
          "Ī",
          "ë"
        ],
        [
          "Ġìł",
          "ķ"
        ],
        [
          "·",
          "¸"
        ],
        [
          "ë¦",
          "¬"
        ],
        [
          "Ġë°",
          "Ķ"
        ],
        [
          "ì",
          "ľ"
        ],
        [
          "Ġëĭ",
          "µ"
        ],
        [
          "ĠìŀĪ",
          "ìĸ´"
        ],
        [
          "ëĤ",
          "ĺ"
        ],
        [
          "°",
          "ì"
        ],
        [
          "ê¸",
          "Ī"
        ],
        [
          "Ģ",
          "í"
        ],
        [
          "ĠìĿ",
          "´ì"
        ],
        [
          "ë",
          "§"
        ],
        [
          "íķ´ì",
          "¤ĺ"
        ],
        [
          "Ĥ",
          "¬"
        ],
        [
          "o",
          "u"
        ],
        [
          "Ġì",
          "ĺ"
        ],
        [
          "Ġ",
          "d"
        ],
        [
          "Ġ",
          "A"
        ],
        [
          "Ġë",
          "Ń"
        ],
        [
          "ì",
          "ŀ"
        ],
        [
          "Ġê",
          "·¸"
        ],
        [
          "Ġ",
          "P"
        ],
        [
          "B",
          "e"
        ],
        [
          "p",
          "le"
        ],
        [
          "Ġ",
          "Be"
        ],
        [
          "ur",
          "ple"
        ],
        [
          "ĠP",
          "urple"
        ],
        [
          "ĠBe",
          "e"
        ],
        [
          "Ġê°",
          "Ļ"
        ],
        [
          "Ġë°Ķ",
          "ë¡ľ"
        ],
        [
          "ìľ",
          "¼"
        ],
        [
          "ìĿ",
          "´ì"
        ],
        [
          "ĠëŃ",
          "Ĳ"
        ],
        [
          "e",
          "l"
        ],
        [
          "Ġ",
          "re"
        ],
        [
          "e",
          "s"
        ],
        [
          "Ġ",
          "in"
        ],
        [
          "Ġì",
          "¢"
        ],
        [
          "±",
          "°"
        ],
        [
          "Ġ",
          "íķĺ"
        ],
        [
          "Ġëį",
          "Ķ"
        ],
        [
          "Ġë",
          "ĭ¤"
        ],
        [
          "Ġ",
          "Y"
        ],
        [
          "g",
          "e"
        ],
        [
          "Ġì",
          "Ĥ¬"
        ],
        [
          "íķĺ",
          "ê²Į"
        ],
        [
          "Ġ",
          "íķ"
        ],
        [
          "p",
          "e"
        ],
        [
          "p",
          "ly"
        ],
        [
          "ì",
          "ļ"
        ],
        [
          "Ġ",
          "n"
        ],
        [
          "a",
          "l"
        ],
        [
          "a",
          "r"
        ],
        [
          "Ġ",
          "p"
        ],
        [
          "r",
          "a"
        ],
        [
          "Ġ",
          "R"
        ],
        [
          "i",
          "re"
        ],
        [
          "ct",
          "ly"
        ],
        [
          "at",
          "ur"
        ],
        [
          "Ġd",
          "ire"
        ],
        [
          "Ġn",
          "atur"
        ],
        [
          "al",
          "ly"
        ],
        [
          "Ġdire",
          "ctly"
        ],
        [
          "Ġnatur",
          "ally"
        ],
        [
          "e",
          "x"
        ],
        [
          "a",
          "ge"
        ],
        [
          "i",
          "d"
        ],
        [
          "Ġ",
          "u"
        ],
        [
          "íķľ",
          "ëĭ¤"
        ],
        [
          "Ġa",
          "s"
        ],
        [
          "Ġa",
          "re"
        ],
        [
          "Ġ",
          "b"
        ],
        [
          "at",
          "e"
        ],
        [
          "ķ",
          "¼"
        ],
        [
          "a",
          "b"
        ],
        [
          "a",
          "m"
        ],
        [
          "e",
          "m"
        ],
        [
          "e",
          "ply"
        ],
        [
          "g",
          "u"
        ],
        [
          "h",
          "ra"
        ],
        [
          "k",
          "er"
        ],
        [
          "k",
          "en"
        ],
        [
          "o",
          "id"
        ],
        [
          "s",
          "es"
        ],
        [
          "u",
          "s"
        ],
        [
          "v",
          "oid"
        ],
        [
          "y",
          "st"
        ],
        [
          "Ġ",
          "ro"
        ],
        [
          "an",
          "gu"
        ],
        [
          "Ġt",
          "ex"
        ],
        [
          "ro",
          "ken"
        ],
        [
          "Ġm",
          "en"
        ],
        [
          "Ġm",
          "ar"
        ],
        [
          "Ġs",
          "am"
        ],
        [
          "Ġs",
          "yst"
        ],
        [
          "Ġl",
          "ab"
        ],
        [
          "Ġl",
          "angu"
        ],
        [
          "ĠA",
          "void"
        ],
        [
          "el",
          "s"
        ],
        [
          "Ġre",
          "pe"
        ],
        [
          "ĠY",
          "ou"
        ],
        [
          "Ġp",
          "hra"
        ],
        [
          "ĠR",
          "eply"
        ],
        [
          "Ġu",
          "ser"
        ],
        [
          "Ġb",
          "roken"
        ],
        [
          "ate",
          "d"
        ],
        [
          "ker",
          "s"
        ],
        [
          "Ġro",
          "le"
        ],
        [
          "Ġtex",
          "t"
        ],
        [
          "Ġmen",
          "us"
        ],
        [
          "Ġmar",
          "kers"
        ],
        [
          "Ġsam",
          "e"
        ],
        [
          "Ġsyst",
          "em"
        ],
        [
          "Ġlab",
          "els"
        ],
        [
          "Ġlangu",
          "age"
        ],
        [
          "Ġrepe",
          "ated"
        ],
        [
          "Ġphra",
          "ses"
        ],
        [
          "Ġë",
          "¶"
        ],
        [
          "Ġê",
          "³"
        ],
        [
          "ìķ",
          "¼"
        ],
        [
          "ĸ",
          "´ì"
        ],
        [
          "Ġë",
          "³"
        ],
        [
          "ê¸",
          "°"
        ],
        [
          "¤",
          "Ħ"
        ],
        [
          "Ġì",
          "§Ģ"
        ],
        [
          "Ġë",
          "Ĥ"
        ],
        [
          "Ġìŀ",
          "Ĳ"
        ],
        [
          "£",
          "¼"
        ],
        [
          "ì",
          "Ħľ"
        ],
        [
          "ë",
          "ł"
        ],
        [
          "Ġì",
          "Ľ"
        ],
        [
          "ìĭ",
          "ľ"
        ],
        [
          "ìľ¼",
          "ë¡ľ"
        ],
        [
          "Ġìķ",
          "Į"
        ],
        [
          "Ġë",
          "Ħ"
        ],
        [
          "Ġìłķ",
          "ë¦¬"
        ],
        [
          "ª",
          "ħ"
        ],
        [
          "ë",
          "¶"
        ],
        [
          "Ġë§",
          "ŀ"
        ],
        [
          "Ġì§",
          "§"
        ],
        [
          "Ġë",
          "¬¸"
        ],
        [
          "Ġë",
          "Į"
        ],
        [
          "Ħ",
          "°"
        ],
        [
          "ë§",
          "Į"
        ],
        [
          "ë",
          "Ł"
        ],
        [
          "ì",
          "²"
        ],
        [
          "Ġì",
          "Ħ"
        ],
        [
          "ì",
          "¶"
        ],
        [
          "½",
          "ê²Į"
        ],
        [
          "Ġì¢",
          "ĭ"
        ],
        [
          "Ġê°",
          "Ģ"
        ],
        [
          "Ġí",
          "Į"
        ],
        [
          "¤ë",
          "ªħ"
        ],
        [
          "ê³",
          "¼"
        ],
        [
          "ĠìĽ",
          "Ĳ"
        ],
        [
          "ĠìĦ",
          "¤ëªħ"
        ],
        [
          "Ġê°Ļ",
          "ìĿ´"
        ],
        [
          "ĠëĮ",
          "Ģí"
        ],
        [
          "Ĭ",
          "¤ë"
        ],
        [
          "Ġëĭ¤",
          "ìĭľ"
        ],
        [
          "Ģ",
          "ì"
        ],
        [
          "Ġë§Ĳ",
          "íķ´ì¤ĺ"
        ],
        [
          "ìĿ",
          "¸"
        ],
        [
          "Ġì",
          "ļ"
        ],
        [
          "ìĹ",
          "°ì"
        ],
        [
          "Ġì§",
          "Īë"
        ],
        [
          "ĠìŀĲ",
          "ìĹ°ì"
        ],
        [
          "Ĭ¤ë",
          "Ł"
        ],
        [
          "Ġì§Īë",
          "¬¸"
        ],
        [
          "ĠìŀĲìĹ°ì",
          "Ĭ¤ëŁ"
        ],
        [
          "Ġë§ŀ",
          "ì¶"
        ],
        [
          "Ļ",
          "Ķ"
        ],
        [
          "ì",
          "Ħ"
        ],
        [
          "Ġ",
          "íķľ"
        ],
        [
          "Ķ",
          "ë"
        ],
        [
          "íķł",
          "ê²Į"
        ],
        [
          "ìŀ",
          "Ĳ"
        ],
        [
          "Ġë°",
          "ĺ"
        ],
        [
          "in",
          "g"
        ],
        [
          "íķĺ",
          "ëĬĶ"
        ],
        [
          "Ġë³",
          "´"
        ],
        [
          "ìĿ´ì",
          "ķ¼"
        ],
        [
          "Ġì§Ģ",
          "ê¸Ī"
        ],
        [
          "ë",
          "ĭ"
        ],
        [
          "Ġë°",
          "©"
        ],
        [
          "T",
          "h"
        ],
        [
          "k",
          "ing"
        ],
        [
          "in",
          "king"
        ],
        [
          "Th",
          "inking"
        ],
        [
          "ĠíĮ",
          "Į"
        ],
        [
          "í",
          "ĸ"
        ],
        [
          "ìĿ",
          "¼"
        ],
        [
          "½",
          "Ķë"
        ],
        [
          "ì",
          "¤ĺ"
        ],
        [
          "Ġì¢ĭ",
          "ìķĦ"
        ],
        [
          "£¼",
          "ë©´"
        ],
        [
          "Ġìķ",
          "Ħ"
        ],
        [
          "ĠìĿ",
          "´"
        ],
        [
          "µ",
          "¬"
        ],
        [
          "ê",
          "±°"
        ],
        [
          "Ġì",
          "Ĺ"
        ],
        [
          "Ŀ",
          "¼"
        ],
        [
          "Ġë",
          "ıĦ"
        ],
        [
          "µ",
          "ìĭ"
        ],
        [
          "Ġì",
          "½Ķë"
        ],
        [
          "ë³",
          "¼"
        ],
        [
          "ê²",
          "ł"
        ],
        [
          "ĠëĮĢí",
          "ĻĶ"
        ],
        [
          "ìł",
          "ģ"
        ],
        [
          "ë",
          "Ŀ¼"
        ],
        [
          "İ",
          "¸"
        ],
        [
          "ë",
          "ŀ"
        ],
        [
          "Ġê",
          "¸"
        ],
        [
          "Ġë",
          "ı"
        ],
        [
          "ĸ´ì",
          "Ħľ"
        ],
        [
          "Ġí",
          "İ¸"
        ],
        [
          "ì",
          "Ļ"
        ],
        [
          "Ġì",
          "ĸ"
        ],
        [
          "ëł",
          "¤"
        ],
        [
          "Ġê",
          "±°"
        ],
        [
          "ĠìŀĲìĹ°ìĬ¤ëŁ",
          "½ê²Į"
        ],
        [
          "ìł",
          "ķ"
        ],
        [
          "Ģí",
          "Ħ°"
        ],
        [
          "ìĿ",
          "ĺ"
        ],
        [
          "ģ",
          "í"
        ],
        [
          "ìĿ´",
          "í"
        ],
        [
          "Ġë¶",
          "Ħ"
        ],
        [
          "ë³¼",
          "ê²Į"
        ],
        [
          "ê²ł",
          "ìĸ´"
        ],
        [
          "ìł",
          "ľ"
        ],
        [
          "ĠëŃĲ",
          "ìķ¼"
        ],
        [
          "Ġìļ",
          "Ķ"
        ],
        [
          "Ġì",
          "ĥ"
        ],
        [
          "ëŁ",
          "¼"
        ],
        [
          "ĵ",
          "ľ"
        ],
        [
          "ìĹĲ",
          "ëĬĶ"
        ],
        [
          "Ġì",
          "ĭ"
        ],
        [
          "ëĬ",
          "¥"
        ],
        [
          "íķĺ",
          "ê³ł"
        ],
        [
          "íķĺ",
          "ë©´"
        ],
        [
          "ìļ",
          "©"
        ],
        [
          "Ġë",
          "¨"
        ],
        [
          "ĠìĤ¬",
          "ìļ©"
        ],
        [
          "ë¶",
          "ĢíĦ°"
        ],
        [
          "Ġì§§",
          "ê²Į"
        ],
        [
          "Ġíİ¸",
          "íķĺê²Į"
        ],
        [
          "Ġì",
          "¤Ħ"
        ],
        [
          "ł",
          "ì"
        ],
        [
          "ì",
          "Ĭ"
        ],
        [
          "Ķ",
          "±"
        ],
        [
          "Ġì",
          "¤"
        ],
        [
          "Ĳ",
          "ĺ"
        ],
        [
          "Ġëı",
          "¼"
        ],
        [
          "ª",
          "½"
        ],
        [
          "Ġë",
          "²"
        ],
        [
          "Ġê",
          "±"
        ],
        [
          "ĠìĿ",
          "¼"
        ],
        [
          "ĠìĿ",
          "ĳ"
        ],
        [
          "ĠìĿ´ì",
          "ĸ´ìĦľ"
        ],
        [
          "ĠìĤ¬ìļ©",
          "ìŀĲ"
        ],
        [
          "Ġìĺ",
          "¤"
        ],
        [
          "ê",
          "¹"
        ],
        [
          "Ġê°Ļ",
          "ìĿĢ"
        ],
        [
          "ľ",
          "ê"
        ],
        [
          "·",
          "¼"
        ],
        [
          "Ġíķĺ",
          "ëĤĺ"
        ],
        [
          "ìļ",
          "Ķ"
        ],
        [
          "ĠìĽĲ",
          "íķĺëĬĶ"
        ],
        [
          "Ġë°©",
          "íĸ"
        ],
        [
          "Ġë°©íĸ",
          "¥"
        ],
        [
          "Ġê",
          "²"
        ],
        [
          "Ġë§Ĳ",
          "íķłê²Į"
        ],
        [
          "ĠëĤ",
          "ĺ"
        ],
        [
          "ìŀ",
          "¥"
        ],
        [
          "ĠëıĦ",
          "ìĻ"
        ],
        [
          "µìĭ",
          "¬"
        ],
        [
          "ê¹",
          "Į"
        ],
        [
          "ĠëıĦìĻ",
          "Ģì"
        ],
        [
          "Ġëĭµ",
          "íķľëĭ¤"
        ],
        [
          "Ġíķ",
          "µìĭ¬"
        ],
        [
          "Ġì¤",
          "ĳ"
        ],
        [
          "Ġìł",
          "Ħ"
        ],
        [
          "Ġë",
          "¬"
        ],
        [
          "íķ´",
          "ëıĦ"
        ],
        [
          "ĠëĦ",
          "¤"
        ],
        [
          "ĠìķĮ",
          "ëł¤"
        ],
        [
          "ĠìķĮ",
          "ê²łìĸ´"
        ],
        [
          "¡",
          "°"
        ],
        [
          "Ġë",
          "Ĭ"
        ],
        [
          "ê±°",
          "ëĤĺ"
        ],
        [
          "Ĭ",
          "¸"
        ],
        [
          "Ġì",
          "ª½"
        ],
        [
          "Ġê³",
          "¼"
        ],
        [
          "Ġê±",
          "¸"
        ],
        [
          "ìłģ",
          "ìĿ¸"
        ],
        [
          "Ġíķ",
          "¨"
        ],
        [
          "Ĳĺ",
          "ê³ł"
        ],
        [
          "Ķ",
          "Ķ"
        ],
        [
          "h",
          "at"
        ],
        [
          "ë",
          "²"
        ],
        [
          "ĠìĿ´ì",
          "ĸ´"
        ],
        [
          "Ġë¶",
          "Ģ"
        ],
        [
          "ģ",
          "¬"
        ],
        [
          "ĺ",
          "ķ"
        ],
        [
          "Ġë",
          "Ĳĺê³ł"
        ],
        [
          "ì²",
          "Ń"
        ],
        [
          "Ġë§ŀì¶",
          "ľ"
        ],
        [
          "ĠìļĶ",
          "ì²Ń"
        ],
        [
          "ģ",
          "ìĸ´"
        ],
        [
          "Ġì",
          "ĸ´"
        ],
        [
          "Ġìĺ",
          "ģìĸ´"
        ],
        [
          "ĠëıĦìĻĢì",
          "¤Ħ"
        ],
        [
          "ĥ",
          "ģ"
        ],
        [
          "ì",
          "Ľ"
        ],
        [
          "ĥ",
          "ī"
        ],
        [
          "ìĹĲ",
          "ìĦľ"
        ],
        [
          "½",
          "ê³ł"
        ],
        [
          "Ġí",
          "Ŀ"
        ],
        [
          "ë¶",
          "Ħ"
        ],
        [
          "Ġë§",
          "ģí"
        ],
        [
          "ëĭ",
          "Ī"
        ],
        [
          "Ġë§ģí",
          "ģ¬"
        ],
        [
          "¶",
          "ģ"
        ],
        [
          "Ķ",
          "©"
        ],
        [
          "ĺ",
          "ëŁ¼"
        ],
        [
          "Ġê",
          "¶ģ"
        ],
        [
          "Ġê¶ģ",
          "ê¸Ī"
        ],
        [
          "ë",
          "¯"
        ],
        [
          "į",
          "¬"
        ],
        [
          "ë¥",
          "´"
        ],
        [
          "ìĿ´ì",
          "į¬"
        ],
        [
          "Ġê°Ģ",
          "ëĬ¥"
        ],
        [
          "í",
          "ŀ"
        ],
        [
          "Ġì",
          "¹"
        ],
        [
          "Ġì",
          "ī"
        ],
        [
          "Ġê",
          "´"
        ],
        [
          "Ġìķ",
          "Īë"
        ],
        [
          "Ġì§§",
          "ìĿĢ"
        ],
        [
          "ĠíĮĮ",
          "ìĿ´ìį¬"
        ],
        [
          "ľê",
          "·¼"
        ],
        [
          "ë",
          "į"
        ],
        [
          "ľ",
          "ì"
        ],
        [
          "Ġ",
          "w"
        ],
        [
          "ë¦",
          "Ħ"
        ],
        [
          "Ġëį",
          "°"
        ],
        [
          "ľ",
          "»"
        ],
        [
          "Ġê·¸",
          "ë"
        ],
        [
          "Ġì½Ķë",
          "Ķ©"
        ],
        [
          "í",
          "Ī"
        ],
        [
          "Ġê",
          "µ¬"
        ],
        [
          "Ġë§Ĳ",
          "íĪ"
        ],
        [
          "Ġì¹",
          "ľê·¼"
        ],
        [
          "Ġë§ĲíĪ",
          "¬"
        ],
        [
          "Ġì",
          "°"
        ],
        [
          "ìĦ",
          "Ŀ"
        ],
        [
          "ìĿ´í",
          "Ħ°"
        ],
        [
          "Ġë¶Ħ",
          "ìĦĿ"
        ],
        [
          "íŀ",
          "Ī"
        ],
        [
          "ê",
          "»"
        ],
        [
          "ê",
          "µ¬"
        ],
        [
          "Ġìĸ",
          "¸"
        ],
        [
          "ĠíĿ",
          "Ĳ"
        ],
        [
          "Ġê¶ģê¸Ī",
          "íķľ"
        ],
        [
          "Ġë",
          "ľ»"
        ],
        [
          "Ġëį°",
          "ìĿ´íĦ°"
        ],
        [
          "ĳ",
          "ľ"
        ],
        [
          "Ġì",
          "ľ"
        ],
        [
          "ìľ",
          "Ħ"
        ],
        [
          "ª",
          "¨"
        ],
        [
          "ĠìĿ´ì",
          "ķ¼"
        ],
        [
          "ĠìĤ¬",
          "ê³¼"
        ],
        [
          "ĠìķĦ",
          "ëĭĪ"
        ],
        [
          "Ġì½Ķë",
          "ĵľ"
        ],
        [
          "í",
          "Ļ"
        ],
        [
          "ħ",
          "ķ"
        ],
        [
          "ķ",
          "ìķĦ"
        ],
        [
          "ìł",
          "Ģ"
        ],
        [
          "ķìķĦ",
          "ì§Ģ"
        ],
        [
          "íķ´",
          "ë³¼ê²Į"
        ],
        [
          "Ġì¢",
          "Ģ"
        ],
        [
          "ĠìĹ",
          "Ĩ"
        ],
        [
          "Ġê°",
          "ľ"
        ],
        [
          "ì²",
          "ĺëŁ¼"
        ],
        [
          "ĥ",
          "¥"
        ],
        [
          "ê°",
          "Ī"
        ],
        [
          "ĠëĦ",
          "Ī"
        ],
        [
          "Ġê·¸ë",
          "ĥ¥"
        ],
        [
          "ë³",
          "Ģ"
        ],
        [
          "Ġëĭµ",
          "ë³Ģ"
        ],
        [
          "ĠìķĮëł¤",
          "ì¤ĺ"
        ],
        [
          "ëĬ",
          "ĺ"
        ],
        [
          "Ġíķ¨",
          "ê»"
        ],
        [
          "Ġíķ¨ê»",
          "ĺ"
        ],
        [
          "Ġ",
          "íķł"
        ],
        [
          "Ġë§Ĳ",
          "ê³ł"
        ],
        [
          "ĠíĮĮ",
          "ìĿ¼"
        ],
        [
          "ëŀ",
          "ĺ"
        ],
        [
          "¼",
          "ìłĢ"
        ],
        [
          "ë",
          "¬"
        ],
        [
          "Ġë¨",
          "¼ìłĢ"
        ],
        [
          "°",
          "®"
        ],
        [
          "Ġë§",
          "İ"
        ],
        [
          "ĠìĤ¬ìļ©ìŀĲ",
          "ê°Ģ"
        ],
        [
          "Ġë§ŀì¶ľ",
          "ê²Į"
        ],
        [
          "ľì",
          "°®"
        ],
        [
          "Ġê°",
          "ķìķĦì§Ģ"
        ],
        [
          "ĠëŃĲ",
          "íķł"
        ],
        [
          "Ġìĥ",
          "Ŀ"
        ],
        [
          "Ġìĺ¤",
          "ëĬĺ"
        ],
        [
          "ì",
          "ĸ´ì"
        ],
        [
          "ĠìĿ",
          "ĺ"
        ],
        [
          "Ġë§Ĳ",
          "íķ´ì"
        ],
        [
          "ĠëĦ",
          "Īë"
        ],
        [
          "ĠìĿ´ìĸ´",
          "ê°Ī"
        ],
        [
          "Ġìĸ´",
          "ë"
        ],
        [
          "ĠìķĪë",
          "ħķ"
        ],
        [
          "ı",
          "Ļ"
        ],
        [
          "Ġì",
          "£¼"
        ],
        [
          "Ġí",
          "Ĩ"
        ],
        [
          "Ġë³",
          "¼"
        ],
        [
          "Ġìĺ",
          "¤ë"
        ],
        [
          "Ġë¬¸",
          "ìĦľ"
        ],
        [
          "Ġ",
          "y"
        ],
        [
          "ëĿ¼",
          "ê³ł"
        ],
        [
          "Ġê¸",
          "°"
        ],
        [
          "Ġìĸ¸",
          "ìĸ´"
        ],
        [
          "ĠíĿĲ",
          "ë¦Ħ"
        ],
        [
          "ì",
          "ĺ"
        ],
        [
          "ë¡ľ",
          "ëıĦ"
        ],
        [
          "ìĽ",
          "Į"
        ],
        [
          "Ġë§Ĳíķ´ì",
          "£¼ë©´"
        ],
        [
          "Ġë°©",
          "ê¸Ī"
        ],
        [
          "ľì°®",
          "ìķĦ"
        ],
        [
          "¬",
          "´"
        ],
        [
          "Ġë",
          "ª¨"
        ],
        [
          "ìķ",
          "Ī"
        ],
        [
          "ĠëĦĪë",
          "¬´"
        ],
        [
          "ëį",
          "¸"
        ],
        [
          "Ġy",
          "ou"
        ],
        [
          "Ġìł",
          "ľ"
        ],
        [
          "ëĤ",
          "´ì"
        ],
        [
          "´",
          "Ĳ"
        ],
        [
          "íķĺ",
          "ì§Ģ"
        ],
        [
          "ê",
          "·¸"
        ],
        [
          "ìĿ",
          "Į"
        ],
        [
          "Ġê°Ģ",
          "ë³"
        ],
        [
          "Ġì¹ľê·¼",
          "íķĺê²Į"
        ],
        [
          "c",
          "o"
        ],
        [
          "Ġ",
          "I"
        ],
        [
          "Ġë",
          "Ķ±"
        ],
        [
          "Ġë§İ",
          "ìĿ´"
        ],
        [
          "Ġíķĺ",
          "ê³ł"
        ],
        [
          "ĠìĦ¤ëªħ",
          "íķ´ì¤ĺ"
        ],
        [
          "Ħ",
          "ìļĶ"
        ],
        [
          "ļ",
          "©"
        ],
        [
          "ìľ¼",
          "ë©´"
        ],
        [
          "ìĦ",
          "±"
        ],
        [
          "ìĬ",
          "µ"
        ],
        [
          "Ġ",
          "h"
        ],
        [
          "Ģì",
          "ĥī"
        ],
        [
          "Ġë§ŀì¶",
          "°"
        ],
        [
          "Ġë°ĺ",
          "ê°Ģ"
        ],
        [
          "Ġê²",
          "Ģìĥī"
        ],
        [
          "į",
          "ê²Į"
        ],
        [
          "ĺ",
          "ê¸°"
        ],
        [
          "Ġì",
          "¶"
        ],
        [
          "ê³",
          "Ħ"
        ],
        [
          "ë¡",
          "Ŀ"
        ],
        [
          "Ġìĸ",
          "ĺê¸°"
        ],
        [
          "ìĬ",
          "¤"
        ],
        [
          "ķ",
          "Į"
        ],
        [
          "Ġí",
          "Ĵ"
        ],
        [
          "Ġìĺ",
          "Ī"
        ],
        [
          "íĸ",
          "Ī"
        ],
        [
          "Ġê´",
          "ľì°®ìķĦ"
        ],
        [
          "ì",
          "Ĥ¬"
        ],
        [
          "´ì",
          "ļ©"
        ],
        [
          "íķ´ì",
          "Ħľ"
        ],
        [
          "Ġìłķ",
          "ìĿĺ"
        ],
        [
          "ĠëĤ",
          "´ìļ©"
        ],
        [
          "Ġìī",
          "½ê²Į"
        ],
        [
          "ë",
          "Ķ±"
        ],
        [
          "Ġë",
          "¹"
        ],
        [
          "Ġë§",
          "Į"
        ],
        [
          "Ġë§Ĳ",
          "íķľëĭ¤"
        ],
        [
          "ìĭ",
          "Ŀ"
        ],
        [
          "ĠìĤ¬",
          "ëŀ"
        ],
        [
          "µìĭ",
          "Ŀ"
        ],
        [
          "Ġëª¨",
          "ëį¸"
        ],
        [
          "ĠëĶ±",
          "ëĶ±"
        ],
        [
          "ĠìĤ¬ëŀ",
          "Į"
        ],
        [
          "¨",
          "í"
        ],
        [
          "ĠìĿ",
          "¸"
        ],
        [
          "ìĿ´",
          "ëĤĺ"
        ],
        [
          "Ġë°Ķ",
          "ê"
        ],
        [
          "Ġì¶",
          "Ķ"
        ],
        [
          "ë§",
          "Ĳ"
        ],
        [
          "ĠìĿĺ",
          "ëıĦ"
        ],
        [
          "Ķ",
          "¨"
        ],
        [
          "ë¥",
          "ĺ"
        ],
        [
          "Ġê³",
          "µìĭĿ"
        ],
        [
          "łì",
          "Ķ¨"
        ],
        [
          "Ġê°Ģë³",
          "įê²Į"
        ],
        [
          "°",
          "ë¦¬"
        ],
        [
          "ë¥",
          "¸"
        ],
        [
          "ë³",
          "´"
        ],
        [
          "Ġê³",
          "ł"
        ],
        [
          "ìĿ´í",
          "Ĭ¸"
        ],
        [
          "Ġì",
          "¡°"
        ],
        [
          "Ġìŀ",
          "ĺ"
        ],
        [
          "Ļ",
          "ìĬµ"
        ],
        [
          "ĠëĬ",
          "Ĳ"
        ],
        [
          "Ģ",
          "ë¡ľ"
        ],
        [
          "Ķ",
          "ìľĦ"
        ],
        [
          "ëł",
          "¥"
        ],
        [
          "Ġìļ",
          "°ë¦¬"
        ],
        [
          "Ġë²",
          "ĶìľĦ"
        ],
        [
          "ë¯",
          "¸"
        ],
        [
          "Ġë°ĺê°Ģ",
          "ìĽĮ"
        ],
        [
          "ģ",
          "ìĿ´"
        ],
        [
          "Ġë°",
          "°ì"
        ],
        [
          "Ġíķĺ",
          "ë©´"
        ],
        [
          "Ġíķ",
          "ĦìļĶ"
        ],
        [
          "ĠëĤ",
          "łìĶ¨"
        ],
        [
          "ĠìķĮ",
          "ìķĦ"
        ],
        [
          "ĠëĮĢí",
          "ĳľ"
        ],
        [
          "Ġì§Ģê¸Ī",
          "ìĿĢ"
        ],
        [
          "ĠëĮĢíĳľ",
          "ìłģìĿ¸"
        ],
        [
          "Ġìķ",
          "ŀ"
        ],
        [
          "Ġìľ",
          "ł"
        ],
        [
          "ë",
          "ĵľ"
        ],
        [
          "Ī",
          "ìĹ"
        ],
        [
          "Ġìŀ",
          "¡"
        ],
        [
          "Ġëĭ¤",
          "ë¥¸"
        ],
        [
          "ëŁ",
          "¬"
        ],
        [
          "Ġìĺ¤ë",
          "ŀ"
        ],
        [
          "í",
          "ĺķ"
        ],
        [
          "Ġìŀ",
          "ĳ"
        ],
        [
          "Ġíķµìĭ¬",
          "ë§Į"
        ],
        [
          "Ġì°",
          "¨"
        ],
        [
          "ĵ",
          "¤"
        ],
        [
          "Ġì",
          "ĭ¤"
        ],
        [
          "Ġíķ",
          "ĻìĬµ"
        ],
        [
          "ĠìĿ´",
          "ë²"
        ],
        [
          "Ġë¨",
          "¹"
        ],
        [
          "Ġì",
          "²"
        ],
        [
          "Ġë",
          "©"
        ],
        [
          "ìĿ",
          "ĳ"
        ],
        [
          "°ì",
          "Ħľ"
        ],
        [
          "Ġê³",
          "łì"
        ],
        [
          "¤Ħ",
          "ê²Į"
        ],
        [
          "ĠìĿ",
          "½"
        ],
        [
          "Ġìķ",
          "Ĭ"
        ],
        [
          "ìļ",
          "´"
        ],
        [
          "ëł",
          "¤ë"
        ],
        [
          "ë¬",
          "¼"
        ],
        [
          "Ġìĭ¤",
          "ìłľ"
        ],
        [
          "ì",
          "Īĺ"
        ],
        [
          "Ġë³´",
          "ëĤ´ì"
        ],
        [
          "Ġë°Ķê",
          "¿"
        ],
        [
          "Ġí",
          "ĺķ"
        ],
        [
          "ëĤ",
          "´"
        ],
        [
          "Ġëĭ",
          "¨"
        ],
        [
          "ĠA",
          "I"
        ],
        [
          "Ġë¬¸",
          "ìłľ"
        ],
        [
          "ĠìłĦ",
          "íĻ"
        ],
        [
          "ĠìĿ´ìĸ´ê°Ī",
          "ê²Į"
        ],
        [
          "ĠìłĦíĻ",
          "ĺ"
        ],
        [
          "´",
          "ìĿĦ"
        ],
        [
          "ë",
          "´Ĳ"
        ],
        [
          "Ġë¬¸",
          "ìŀ¥"
        ],
        [
          "ĠìĽĲ",
          "íķĺë©´"
        ],
        [
          "Ġì§Īë¬¸",
          "ìĹĲëĬĶ"
        ],
        [
          "Ġê°ĢëĬ¥",
          "íķľ"
        ],
        [
          "Ġíĺķ",
          "ìĭĿ"
        ],
        [
          "l",
          "o"
        ],
        [
          "ë",
          "£"
        ],
        [
          "ì",
          "¢"
        ],
        [
          "Ġ",
          "íķ´"
        ],
        [
          "Ġ",
          "íķ´ì¤ĺ"
        ],
        [
          "ĠìĪĺ",
          "ìłķ"
        ],
        [
          "ĠìĿ´ì",
          "ĥģ"
        ],
        [
          "Ġíķĺ",
          "ì§Ģ"
        ],
        [
          "ĠìĽ",
          "¹"
        ],
        [
          "Ġë¬",
          "¼"
        ],
        [
          "Ġìª½",
          "ìľ¼ë¡ľ"
        ],
        [
          "ĠìļĶì²Ń",
          "ìĹĲëĬĶ"
        ],
        [
          "¹",
          "ĺ"
        ],
        [
          "ì",
          "ĥģ"
        ],
        [
          "ĠìĽĲ",
          "ìĿ¸"
        ],
        [
          "ĠìŀĲìĹ°ìĬ¤ëŁ",
          "½ê³ł"
        ],
        [
          "Ġìĭ",
          "¶"
        ],
        [
          "ë",
          "°"
        ],
        [
          "ĺ",
          "Ħ"
        ],
        [
          "íķĺ",
          "ê±°ëĤĺ"
        ],
        [
          "Ġë°ĺ",
          "ëł¤ë"
        ],
        [
          "ĠìĿ¼",
          "ìĿĦ"
        ],
        [
          "ĠìĿ¼",
          "ìĥģ"
        ],
        [
          "ıĻ",
          "ë¬¼"
        ],
        [
          "ĪìĹ",
          "Ķ"
        ],
        [
          "ĠìĿ´ë²",
          "ĪìĹĶ"
        ],
        [
          "Ġë°ĺëł¤ë",
          "ıĻë¬¼"
        ],
        [
          "g",
          "p"
        ],
        [
          "t",
          "t"
        ],
        [
          "Ġëĭµ",
          "íķł"
        ],
        [
          "ë¥´",
          "ëĬĶ"
        ],
        [
          "gp",
          "t"
        ],
        [
          "ĠëıĦ",
          "êµ¬"
        ],
        [
          "co",
          "m"
        ],
        [
          "į",
          "¨"
        ],
        [
          "ĺ",
          "ìł"
        ],
        [
          "ł",
          "í"
        ],
        [
          "Ġì",
          "į¨"
        ],
        [
          "ĠìŀĪ",
          "ëĬĶ"
        ],
        [
          "Ġëį",
          "ĺìł"
        ],
        [
          "ĠëĮĢíĻĶ",
          "ìĹĲ"
        ],
        [
          "ĠëĤĺ",
          "ëĬĶ"
        ],
        [
          "ĠëĦ¤",
          "ê°Ģ"
        ],
        [
          "Ġëľ»",
          "ìĿĦ"
        ],
        [
          "Ġëįĺìł",
          "¸"
        ],
        [
          "Ġ",
          "f"
        ],
        [
          "Ħ",
          "´ìĿĦ"
        ],
        [
          "´ì",
          "ł"
        ],
        [
          "ìĹ",
          "°"
        ],
        [
          "Ġëĭµ",
          "íķłê²Į"
        ],
        [
          "ìĿ´ì",
          "§Ģ"
        ],
        [
          "ĠíĮ",
          "¨í"
        ],
        [
          "Ġìŀ¡",
          "ëĭ"
        ],
        [
          "ĠíĮ¨í",
          "Ħ´ìĿĦ"
        ],
        [
          "¤",
          "Ģ"
        ],
        [
          "¥",
          "ëł¥"
        ],
        [
          "Ġt",
          "o"
        ],
        [
          "Ġë§Ĳ",
          "íķ´ë³¼ê²Į"
        ],
        [
          "ìĹ",
          "¬"
        ],
        [
          "ĠëĬ",
          "¥ëł¥"
        ],
        [
          "Ġê³¼",
          "ìŀ¥"
        ],
        [
          "ĠìĤ¬ëŀĮ",
          "ê³¼"
        ],
        [
          "´ì",
          "ŀ"
        ],
        [
          "Ġê³¼",
          "ìĿ¼"
        ],
        [
          "ĠìĹĨ",
          "ìĿ´"
        ],
        [
          "Ġë³´ëĤ´ì",
          "£¼ë©´"
        ],
        [
          "/",
          "/"
        ],
        [
          ":",
          "//"
        ],
        [
          "p",
          "s"
        ],
        [
          "ĠìĿ´ìķ¼",
          "ê¸°"
        ],
        [
          "ĠíĨ",
          "¤"
        ],
        [
          "ĠíĺķìĭĿ",
          "ìĿĦ"
        ],
        [
          "ì¢",
          "ĭ"
        ],
        [
          "tt",
          "ps"
        ],
        [
          "ĠëĤ",
          "´"
        ],
        [
          "Ġê¸",
          "°ì"
        ],
        [
          "Ġë¶Ģ",
          "ë¶Ħ"
        ],
        [
          "ĠìĿĺëıĦ",
          "ë¥¼"
        ],
        [
          "Ġì¡°",
          "ê¸Ī"
        ],
        [
          "Ġë°Ķê¿",
          "Ķ"
        ],
        [
          "´ìŀ",
          "Ĳ"
        ],
        [
          "Ġ",
          "c"
        ],
        [
          "Ġê·¸",
          "ëŁ¼"
        ],
        [
          "Ġì§Īë¬¸",
          "ê³¼"
        ],
        [
          "ĠìĿ´",
          "íķ´"
        ],
        [
          "ìĻ",
          "Ģ"
        ],
        [
          "ĠìĤ¬ìļ©ìŀĲ",
          "ìĿĺ"
        ],
        [
          "Ġë§ĲíĪ¬",
          "ëĤĺ"
        ],
        [
          "Ġh",
          "ttps"
        ],
        [
          "ìĹ°",
          "íķĺê²Į"
        ],
        [
          "ì¢ĭ",
          "ìķĦ"
        ],
        [
          "Į",
          "ë¦¬"
        ],
        [
          "Ġì",
          "Ļ"
        ],
        [
          "Ġëĭ",
          "¬"
        ],
        [
          "ì²",
          "´ìł"
        ],
        [
          "Ġë³´",
          "ëĬĶ"
        ],
        [
          "Ġê±°",
          "ìķ¼"
        ],
        [
          "Ġêµ¬",
          "ì²´ìł"
        ],
        [
          "Ġìľł",
          "ìĹ°íķĺê²Į"
        ],
        [
          "Ġìŀ¡ëĭ",
          "´"
        ],
        [
          "Ġw",
          "ant"
        ],
        [
          "Ġìĭ¶",
          "ìĿĢ"
        ],
        [
          "ìĦ",
          "¸"
        ],
        [
          "Ġë°ĺ",
          "ìĺ"
        ],
        [
          "Ġë°©íĸ¥",
          "ìĿĢ"
        ],
        [
          "Ġëį°ìĿ´íĦ°",
          "ë¥¼"
        ],
        [
          "Ġë°ĺìĺ",
          "ģ"
        ],
        [
          "Ġd",
          "o"
        ],
        [
          "Ġì§§",
          "ê³ł"
        ],
        [
          "Ġìĥ",
          "ģí"
        ],
        [
          "Ġìĭ",
          "ľ"
        ],
        [
          "ĠëŃĲíķł",
          "ëŀĺ"
        ],
        [
          "Ġë°ĺìĺģ",
          "íķľëĭ¤"
        ],
        [
          "ĠìĿ",
          "½ê³ł"
        ],
        [
          "Ġìĺģìĸ´",
          "ë¡ľ"
        ],
        [
          "ĠìłķìĿĺ",
          "íĺķ"
        ],
        [
          "ĠìĿ½",
          "ê¸°"
        ],
        [
          "Ġìĭ¤ìłľ",
          "ë¡ľ"
        ],
        [
          "ë´Ĳ",
          "ëıĦ"
        ],
        [
          "Ġ",
          "C"
        ],
        [
          "Ġíķľ",
          "ê³Ħ"
        ],
        [
          "ĠíķĺëĤĺ",
          "ë§Į"
        ],
        [
          "Ġë²ĶìľĦ",
          "ìĻĢ"
        ],
        [
          "ģìĿ´",
          "ê³ł"
        ],
        [
          "Ġê³łì",
          "¹ĺ"
        ],
        [
          "Ġêµ¬ì²´ìł",
          "ģìĿ´ê³ł"
        ],
        [
          "Ġíķľê³Ħ",
          "ë¥¼"
        ],
        [
          "Ġê³łì¹ĺ",
          "ëĿ¼ê³ł"
        ],
        [
          "i",
          "s"
        ],
        [
          "Ġì",
          "ĸ´ì"
        ],
        [
          "ë³",
          "µ"
        ],
        [
          "Ġê·¸",
          "ê±°"
        ],
        [
          "Ġë°ĺ",
          "ë³µ"
        ],
        [
          "Ġìĸ´ì",
          "ĥī"
        ],
        [
          ".",
          "."
        ],
        [
          "ì",
          "¡°"
        ],
        [
          "í",
          "Ĩ"
        ],
        [
          "ìķĦ",
          "ì¤ĺ"
        ],
        [
          "ĠìĹ",
          "¬"
        ],
        [
          "ê¹Į",
          "ì§Ģ"
        ],
        [
          "Ġì°",
          "¾"
        ],
        [
          "Ġìłľ",
          "ìķĪ"
        ],
        [
          "ë£",
          "Į"
        ],
        [
          "ĠëĤ´",
          "ê°Ģ"
        ],
        [
          "µ",
          "ì§Ģ"
        ],
        [
          "ê³",
          "µì§Ģ"
        ],
        [
          "ì§Ģ",
          "ë¥¼"
        ],
        [
          "Ġê¸",
          "Ģ"
        ],
        [
          "ê³µì§Ģ",
          "ëĬ¥"
        ],
        [
          "ìĿ´",
          "ë"
        ],
        [
          "Ġí",
          "Ķ"
        ],
        [
          "ĠìŀĪ",
          "ìľ¼ë©´"
        ],
        [
          "ë§",
          "¥"
        ],
        [
          "Ġë²",
          "Ħ"
        ],
        [
          "ë¥´",
          "ê²Į"
        ],
        [
          "ĠíĿĲë¦Ħ",
          "ìĹĲ"
        ],
        [
          "ë³´",
          "ëĭ¤"
        ],
        [
          "ĺ",
          "ë¦¬"
        ],
        [
          "ĠëŃĲ",
          "íķ´"
        ],
        [
          "Ġë¶",
          "Ļ"
        ],
        [
          "Ġìĸ´ë",
          "ķĮ"
        ],
        [
          "Ġê³ł",
          "ìłķ"
        ],
        [
          "Ġc",
          "an"
        ],
        [
          "º",
          "¼"
        ],
        [
          "ë",
          "ĵ¤"
        ],
        [
          "ľ",
          "ë§Į"
        ],
        [
          "Ġë",
          "ģ"
        ],
        [
          "Ġë°°ì",
          "ļ"
        ],
        [
          "ĠíķĦìļĶ",
          "íķĺë©´"
        ],
        [
          "Ġê³łìłķ",
          "ìłģìĿ¸"
        ],
        [
          "í",
          "ĥ"
        ],
        [
          "Ġ",
          "he"
        ],
        [
          "ģ",
          "°"
        ],
        [
          "Ī",
          "ìĸ´"
        ],
        [
          "Ġìŀ",
          "¬"
        ],
        [
          "Ġëĭµ",
          "ìĿ´"
        ],
        [
          "ĠBee",
          "ìķ¼"
        ],
        [
          "ĠìĤ¬",
          "ìĿ´íĬ¸"
        ],
        [
          "Ġë¬¸",
          "ë²"
        ],
        [
          "Ġë³´",
          "ê³ł"
        ],
        [
          "ĠìĿ´",
          "ë¯¸"
        ],
        [
          "ĠìĤ¬ê³¼",
          "ëĬĶ"
        ],
        [
          "ĠìĹĨ",
          "ìĸ´"
        ],
        [
          "Ġì£¼",
          "ìłľ"
        ],
        [
          "Ġhe",
          "l"
        ],
        [
          "Ġë¬¸ë²",
          "ķ"
        ],
        [
          "ĵ",
          "¤ë"
        ],
        [
          "´ì",
          "Ĺ"
        ],
        [
          "ìĭ",
          "¬"
        ],
        [
          "Ġë³´",
          "íĨ"
        ],
        [
          "Ġêµ¬",
          "ì¡°"
        ],
        [
          "ĠìĤ¬ê³¼",
          "ê°Ģ"
        ],
        [
          "Ġê°ľ",
          "ë¥¼"
        ],
        [
          "Ġê°ķìķĦì§Ģ",
          "ëĬĶ"
        ],
        [
          "ĠìĿ¸",
          "ê³µì§ĢëĬ¥"
        ],
        [
          "Ġë³´íĨ",
          "µ"
        ],
        [
          "ë",
          "ªħ"
        ],
        [
          "Ġë",
          "ĵ¤ë"
        ],
        [
          "íķĺ",
          "ìŀĲ"
        ],
        [
          "ëĬĶ",
          "ì§Ģ"
        ],
        [
          "ĠìĿ",
          "Į"
        ],
        [
          "Ġí",
          "Ļ"
        ],
        [
          "ê°",
          "ģ"
        ],
        [
          "ëĤ",
          "Į"
        ],
        [
          "ë³",
          "´ìŀĲ"
        ],
        [
          "ĠìĦ¤ëªħ",
          "íķłê²Į"
        ],
        [
          "Ġì¤Ħ",
          "ë¡ľ"
        ],
        [
          "ĠëĬĲ",
          "ëĤĮ"
        ],
        [
          "Ġëįĺìł¸",
          "ì¤ĺ"
        ],
        [
          "§",
          "Ħ"
        ],
        [
          "ê",
          "µ"
        ],
        [
          "ķ",
          "ìĿ¸"
        ],
        [
          "Ġë§Ĳ",
          "íķ´"
        ],
        [
          "ìĹ",
          "Ń"
        ],
        [
          "ê°",
          "ľ"
        ],
        [
          "ĠìŀĪ",
          "ì§Ģ"
        ],
        [
          "Ġë¬¸",
          "ë§¥"
        ],
        [
          "íĻ",
          "ķ"
        ],
        [
          "E",
          "n"
        ],
        [
          "g",
          "l"
        ],
        [
          "Ġ",
          "En"
        ],
        [
          "Ĥ",
          "°"
        ],
        [
          "Ħ",
          "ë¡ľ"
        ],
        [
          "ķ",
          "ìľ¼ë¡ľ"
        ],
        [
          "ĸ",
          "¤"
        ],
        [
          "Ġê",
          "º¼"
        ],
        [
          "Ġë°Ķ",
          "íĥ"
        ],
        [
          "Ġì§Īë¬¸",
          "ìĿĦ"
        ],
        [
          "ĠìļĶì²Ń",
          "ìĿ´"
        ],
        [
          "ìĸ´ì",
          "£¼ë©´"
        ],
        [
          "Ġìĸ´ë",
          "ĸ¤"
        ],
        [
          "¤Ģ",
          "ëĭ¤"
        ],
        [
          "is",
          "h"
        ],
        [
          "Ġìĸ´ìĥī",
          "íĸĪ"
        ],
        [
          "gl",
          "ish"
        ],
        [
          "ĠEn",
          "glish"
        ],
        [
          "Ġë°Ķíĥ",
          "ķìľ¼ë¡ľ"
        ],
        [
          "G",
          "P"
        ],
        [
          "Ġë",
          "ĶĶ"
        ],
        [
          "ìķ",
          "ķ"
        ],
        [
          "ìł",
          "Ģí"
        ],
        [
          "Ġìłķ",
          "íĻķ"
        ],
        [
          "Ġë§ŀ",
          "ìķĦ"
        ],
        [
          "ĠíĴ",
          "Ģ"
        ],
        [
          "Ġìĺ¤ëŀ",
          "ľë§Į"
        ],
        [
          "ĠìķĬ",
          "ê²Į"
        ],
        [
          "łí",
          "ģ°"
        ],
        [
          "Ġê³¼ìĿ¼",
          "ìĿ´ìķ¼"
        ],
        [
          "ĠíĶ",
          "Ħë¡ľ"
        ],
        [
          "Ġë°°ìļ",
          "°"
        ],
        [
          "GP",
          "T"
        ],
        [
          "ĠëĶĶ",
          "ìłĢí"
        ],
        [
          "ĠíĶĦë¡ľ",
          "ê·¸"
        ],
        [
          "ĠëĶĶìłĢí",
          "Ĭ¸"
        ],
        [
          "í",
          "ĺĦ"
        ],
        [
          "Ħ",
          "¤"
        ],
        [
          "Ĩ",
          "Į"
        ],
        [
          "Ķ",
          "ìĭľ"
        ],
        [
          "ìķ",
          "ħ"
        ],
        [
          "ìĸ´",
          "ê°Ģ"
        ],
        [
          "Ġí",
          "ĳľ"
        ],
        [
          "Ġì§Ģ",
          "ìĹŃ"
        ],
        [
          "ìľ¼ë¡ľ",
          "ëĬĶ"
        ],
        [
          "Ġìłķë¦¬",
          "íķĺê³ł"
        ],
        [
          "ë¶",
          "Ģ"
        ],
        [
          "Ġë°©íĸ¥",
          "ìĿĦ"
        ],
        [
          "Ġë¶Ģ",
          "ë¥´ëĬĶ"
        ],
        [
          "Ġìĺģìĸ´",
          "ë¡ľëıĦ"
        ],
        [
          "ë¯",
          "Ģë¡ľ"
        ],
        [
          "ĠëĤ´ìļ©",
          "ìĿĦ"
        ],
        [
          "Ġìķŀ",
          "ìľ¼ë¡ľëĬĶ"
        ],
        [
          "Ġë©",
          "Ķìĭľ"
        ],
        [
          "Ġë¬¼",
          "ìĸ´"
        ],
        [
          "Ġíĳľ",
          "íĺĦ"
        ],
        [
          "c",
          "hat"
        ],
        [
          "ë",
          "ħ"
        ],
        [
          "ì",
          "¤Ħê²Į"
        ],
        [
          "£¼",
          "ëĬĶ"
        ],
        [
          "ìłģ",
          "ìľ¼ë¡ľ"
        ],
        [
          "Ġê°ľ",
          "ëħ"
        ],
        [
          "chat",
          "gpt"
        ],
        [
          "Ġê°ľëħ",
          "Ĳ"
        ],
        [
          "Ġë§ŀì¶",
          "°ìĦľ"
        ],
        [
          "Ġë¬",
          "»"
        ],
        [
          "ĠìĥĿ",
          "ìĦ±"
        ],
        [
          "ĠíĻ",
          "ķìĿ¸"
        ],
        [
          "w",
          "w"
        ],
        [
          "´",
          "Ī"
        ],
        [
          "ìķ",
          "½"
        ],
        [
          "Ġë°",
          "Ľ"
        ],
        [
          "Ġëĭµ",
          "ìĿĦ"
        ],
        [
          "ĠìķĦ",
          "ìĿ´ë"
        ],
        [
          "Ġìĥ",
          "Ī"
        ],
        [
          "Ġíķ¨",
          "ìĪĺ"
        ],
        [
          "ĶĶ",
          "ìĸ´"
        ],
        [
          "Ġë¶Ģ",
          "ëĵľ"
        ],
        [
          "ìĬ¤",
          "í"
        ],
        [
          "Įë¦¬",
          "ëĬĶ"
        ],
        [
          "Ġë²Ħ",
          "ê·¸"
        ],
        [
          "Ġëģ",
          "Įë¦¬ëĬĶ"
        ],
        [
          "ĠìķĦìĿ´ë",
          "ĶĶìĸ´"
        ],
        [
          "Ĳ",
          "ëŁ¬"
        ],
        [
          "Ġë",
          "ķĮ"
        ],
        [
          "ëıĦ",
          "ë¡Ŀ"
        ],
        [
          "ê¸°",
          "ë¥¼"
        ],
        [
          "ĠëĮ",
          "Ģ"
        ],
        [
          "ĠìĹ",
          "ĲëŁ¬"
        ],
        [
          "ĠìļĶ",
          "ìķ½"
        ],
        [
          "Ġìĭ",
          "Ŀ"
        ],
        [
          "Ġê°ķìķĦì§Ģ",
          "ê°Ģ"
        ],
        [
          "Ġì²",
          "ĺë¦¬"
        ],
        [
          "Ġê",
          "·"
        ],
        [
          "ìķ",
          "Į"
        ],
        [
          "Ġìł",
          "ģ"
        ],
        [
          "ĠìłĦ",
          "ìķķ"
        ],
        [
          "Ġê°ĢëĬ¥",
          "íķ´"
        ],
        [
          "Ġê´",
          "Ģ"
        ],
        [
          "ĠíĨ",
          "łíģ°"
        ],
        [
          "Ġë§ŀì¶°",
          "ë³¼ê²Į"
        ],
        [
          "Ġë¬¼ìĸ´",
          "ë´ĲëıĦ"
        ],
        [
          "ë",
          "ıĻ"
        ],
        [
          "ĳ",
          "ê³ł"
        ],
        [
          "Ġë",
          "ĸ"
        ],
        [
          "Ġìł",
          "ĳê³ł"
        ],
        [
          "ëĿ¼",
          "ëĬĶ"
        ],
        [
          "Ġì¤Ħ",
          "ë§Į"
        ],
        [
          "Ġìª½",
          "ìĿĦ"
        ],
        [
          "hat",
          "GPT"
        ],
        [
          "ĠìĿ´ìĸ´",
          "ê°Ģ"
        ],
        [
          "Ġë§ģíģ¬",
          "ëĬĶ"
        ],
        [
          "ĠíĴ",
          "Ģì"
        ],
        [
          "Ġë¹",
          "¼"
        ],
        [
          "Ġìŀĳ",
          "ìĦ±"
        ],
        [
          "Ġë¨¹",
          "ê±°ëĤĺ"
        ],
        [
          "ìķĮ",
          "ê²łìĸ´"
        ],
        [
          "ë",
          "Į"
        ],
        [
          "ì",
          "ĸ´ìĦľ"
        ],
        [
          "Ľ",
          "ìĿ´"
        ],
        [
          "er",
          "e"
        ],
        [
          "ĠìŀĪ",
          "ê³ł"
        ],
        [
          "ĠìĿ´ì",
          "ł"
        ],
        [
          "ĠìķĦ",
          "ì"
        ],
        [
          "Ġw",
          "hat"
        ],
        [
          "Ġë§Į",
          "ëĵ¤"
        ],
        [
          "¨",
          "ëĿ¼"
        ],
        [
          "ê°",
          "Ħ"
        ],
        [
          "ë³",
          "¸"
        ],
        [
          "Ġë¶",
          "Ī"
        ],
        [
          "Ġë¬¸",
          "êµ¬"
        ],
        [
          "Ġê°Ģ",
          "ìŀĲ"
        ],
        [
          "ľê",
          "·¸"
        ],
        [
          "½",
          "¤"
        ],
        [
          "ê",
          "·¼"
        ],
        [
          "ì",
          "½¤"
        ],
        [
          "í",
          "ĻĶ"
        ],
        [
          "Ġì",
          "´Ī"
        ],
        [
          "ĠìķĦ",
          "ê¹Į"
        ],
        [
          "ìĤ¬",
          "ìĿ´íĬ¸"
        ],
        [
          "Ġë¬¸ìŀ¥",
          "ìľ¼ë¡ľ"
        ],
        [
          "ĨĮ",
          "ê°ľ"
        ],
        [
          "Ġë¶Ģëĵľ",
          "ëŁ"
        ],
        [
          "Ġë§Ĳ",
          "íķĺê³ł"
        ],
        [
          "Ġì§Ģ",
          "ëĤ´"
        ],
        [
          "Ġê²",
          "ĥ"
        ],
        [
          "Ġê²",
          "Į"
        ],
        [
          "Ġì¤ĳ",
          "ìļĶ"
        ],
        [
          "ìĺ",
          "¤"
        ],
        [
          "Ġìĺ¤ëŀ",
          "ĺ"
        ],
        [
          "ĠAI",
          "ìķ¼"
        ],
        [
          "Ġìŀ¡ëĭ´",
          "íķ´ëıĦ"
        ],
        [
          "i",
          "t"
        ],
        [
          "o",
          "r"
        ],
        [
          "ê",
          "±"
        ],
        [
          "ĵ",
          "°"
        ],
        [
          "Ġì",
          "ĵ°"
        ],
        [
          "Ġê",
          "µ"
        ],
        [
          "ìĸ´",
          "ëıĦ"
        ],
        [
          "ëĭ¤",
          "ê³ł"
        ],
        [
          "Īë",
          "ĶĶ"
        ],
        [
          "Ġìłķ",
          "ë³´"
        ],
        [
          "ë§",
          "ĪëĶĶ"
        ],
        [
          "Ġíķĺ",
          "ëĬĶ"
        ],
        [
          "ĠìŀĲ",
          "ë£Į"
        ],
        [
          "ĠìŀĲ",
          "ëıĻ"
        ],
        [
          "ëł",
          "¨"
        ],
        [
          "Ġíķľ",
          "ë§ĪëĶĶ"
        ],
        [
          "ëĭ",
          "µ"
        ],
        [
          "ìĿ¼",
          "ê²Į"
        ],
        [
          "Ġìĺ¤ëĬĺ",
          "ìĿĢ"
        ],
        [
          "Ġë¹",
          "Ħ"
        ],
        [
          "ë§Ĳ",
          "ê³ł"
        ],
        [
          "ĠìĽ¹",
          "ìĤ¬ìĿ´íĬ¸"
        ],
        [
          "Ġê·¸ê±°",
          "ë§Ĳê³ł"
        ],
        [
          "ĠìĿĮ",
          "ìķħ"
        ],
        [
          "Ġê´Ģ",
          "ëł¨"
        ],
        [
          "ĠìŀĲëıĻ",
          "íĻĶ"
        ],
        [
          "¸",
          "¡"
        ],
        [
          "ì",
          "¸¡"
        ],
        [
          "Ġë",
          "¡"
        ],
        [
          "Ġë§Ĳ",
          "ìĿ´ìķ¼"
        ],
        [
          "ì²",
          "ľ"
        ],
        [
          "ĠëĮĢíĻĶ",
          "íķ´ëıĦ"
        ],
        [
          "Ġìĺ¤",
          "ë¥ĺ"
        ],
        [
          "ìĸ´ì",
          "ķ¼"
        ],
        [
          "ĠìĺĪ",
          "ì¸¡"
        ],
        [
          "ĠíĨ¤",
          "ìľ¼ë¡ľ"
        ],
        [
          "Ġë¬»",
          "ëĬĶ"
        ],
        [
          "Ġë",
          "Ķ"
        ],
        [
          "íķĺ",
          "ìĦ¸"
        ],
        [
          "Ġm",
          "e"
        ],
        [
          "Ġê·¸",
          "ëŁ"
        ],
        [
          "Ġë§ŀ",
          "ê²Į"
        ],
        [
          "ĠìĦ¤ëªħ",
          "íķľëĭ¤"
        ],
        [
          "Ġíķµìĭ¬",
          "ë¶ĢíĦ°"
        ],
        [
          "Ġì¶Ķ",
          "ìłķ"
        ],
        [
          "ë§Ĳ",
          "ìķĦì¤ĺ"
        ],
        [
          "Ġíķĺì§Ģ",
          "ë§ĲìķĦì¤ĺ"
        ],
        [
          "ĠìļĶì²ŃìĿ´",
          "ë¯Ģë¡ľ"
        ],
        [
          "íķĺìĦ¸",
          "ìļĶ"
        ],
        [
          "´",
          "í"
        ],
        [
          "Ġ",
          "W"
        ],
        [
          "ê²",
          "°"
        ],
        [
          "Ġì§",
          "ģ"
        ],
        [
          "Ġëĭµ",
          "íķ´ì¤ĺ"
        ],
        [
          "Ġëĭ¤",
          "ìĿĮ"
        ],
        [
          "Ġìłķë¦¬",
          "íķ´ì"
        ],
        [
          "Ġì¢ĭ",
          "ê³ł"
        ],
        [
          "Ġì§Īë¬¸",
          "ëıĦ"
        ],
        [
          "Ġë¶Ħ",
          "ëªħ"
        ],
        [
          "Ġë§ĲíĪ¬",
          "ë¡ľ"
        ],
        [
          "ĠìĥĿ",
          "ê°ģ"
        ],
        [
          "Ġì°¨",
          "ë¶Ħ"
        ],
        [
          "Ġë¶Ļ",
          "ìĹ¬"
        ],
        [
          "Ġêº¼",
          "ëĤ´"
        ],
        [
          "ì",
          "£¼ë©´"
        ],
        [
          "ĥ",
          "ľ"
        ],
        [
          "ëĬ",
          "Ĳ"
        ],
        [
          "Ġë§Ĳ",
          "ìĿĦ"
        ],
        [
          "ê¸",
          "Ģ"
        ],
        [
          "ìł",
          "Ĳ"
        ],
        [
          "ro",
          "m"
        ],
        [
          "ë¦",
          "°"
        ],
        [
          "Ġëĭ¤",
          "ë¥´ê²Į"
        ],
        [
          "Ġì¤ĳ",
          "ìĹĲìĦľ"
        ],
        [
          "ĠíĮĮìĿ´ìį¬",
          "ìĿ´"
        ],
        [
          "ëį",
          "°"
        ],
        [
          "ĠìķĪëħķ",
          "íķĺìĦ¸ìļĶ"
        ],
        [
          "Ġì£¼",
          "ìĬ¤"
        ],
        [
          "ĠìĺĪ",
          "ìĭľ"
        ],
        [
          "Ġëª¨ëį¸",
          "ìĿ´"
        ],
        [
          "Ġf",
          "rom"
        ],
        [
          "Ġìĥģí",
          "ĥľ"
        ],
        [
          "Ġì´Ī",
          "ìķĪ"
        ],
        [
          "¬",
          "ìļ´"
        ],
        [
          "Ġë§Ĳ",
          "íķľ"
        ],
        [
          "Ġëĭµ",
          "ìĿĢ"
        ],
        [
          "ĠìĿ´",
          "ë¦Ħ"
        ],
        [
          "ë³¼",
          "ê¹Į"
        ],
        [
          "Ġì¹ľê·¼",
          "íķľ"
        ],
        [
          "ĠëĶ±ëĶ±",
          "íķĺì§Ģ"
        ],
        [
          "ĠC",
          "hatGPT"
        ],
        [
          "¶",
          "ĢíĦ°"
        ],
        [
          "¼",
          "Ģ"
        ],
        [
          "ì",
          "¼Ģ"
        ],
        [
          "Ġ",
          "íķ´ëıĦ"
        ],
        [
          "Ġì",
          "Ī"
        ],
        [
          "Īë",
          "¶ĢíĦ°"
        ],
        [
          "Ġëĭµ",
          "íķ´ë³¼ê²Į"
        ],
        [
          "°ì",
          "Ĥ°"
        ],
        [
          "ĠëŃĲ",
          "ë¶ĢíĦ°"
        ],
        [
          "Ġê³",
          "¨ëĿ¼"
        ],
        [
          "Ġì¤ĳ",
          "ìĿ´ìķ¼"
        ],
        [
          "ĶĶ",
          "ìĺ¤"
        ],
        [
          "ĠëĦĪ",
          "ëĬĶ"
        ],
        [
          "Ġìĺ¤ë",
          "ĶĶìĺ¤"
        ],
        [
          "Ġh",
          "ere"
        ],
        [
          "Ġëª¨ëį¸",
          "ìĿĢ"
        ],
        [
          "Ġëĭ¤ë¥¸",
          "ê±°"
        ],
        [
          "Ġë°ĺëł¤ëıĻë¬¼",
          "ìĿ´ìķ¼"
        ],
        [
          "ĠìĿ´íķ´",
          "íķł"
        ],
        [
          "ĠìĿ´ë¯¸",
          "ì§Ģ"
        ],
        [
          "Ġhel",
          "p"
        ],
        [
          "Ġëĵ¤ë",
          "©´"
        ],
        [
          "Ġë¹¼",
          "ê³ł"
        ],
        [
          "Ġì¤ĳìļĶ",
          "íķľ"
        ],
        [
          "Ġì§ģ",
          "ìł"
        ],
        [
          "ì¼Ģ",
          "ìĿ´"
        ],
        [
          "s",
          "w"
        ],
        [
          "¼",
          "ìĿĮ"
        ],
        [
          "ë",
          "Ħ¤"
        ],
        [
          "Ĥ",
          "¤"
        ],
        [
          "İ",
          "ĺ"
        ],
        [
          "Ġë",
          "ĵ¤"
        ],
        [
          "Ġan",
          "sw"
        ],
        [
          "Ġê·¸",
          "ê±"
        ],
        [
          "Ġë¶Ħ",
          "ë¥ĺ"
        ],
        [
          "Ġìľ",
          "¼ìĿĮ"
        ],
        [
          "Ġf",
          "i"
        ],
        [
          "ĠC",
          "an"
        ],
        [
          "..",
          "."
        ],
        [
          "ĠìĹ¬",
          "ëŁ¬"
        ],
        [
          "ì²ľ",
          "íŀĪ"
        ],
        [
          "İĺ",
          "ìĿ´ì§Ģ"
        ],
        [
          "Ġëĵ¤",
          "ìĸ´ê°Ģ"
        ],
        [
          "Ġansw",
          "er"
        ],
        [
          "A",
          "I"
        ],
        [
          "ë",
          "¹"
        ],
        [
          "Ġ",
          "gpt"
        ],
        [
          "Ī",
          "Ħ"
        ],
        [
          "Ĳ",
          "ìĦľ"
        ],
        [
          "Ġì",
          "£¼ë©´"
        ],
        [
          "Ġë",
          "´Ĳ"
        ],
        [
          "Ġë§",
          "ĽìĿ´"
        ],
        [
          "Ġí",
          "ĺĦ"
        ],
        [
          "Ġê°",
          "Ī"
        ],
        [
          "el",
          "l"
        ],
        [
          "ĠìŀĲ",
          "ìĦ¸"
        ],
        [
          "Ġëı",
          "Į"
        ],
        [
          "Ġíķµìĭ¬",
          "ìĿĦ"
        ],
        [
          "ë¬",
          "´ìĹ"
        ],
        [
          "Ġì£¼",
          "ì"
        ],
        [
          "Ġìłľ",
          "ìĿ¼"
        ],
        [
          "ĠìĿ¸ê³µì§ĢëĬ¥",
          "ìĿ´"
        ],
        [
          "ë¶Ģ",
          "ë¥¼"
        ],
        [
          "Ġì§ĢëĤ´",
          "ëĬĶ"
        ],
        [
          "ĠëĶ",
          "°"
        ],
        [
          "ĠW",
          "hat"
        ],
        [
          "ĠìŀĲìĦ¸",
          "íŀĪ"
        ],
        [
          "ë¬´ìĹ",
          "ĲìĦľ"
        ],
        [
          "O",
          "p"
        ],
        [
          "¤",
          "ë¥´ëĬĶ"
        ],
        [
          "Ġ",
          "Op"
        ],
        [
          "Ī",
          "ł"
        ],
        [
          "Ĵ",
          "¤"
        ],
        [
          "ĺ",
          "¤ë¥´ëĬĶ"
        ],
        [
          "ŀ",
          "ĺ"
        ],
        [
          "Ġë",
          "ĪĦ"
        ],
        [
          "Ġë§Ĳ",
          "íķĺì§Ģ"
        ],
        [
          "Ġí",
          "ŀĺ"
        ],
        [
          "ro",
          "b"
        ],
        [
          "en",
          "AI"
        ],
        [
          "íķ´",
          "ë³´ìŀĲ"
        ],
        [
          "ê¸°",
          "ìĹĲ"
        ],
        [
          "Ġê±°",
          "ê¸°ìĹĲ"
        ],
        [
          "łì",
          "ĺ¤ë¥´ëĬĶ"
        ],
        [
          "Ġë²",
          "Ī"
        ],
        [
          "ĠìķĮëł¤",
          "ì¤Ħê²Į"
        ],
        [
          "ĠëıĦìĻĢì¤Ħ",
          "ê²Į"
        ],
        [
          "êµ¬",
          "ìķ¼"
        ],
        [
          "Ġê¸°",
          "ê¸°"
        ],
        [
          "Ġìĸĺê¸°",
          "íķ´ëıĦ"
        ],
        [
          "íĸĪ",
          "ëĬĶì§Ģ"
        ],
        [
          "ĠìĿĺëıĦ",
          "ìĹĲ"
        ],
        [
          "Ġë°Ķê¿Ķ",
          "ìĦľ"
        ],
        [
          "ĠìĥĪ",
          "ì½¤"
        ],
        [
          "Ġëĸ",
          "łìĺ¤ë¥´ëĬĶ"
        ],
        [
          "Ġíķľë§ĪëĶĶ",
          "ë§Į"
        ],
        [
          "ĠOp",
          "enAI"
        ],
        [
          "ĠëĪĦ",
          "êµ¬ìķ¼"
        ],
        [
          "'",
          "l"
        ],
        [
          "d",
          "e"
        ],
        [
          "ë",
          "Ĳĺ"
        ],
        [
          "Ġ",
          "co"
        ],
        [
          "Ġì",
          "¤ĺ"
        ],
        [
          "ê¸",
          "Īë¶ĢíĦ°"
        ],
        [
          "ìŀ",
          "¬"
        ],
        [
          "Ġì§Ģ",
          "ê¸Īë¶ĢíĦ°"
        ],
        [
          "Ġìĸ´",
          "ëĬĲ"
        ],
        [
          "ĠíĮĮìĿ¼",
          "ìĿĦ"
        ],
        [
          "ĠëŃĲíķł",
          "ê¹Į"
        ],
        [
          "Ġê¸°",
          "ë¶Ħ"
        ],
        [
          "Ġë§Į",
          "ëĵľ"
        ],
        [
          "lo",
          "x"
        ],
        [
          "ĠìĿ´ìķ¼ê¸°",
          "íķĺìŀĲ"
        ],
        [
          "Ġìĸ´ìĥīíĸĪ",
          "ìĸ´"
        ],
        [
          "Ġë©Ķìĭľ",
          "ì§Ģ"
        ],
        [
          "ĠìĭĿ",
          "ìĤ¬"
        ],
        [
          "Ġë¶ĢëĵľëŁ",
          "½ê²Į"
        ],
        [
          "Ġì§ģìł",
          "ĳ"
        ],
        [
          "ĠíĺĦ",
          "ìŀ¬"
        ],
        [
          "'l",
          "l"
        ],
        [
          "Ġco",
          "de"
        ],
        [
          "Ġë§Įëĵľ",
          "ëĬĶ"
        ],
        [
          "²",
          "ĺëŁ¼"
        ],
        [
          "¹",
          "Ļ"
        ],
        [
          "¼",
          "ìļ´"
        ],
        [
          "ë",
          "©"
        ],
        [
          "ì",
          "¤Ħ"
        ],
        [
          "Ġ",
          "?"
        ],
        [
          "ĸ",
          "µ"
        ],
        [
          "Ġì",
          "Ĥ"
        ],
        [
          "´ì",
          "¡°"
        ],
        [
          "ê¸",
          "°ì"
        ],
        [
          "ê¸",
          "°ìĦľ"
        ],
        [
          "íķ´ì",
          "§Ħ"
        ],
        [
          "Ġëį",
          "ľ"
        ],
        [
          "Ġìłķ",
          "íķ´ì§Ħ"
        ],
        [
          "Ġë³",
          "´ì¡°"
        ],
        [
          "ĠìŀĲ",
          "ê¸°ì"
        ],
        [
          "ì¶",
          "ľ"
        ],
        [
          "Ġê°Ģ",
          "ë²"
        ],
        [
          "ëĭ",
          "¨"
        ],
        [
          "Ġìĺ¤",
          "ì¼ĢìĿ´"
        ],
        [
          "Ġìī",
          "¬ìļ´"
        ],
        [
          "ľì",
          "¹Ļ"
        ],
        [
          "ĠìķĦëĭĪ",
          "ì§Ģ"
        ],
        [
          "ĠëĶ±ëĶ±",
          "íķĺê²Į"
        ],
        [
          "Ġì¶Ķ",
          "ì¶ľ"
        ],
        [
          "Ġíķ´",
          "ê²°"
        ],
        [
          "Ġê¸°ì",
          "ĸµ"
        ],
        [
          "Ġëĭ¬",
          "ëĿ¼ê³ł"
        ],
        [
          "ĠìĤ¬ìĿ´íĬ¸",
          "ëĬĶ"
        ],
        [
          "Ġê·",
          "ľì¹Ļ"
        ],
        [
          "ľê·¸",
          "ëŀĺ"
        ],
        [
          "ĠìŀĲê¸°ì",
          "ĨĮê°ľ"
        ],
        [
          "Ġê°Ģë²",
          "¼ìļ´"
        ],
        [
          "i",
          "g"
        ],
        [
          "§",
          "ģ"
        ],
        [
          "¨",
          "ìĿ´ìķ¼"
        ],
        [
          "¬",
          "ìĭ¬"
        ],
        [
          "±",
          "Ļ"
        ],
        [
          "µ",
          "íŀĪ"
        ],
        [
          "»",
          "´í"
        ],
        [
          "ë",
          "ª¨"
        ],
        [
          "ì",
          "ª½"
        ],
        [
          "í",
          "Ĥ¤"
        ],
        [
          "ħ",
          "į"
        ],
        [
          "Į",
          "ëĬĶ"
        ],
        [
          "ĵ",
          "¨í"
        ],
        [
          "Ļ",
          "©"
        ],
        [
          "Ľ",
          "Į"
        ],
        [
          "ł",
          "¸"
        ],
        [
          "Ġì",
          "±Ļ"
        ],
        [
          "Ġì",
          "»´í"
        ],
        [
          "ê²",
          "¼"
        ],
        [
          "ĠìĿ",
          "µíŀĪ"
        ],
        [
          "Ġí",
          "ħį"
        ],
        [
          "ìĹ",
          "ħ"
        ],
        [
          "ĠìĪĺ",
          "ëıĦ"
        ],
        [
          "Ġìĺ",
          "¨"
        ],
        [
          "ĠëŃ",
          "ĺ"
        ],
        [
          "Ġê·¸",
          "ìª½"
        ],
        [
          "ĠY",
          "es"
        ],
        [
          "Ġìłķë¦¬",
          "íķ´ëıĦ"
        ],
        [
          "ëŀ",
          "¨ìĿ´ìķ¼"
        ],
        [
          "Ġíİ¸",
          "íķľ"
        ],
        [
          "ìłķ",
          "ìĿ´ìķ¼"
        ],
        [
          "Ġìĭ",
          "¬ìĭ¬"
        ],
        [
          "Ġì¤Ħ",
          "ìĹ¬"
        ],
        [
          "ĠìĿĳ",
          "ëĭµ"
        ],
        [
          "ĠìłĦ",
          "ë¥ĺ"
        ],
        [
          "Ġê³¼",
          "ìłķìĿ´ìķ¼"
        ],
        [
          "Ġìĸ¸",
          "ìĸ´ìķ¼"
        ],
        [
          "ĠíĿĲ",
          "ë¥´ê²Į"
        ],
        [
          "Ġëį°ìĿ´íĦ°",
          "ëĬĶ"
        ],
        [
          "ìľĦ",
          "ìķ¼"
        ],
        [
          "ëŀĺ",
          "ë°"
        ],
        [
          "Ġê¸°",
          "ë³¸"
        ],
        [
          "ë§Ĳ",
          "ë¡ľ"
        ],
        [
          "Ġë°°ì",
          "ĽĮ"
        ],
        [
          "Ġìŀĳ",
          "ìĹħ"
        ],
        [
          "ĠíķĻìĬµ",
          "ìĿĢ"
        ],
        [
          "Ġëĭ¨",
          "ìľĦìķ¼"
        ],
        [
          "ĠìĿ´ìĥģ",
          "íķĺê²Į"
        ],
        [
          "ë°",
          "ĮëĬĶ"
        ],
        [
          "ĠìĻ",
          "ľê·¸ëŀĺ"
        ],
        [
          "Ġìĥģí",
          "Ļ©"
        ],
        [
          "Ġìĭľ",
          "íĤ¤"
        ],
        [
          "Ġê¸Ģ",
          "ìĿĦ"
        ],
        [
          "Ġìŀ¬",
          "ë°ĮëĬĶ"
        ],
        [
          "Ġë¬¸ë²ķ",
          "ìĿ´"
        ],
        [
          "ĠëĬĲëĤĮ",
          "ìĿĦ"
        ],
        [
          "ĠíĶĦë¡ľê·¸",
          "ëŀ¨ìĿ´ìķ¼"
        ],
        [
          "ĠíĶĦë¡ľê·¸",
          "ëŀĺë°"
        ],
        [
          "ìĬ¤í",
          "Ĭ¸"
        ],
        [
          "ĠìĿ´ìł",
          "Ħ"
        ],
        [
          "Ġìĵ°",
          "ëĬĶ"
        ],
        [
          "Ġì°¨ë¶Ħ",
          "íķĺê²Į"
        ],
        [
          "ĠìĺĪìĭľ",
          "ë¥¼"
        ],
        [
          "Ġê¸°ê¸°",
          "ìĹĲìĦľ"
        ],
        [
          "§ģ",
          "ìĿ´ìķ¼"
        ],
        [
          "ĵ¨í",
          "Ħ°"
        ],
        [
          "Ġì±Ļ",
          "ê²¼"
        ],
        [
          "Ġì»´í",
          "ĵ¨íĦ°"
        ],
        [
          "Ġíħį",
          "ìĬ¤íĬ¸"
        ],
        [
          "ĠìĭľíĤ¤",
          "ëĬĶ"
        ],
        [
          "ĠíĶĦë¡ľê·¸ëŀĺë°",
          "į"
        ],
        [
          "H",
          "el"
        ],
        [
          "T",
          "ell"
        ],
        [
          "¶",
          "ìĿĮ"
        ],
        [
          "ì",
          "¤Ģëĭ¤"
        ],
        [
          "Ġ",
          "Tell"
        ],
        [
          "ľ",
          "ì²ľíŀĪ"
        ],
        [
          "´ì",
          "Ħľ"
        ],
        [
          "Ġê·¸",
          "ê²Į"
        ],
        [
          "ìļ",
          "°"
        ],
        [
          "ê¸°",
          "ë³´ëĭ¤"
        ],
        [
          "Ġìłķë¦¬",
          "íķ´ìĦľ"
        ],
        [
          "Ġë¶Ħ",
          "ìľĦ"
        ],
        [
          "Ġë¬",
          "¶ìĿĮ"
        ],
        [
          "ìĽ",
          "Ģ"
        ],
        [
          "Ġì²",
          "ľì²ľíŀĪ"
        ],
        [
          "Ġë¬¸ìŀ¥",
          "ìĿĦ"
        ],
        [
          "Ġíķ´",
          "ë³¼ê¹Į"
        ],
        [
          "Ġhel",
          "lo"
        ],
        [
          "ĠìĿ¸ê³µì§ĢëĬ¥",
          "ìĿĢ"
        ],
        [
          "ĠìłķíĻķ",
          "íķĺê²Į"
        ],
        [
          "Ġë°°ìļ°",
          "ê³ł"
        ],
        [
          "ë©",
          "´ìĦľ"
        ],
        [
          "Hel",
          "lo"
        ],
        [
          "Ġë¬¶ìĿĮ",
          "ìĿ´ìķ¼"
        ],
        [
          "¸",
          "Ķ"
        ],
        [
          "ë",
          "ĵ"
        ],
        [
          "ë",
          "¸Ķ"
        ],
        [
          "Ġ",
          "or"
        ],
        [
          "Ħ",
          "ì"
        ],
        [
          "ĸ",
          "ĳ"
        ],
        [
          "Ġë§",
          "ī"
        ],
        [
          "ê°",
          "Ĳ"
        ],
        [
          "ëĤĺ",
          "ëĬĶ"
        ],
        [
          "Ġíķĺ",
          "ìĿ´"
        ],
        [
          "ĸ´ì",
          "£¼ëĬĶ"
        ],
        [
          "ë¡Ŀ",
          "ìĬ¤"
        ],
        [
          "Ġìŀ¬",
          "ë£Į"
        ],
        [
          "ĠíĳľíĺĦ",
          "ìľ¼ë¡ľ"
        ],
        [
          "ww",
          "w"
        ],
        [
          "ĠìĥĪì½¤",
          "íķľ"
        ],
        [
          "ë¸Ķ",
          "ë¡ĿìĬ¤"
        ],
        [
          "Ĥ",
          "ĺ"
        ],
        [
          "ħ",
          "ľ"
        ],
        [
          "ľ",
          "ë¸Ķë¡ĿìĬ¤"
        ],
        [
          "Ġì",
          "µ"
        ],
        [
          "íķĺ",
          "ê¸°ë³´ëĭ¤"
        ],
        [
          "Ġë§Ĳ",
          "ìĹĲëĬĶ"
        ],
        [
          "ìŀ",
          "Īìĸ´"
        ],
        [
          "Ġìłķë¦¬",
          "íķĺëĬĶ"
        ],
        [
          "Ġìłķë¦¬",
          "íķ´ë³¼ê²Į"
        ],
        [
          "Ĭ¤ë",
          "Ĥĺ"
        ],
        [
          "ê²ł",
          "ëĭ¤ê³ł"
        ],
        [
          "Ġê±°",
          "ê¸°ìĦľ"
        ],
        [
          "Ġì¤",
          "Ģ"
        ],
        [
          "ĠëĤĺ",
          "ëıĦ"
        ],
        [
          "ìĽ",
          "Ĳ"
        ],
        [
          "Ġë§ģíģ¬",
          "ëıĦ"
        ],
        [
          "ĠëŃĲíķł",
          "ìĪĺ"
        ],
        [
          "Ġê¸°",
          "ê³Ħ"
        ],
        [
          "Ġìķŀ",
          "ìĹĲìĦľ"
        ],
        [
          "Ġê¸°ì",
          "¤Ģ"
        ],
        [
          "Ġë°ĺë³µ",
          "íķĺê¸°ë³´ëĭ¤"
        ],
        [
          "Ġê¸Ģ",
          "ìŀĲ"
        ],
        [
          "ĠëĶĶìłĢíĬ¸",
          "ë¡ľëıĦ"
        ],
        [
          "Ġë©Ķìĭľ",
          "ì§Ģë¥¼"
        ],
        [
          "ĠíĻķìĿ¸",
          "íķ´ìĦľ"
        ],
        [
          "Ġê²ĥ",
          "ë¶ĢíĦ°"
        ],
        [
          "Ġë¡",
          "ľë¸Ķë¡ĿìĬ¤"
        ],
        [
          "Ġê·¸ëŁ",
          "´"
        ],
        [
          "Ġì£¼ì",
          "Ĭ¤ëĤĺ"
        ],
        [
          "ĠëĶ°",
          "ëĿ¼"
        ],
        [
          "Ġê±°ê¸°ìĦľ",
          "ë¶ĢíĦ°"
        ],
        [
          "ĠëŃĲíķłìĪĺ",
          "ìŀĪìĸ´"
        ],
        [
          "u",
          "g"
        ],
        [
          "¥",
          "ê¸Ģ"
        ],
        [
          "ĳ",
          "¥ê¸Ģ"
        ],
        [
          "Ķ",
          "íŀĪ"
        ],
        [
          "Ġë",
          "ª"
        ],
        [
          "Ġë",
          "ĳ¥ê¸Ģ"
        ],
        [
          "ëĬĶ",
          "ëĭ¤"
        ],
        [
          "ìĿ´",
          "ê¸°"
        ],
        [
          "Ġë°",
          "¥"
        ],
        [
          "Ġí",
          "ĻĶ"
        ],
        [
          "ìĹ",
          "Īìĸ´"
        ],
        [
          "Ġìł",
          "Ĳ"
        ],
        [
          "ĠìŀĪ",
          "ê²Į"
        ],
        [
          "ĠìĪĺ",
          "ëĭ¤"
        ],
        [
          "ëĤĺ",
          "ìĦľ"
        ],
        [
          "ĠìĿ´ì",
          "ĸ´ì"
        ],
        [
          "Ġê³",
          "µ"
        ],
        [
          "ĠìĽĲ",
          "ë¦¬"
        ],
        [
          "Ġì¤ĳ",
          "ìĭ¬"
        ],
        [
          "Ġê±¸",
          "ìĸ´ì£¼ë©´"
        ],
        [
          "ĠíĿ",
          "ĶíŀĪ"
        ],
        [
          "ĠíĮĮìĿ´ìį¬",
          "ìĿĢ"
        ],
        [
          "ĠìĥĿ",
          "ìľ¼ë¡ľ"
        ],
        [
          "ĠìĿĺ",
          "ë¯¸"
        ],
        [
          "ĠíĿĲë¦Ħ",
          "ìĿĦ"
        ],
        [
          "Ġë§Į",
          "ëĤĺìĦľ"
        ],
        [
          "ĠìĤ¬ëŀĮ",
          "ì²ĺëŁ¼"
        ],
        [
          "Ġì¶Ķ",
          "ìłģ"
        ],
        [
          "ĠíķĦìļĶ",
          "íķľ"
        ],
        [
          "ĠìķĬ",
          "ê³ł"
        ],
        [
          "Ġë¬¸ìłľ",
          "ë¥¼"
        ],
        [
          "Ġë°ĺëł¤ëıĻë¬¼",
          "ìĿ´ê¸°"
        ],
        [
          "Ġë°Ķê¿Ķ",
          "ì¤ĺ"
        ],
        [
          "Ġìĭľ",
          "ìĬ¤í"
        ],
        [
          "Ġì°¾",
          "ê¸°"
        ],
        [
          "ĠíĴĢì",
          "ĸ´ìĦľ"
        ],
        [
          "ëĮ",
          "Ģë¡ľ"
        ],
        [
          "ĠìķĦê¹Į",
          "ì²ĺëŁ¼"
        ],
        [
          "ĠìĿ´ë¦Ħ",
          "ìĿ´ìķ¼"
        ],
        [
          "Ġê·¸ê±",
          "´"
        ],
        [
          "ĠëıĮ",
          "ëł¤"
        ],
        [
          "Ġëĳ¥ê¸Ģ",
          "ê³ł"
        ],
        [
          "Ġë°ĺëł¤ëıĻë¬¼ìĿ´ê¸°",
          "ëıĦ"
        ],
        [
          "ĠìĭľìĬ¤í",
          "ħľ"
        ],
        [
          "a",
          "k"
        ],
        [
          "h",
          "t"
        ],
        [
          "i",
          "f"
        ],
        [
          "r",
          "st"
        ],
        [
          "¨",
          "ê·¼"
        ],
        [
          "°",
          "¨ê·¼"
        ],
        [
          "¸",
          "ë¡ľ"
        ],
        [
          "ì",
          "°¨ê·¼"
        ],
        [
          "Ġ",
          "Hello"
        ],
        [
          "ĭ",
          "Ģ"
        ],
        [
          "Ĳ",
          "ìłģ"
        ],
        [
          "´ì",
          "§Ģ"
        ],
        [
          "Ġí",
          "Ľ"
        ],
        [
          "Ġí",
          "ĭĢ"
        ],
        [
          "Ġs",
          "pe"
        ],
        [
          "ìĭ",
          "ł"
        ],
        [
          "Ġre",
          "ply"
        ],
        [
          "Ġê°Ģ",
          "ìŀ¥"
        ],
        [
          "Ġë§ŀì¶",
          "°ì"
        ],
        [
          "Ġìĸ¸ìĸ´",
          "ë¡ľ"
        ],
        [
          "ĠìłķìĿĺ",
          "ë¥¼"
        ],
        [
          "Ġë²ĶìľĦ",
          "ë¥¼"
        ],
        [
          "íĺķ",
          "ìľ¼ë¡ľ"
        ],
        [
          "Ġìŀĳ",
          "ìĿĢ"
        ],
        [
          "Ġì°¨",
          "ê·¼"
        ],
        [
          "Ġëĭ¨",
          "ìĸ´"
        ],
        [
          "Ġëĭ¬",
          "ê±°ëĤĺ"
        ],
        [
          "êµ",
          "Ĳìłģ"
        ],
        [
          "Ġë°Ľ",
          "ìķĦ"
        ],
        [
          "Ġë¬¸êµ¬",
          "ë¥¼"
        ],
        [
          "Ġë¹Ħ",
          "êµĲìłģ"
        ],
        [
          "Ġfi",
          "rst"
        ],
        [
          "ig",
          "ht"
        ],
        [
          "Ġspe",
          "ak"
        ],
        [
          "Ġì°¨ê·¼",
          "ì°¨ê·¼"
        ],
        [
          "o",
          "re"
        ],
        [
          "¦",
          "ĺ"
        ],
        [
          "¶",
          "Ģ"
        ],
        [
          "ë",
          "¬¸"
        ],
        [
          "ì",
          "¦ĺ"
        ],
        [
          "Ġ",
          "íķľëĭ¤"
        ],
        [
          "ħ",
          "ëł¥"
        ],
        [
          "Ĩ",
          "į"
        ],
        [
          "Ī",
          "ì¶"
        ],
        [
          "Ĺ",
          "·"
        ],
        [
          "ł",
          "ìĿĢ"
        ],
        [
          "Ġì",
          "¡"
        ],
        [
          "Ġì",
          "Ĥ°"
        ],
        [
          "Ġìŀ",
          "ħëł¥"
        ],
        [
          "ìĸ´",
          "ë¥¼"
        ],
        [
          "Ġí",
          "Ĺ·"
        ],
        [
          "íķľ",
          "ëį°"
        ],
        [
          "Ġm",
          "ore"
        ],
        [
          "íķ´ì",
          "ł¸"
        ],
        [
          "ì§Ģ",
          "íķĺê³ł"
        ],
        [
          "ĠëĤ",
          "łìĿĢ"
        ],
        [
          "Ġìłķë¦¬",
          "íķł"
        ],
        [
          "Ġìłķë¦¬",
          "íķłê²Į"
        ],
        [
          "ìĿ¸",
          "ì§Ģ"
        ],
        [
          "Ġíİ¸",
          "íķĺê³ł"
        ],
        [
          "ëł¤",
          "ê³ł"
        ],
        [
          "ĠìļĶ",
          "ì¦ĺ"
        ],
        [
          "Ġì§§ê²Į",
          "ë§Į"
        ],
        [
          "Ġì¤Ħ",
          "ê²Į"
        ],
        [
          "ĠìĿ¼",
          "ë¶Ģë¥¼"
        ],
        [
          "ĠíķĺëĤĺ",
          "ë¥¼"
        ],
        [
          "Ġìª½",
          "ìĹĲìĦľ"
        ],
        [
          "ë¯",
          "¼"
        ],
        [
          "ĠìķĪë",
          "¶Ģ"
        ],
        [
          "Ġì½ĶëĶ©",
          "ìĿĢ"
        ],
        [
          "ĠíĿĲë¦Ħ",
          "ìĿĢ"
        ],
        [
          "Ġìłľ",
          "ëĮĢë¡ľ"
        ],
        [
          "Ġê²Ģìĥī",
          "ìĸ´ë¥¼"
        ],
        [
          "ĠìĺĪ",
          "ë¥¼"
        ],
        [
          "Ġê³ł",
          "ë¯¼"
        ],
        [
          "Ġìľł",
          "ì§Ģíķĺê³ł"
        ],
        [
          "Ġë©",
          "Īì¶"
        ],
        [
          "Ġë¬¸ìłľ",
          "ìłĲ"
        ],
        [
          "Ġë¶Ģë¶Ħ",
          "ìĿĦ"
        ],
        [
          "Ġì°¾",
          "ìķĦ"
        ],
        [
          "ĠìłľìķĪ",
          "íķľëĭ¤"
        ],
        [
          "ĠìĿ´ë¯¸",
          "ì§Ģë¥¼"
        ],
        [
          "Ġë¬¸ë§¥",
          "ìĿĢ"
        ],
        [
          "ĠìłķíĻķ",
          "íķ´ìł¸"
        ],
        [
          "ĠíĴĢ",
          "ìĸ´ëıĦ"
        ],
        [
          "ĠíĳľíĺĦ",
          "ë§Į"
        ],
        [
          "ĠëĮĢ",
          "íķ´"
        ],
        [
          "Ġìłģ",
          "ìĸ´ì£¼ë©´"
        ],
        [
          "ĠìłĦìķķ",
          "ìĿĢ"
        ],
        [
          "ĠíĨłíģ°",
          "ìĿĢ"
        ],
        [
          "ĠíĴĢì",
          "ĸ´ì"
        ],
        [
          "ĠìķĦì",
          "§ģìĿ´ìķ¼"
        ],
        [
          "Ġê³¨ëĿ¼",
          "ë³´ìŀĲ"
        ],
        [
          "Ġìĺ¤ëĶĶìĺ¤",
          "ê°Ģ"
        ],
        [
          "Ġëĵ¤ìĸ´ê°Ģ",
          "ëıĦ"
        ],
        [
          "Ġê°Ī",
          "ê²Į"
        ],
        [
          "Ġìĭ¬ìĭ¬",
          "íķ´"
        ],
        [
          "ĠìĿĳëĭµ",
          "ìĿ´"
        ],
        [
          "ĠìĥģíĻ©",
          "ìĹĲ"
        ],
        [
          "ëĵ",
          "ł"
        ],
        [
          "ĠìĿĺë¯¸",
          "ëĬĶ"
        ],
        [
          "ĠìĭľìĬ¤íħľ",
          "ìĿĦ"
        ],
        [
          "ĠìķĪë¶Ģ",
          "ìĹĲëĬĶ"
        ],
        [
          "ì",
          "½Ķë"
        ],
        [
          "í",
          "İĺìĿ´ì§Ģ"
        ],
        [
          "Ģ",
          "ìĹ"
        ],
        [
          "ľ",
          "ìĦľ"
        ],
        [
          "ìķ",
          "Īë"
        ],
        [
          "Ġë§Ĳ",
          "ìĿ´ëĤĺ"
        ],
        [
          "ì§Ģ",
          "ê¸Ī"
        ],
        [
          "ĠìĤ¬",
          "ëĬĶ"
        ],
        [
          "Ġìłķë¦¬",
          "íķ´ì¤ĺ"
        ],
        [
          "Ġê°Ģ",
          "ì§Ģ"
        ],
        [
          "Ķë",
          "ī"
        ],
        [
          "Ġìª½",
          "ìĹĲ"
        ],
        [
          "Ġë§ĲíĪ¬",
          "ê°Ģ"
        ],
        [
          "ĠëĬĲ",
          "ëł¤"
        ],
        [
          "Ġë©",
          "Ķëī"
        ],
        [
          "Ġë¶Ģë¶Ħ",
          "ìĿ´"
        ],
        [
          "Ġë¶Ģë¶Ħ",
          "ë¶ĢíĦ°"
        ],
        [
          "ĠìĻ",
          "¸ë¡ľ"
        ],
        [
          "Ġìĺ¤ëŀľë§Į",
          "ìĿ´ìķ¼"
        ],
        [
          "Ġê·",
          "ĢìĹ"
        ],
        [
          "Ġë¶Ħëªħ",
          "íķĺê²Į"
        ],
        [
          "ĠìĪ",
          "ľìĦľ"
        ],
        [
          "ê°Ĳ",
          "ìĿ´"
        ],
        [
          "Ġê·ĢìĹ",
          "½ê²Į"
        ],
        [
          "ĩ",
          "½"
        ],
        [
          "ĺ",
          "¸"
        ],
        [
          "ľ",
          "ë¶ĢíĦ°"
        ],
        [
          "Ń",
          "ìĸ´"
        ],
        [
          "Ġë§Ĳ",
          "ìĹĲ"
        ],
        [
          "ĠìŀĪ",
          "ìĸ´ìĦľ"
        ],
        [
          "ëĭ¤",
          "ëĬĶ"
        ],
        [
          "Īë",
          "Ŀ¼"
        ],
        [
          "ĠìĦ¤ëªħ",
          "ìĿĦ"
        ],
        [
          "Ġíķľ",
          "êµ"
        ],
        [
          "Ġë³´",
          "ë©´"
        ],
        [
          "ëĭ",
          "ĪëĿ¼"
        ],
        [
          "ĠìķĦ",
          "ëĭĪëĿ¼"
        ],
        [
          "ĠëĤĺ",
          "ë¬´ìĹĲìĦľ"
        ],
        [
          "Ġë§ģíģ¬",
          "ë¥¼"
        ],
        [
          "ë¥´",
          "ë©´"
        ],
        [
          "ìĸ´ì",
          "¤ĺ"
        ],
        [
          "íĸĪ",
          "ìĸ´"
        ],
        [
          "ĠìĿ¸",
          "ìłķ"
        ],
        [
          "ĠëĤłìĶ¨",
          "ë¥¼"
        ],
        [
          "Ġë¨¹",
          "ìĹĪìĸ´"
        ],
        [
          "Ġì£¼ìłľ",
          "ë¡ľ"
        ],
        [
          "Ġêº¼",
          "ëĤ´ì"
        ],
        [
          "ĠìĿ´ìĸ´ê°Ģ",
          "ëıĦ"
        ],
        [
          "ĠìĿ´ìł",
          "ľë¶ĢíĦ°"
        ],
        [
          "Ġë¶Ħëªħ",
          "íŀĪ"
        ],
        [
          "ë¹",
          "Ħ"
        ],
        [
          "rob",
          "lox"
        ],
        [
          "Ġì§ģìłĳ",
          "ìłģìľ¼ë¡ľ"
        ],
        [
          "ĠìŀĳìĹħ",
          "ìĿĦ"
        ],
        [
          "ìĽĢ",
          "ìĿĦ"
        ],
        [
          "Ġìŀ¬ë£Į",
          "ë¡ľëıĦ"
        ],
        [
          "Ġëª",
          "©"
        ],
        [
          "ì§Ģê¸Ī",
          "ìĿĢ"
        ],
        [
          "ĠìĪľìĦľ",
          "ë¡ľ"
        ],
        [
          "Ġíķľêµ",
          "Ńìĸ´"
        ],
        [
          "´",
          "ë¦¬"
        ],
        [
          "½",
          "ëĭ¤"
        ],
        [
          "Â",
          "·"
        ],
        [
          "Ģ",
          "ë³¼ê²Į"
        ],
        [
          "Į",
          "Ģë¡ľ"
        ],
        [
          "ĺ",
          "ëĭ¤"
        ],
        [
          "ĺ",
          "Ģë³¼ê²Į"
        ],
        [
          "Ľ",
          "ê³¼"
        ],
        [
          "Ġë",
          "Ĵ¤"
        ],
        [
          "íķ",
          "ĦìļĶ"
        ],
        [
          "Ġë§Ĳ",
          "íķł"
        ],
        [
          "Ġë§Ĳ",
          "ìķĦì¤ĺ"
        ],
        [
          "ê°",
          "ģìĿ´"
        ],
        [
          "ëĭ¤",
          "ë©´"
        ],
        [
          "Ġì¢",
          "ģí"
        ],
        [
          "ê³¼",
          "ëĬĶ"
        ],
        [
          "Ġë³´",
          "ê¸°"
        ],
        [
          "ĠëĮĢíĻĶ",
          "ë¥¼"
        ],
        [
          "Ġê¸",
          "¸"
        ],
        [
          "Ġëı",
          "Įë¦¬"
        ],
        [
          "ĠìĿ¼",
          "ë³¸"
        ],
        [
          "ĠíķĺëĤĺ",
          "ìķ¼"
        ],
        [
          "ĠëĤĺ",
          "ë"
        ],
        [
          "ĠëĤĺ",
          "ê³ł"
        ],
        [
          "Ġë¬",
          "´ìĹ"
        ],
        [
          "ĠíĮĮìĿ´ìį¬",
          "ëıĦ"
        ],
        [
          "Ġw",
          "it"
        ],
        [
          "Ġê·¸ë",
          "ĮĢë¡ľ"
        ],
        [
          "Ġêµ¬",
          "ë¶Ħ"
        ],
        [
          "ìĤ¬",
          "ê³¼ëĬĶ"
        ],
        [
          "ĠìĿ¸",
          "ìĤ¬"
        ],
        [
          "Ġë°Ķê",
          "¾"
        ],
        [
          "ĠëĬĲ",
          "ê»"
        ],
        [
          "Ġëĭ¨",
          "ë§"
        ],
        [
          "ĠìĿ´ìĥģ",
          "íķ´"
        ],
        [
          "ĠìĽĲìĿ¸",
          "ë¶ĢíĦ°"
        ],
        [
          "Ġëįĺìł¸",
          "ëıĦ"
        ],
        [
          "ĠìĻ",
          "ľ"
        ],
        [
          "êµ",
          "°ìĤ°"
        ],
        [
          "Ġë¶Ī",
          "íķĦìļĶ"
        ],
        [
          "Ġêµ",
          "°ìĤ°"
        ],
        [
          "Ġìłķë¦¬íķ´ì",
          "¤Ħê²Į"
        ],
        [
          "Ġìĺ¨",
          "ëıĦ"
        ],
        [
          "Ġì¤Ģ",
          "ë¹Ħ"
        ],
        [
          "Ġê¸°ì¤Ģ",
          "ìľ¼ë¡ľ"
        ],
        [
          "ĠíĻĶ",
          "ë©´"
        ],
        [
          "Ġê³µ",
          "ë¶Ģ"
        ],
        [
          "ìķĪë",
          "ħķ"
        ],
        [
          "´ë¦¬",
          "ëĬĶ"
        ],
        [
          "Ġì¢ģí",
          "ĺĢë³¼ê²Į"
        ],
        [
          "ĠëıĮë¦¬",
          "ì§Ģ"
        ],
        [
          "Ġë¬´ìĹ",
          "ĩ"
        ],
        [
          "Ġwit",
          "h"
        ],
        [
          "Ġì¤Ģë¹Ħ",
          "ë¥¼"
        ],
        [
          "c",
          "h"
        ],
        [
          "¤",
          "ĳ"
        ],
        [
          "¨",
          "ìĸ´ëıĦ"
        ],
        [
          "ì",
          "¤ĳ"
        ],
        [
          "Ġ",
          "on"
        ],
        [
          "Ġ",
          "if"
        ],
        [
          "Ħ",
          "ł"
        ],
        [
          "ı",
          "¬"
        ],
        [
          "ľ",
          "ł"
        ],
        [
          "ìĿ´",
          "ëĭ¤"
        ],
        [
          "Ġë§Ĳ",
          "ìĿ´"
        ],
        [
          "Ġí",
          "ĸ"
        ],
        [
          "Ġí",
          "ı¬"
        ],
        [
          "Ġìķ",
          "Ī"
        ],
        [
          "°ì",
          "Ħł"
        ],
        [
          "ĠìĿ´ì",
          "ľł"
        ],
        [
          "Ġìĺ",
          "®"
        ],
        [
          "ĠBee",
          "ê³ł"
        ],
        [
          "Ġì§Ģ",
          "ë£"
        ],
        [
          "ĠìĦ",
          "łí"
        ],
        [
          "Ġì¢ĭ",
          "ìĿĢ"
        ],
        [
          "Ġìļ",
          "°ìĦł"
        ],
        [
          "ĠìĹ",
          "°"
        ],
        [
          "ĠìĹ",
          "´ì"
        ],
        [
          "Ġì¤Ħ",
          "ìĿ´"
        ],
        [
          "ĠìļĶì²Ń",
          "ìĿĢ"
        ],
        [
          "ĠìķĪë",
          "ĩ½"
        ],
        [
          "Ġw",
          "or"
        ],
        [
          "Ġìľ",
          "Ħì"
        ],
        [
          "ĠìķĦëĭĪ",
          "ìķ¼"
        ],
        [
          "ĠíĿĲë¦Ħ",
          "ìľ¼ë¡ľ"
        ],
        [
          "Ġìļ°ë¦¬",
          "ê°Ģ"
        ],
        [
          "Ġë¨¹",
          "ëĬĶ"
        ],
        [
          "Ġto",
          "o"
        ],
        [
          "ëĵ¤",
          "ìĸ´"
        ],
        [
          "Ġëĸ",
          "¨ìĸ´ëıĦ"
        ],
        [
          "ĠíķĺëĬĶ",
          "ê±°"
        ],
        [
          "Ġë¡",
          "ľê·¸"
        ],
        [
          "Ġíŀĺ",
          "ëĵ¤ìĸ´"
        ],
        [
          "Ġìµ",
          "ľ"
        ],
        [
          "Ġì¤ĳìĭ¬",
          "ìľ¼ë¡ľ"
        ],
        [
          "Ġë¶ĪíķĦìļĶ",
          "íķľ"
        ],
        [
          "Ġì§Ģë£",
          "¨"
        ],
        [
          "Ġwor",
          "k"
        ],
        [
          "a",
          "y"
        ],
        [
          "r",
          "ight"
        ],
        [
          "w",
          "ay"
        ],
        [
          "§",
          "Į"
        ],
        [
          "§",
          "ë¶"
        ],
        [
          "³",
          "Ĳ"
        ],
        [
          "´",
          "ľì°®ìķĦ"
        ],
        [
          "ê",
          "´ľì°®ìķĦ"
        ],
        [
          "ì",
          "ĸĳ"
        ],
        [
          "í",
          "İ¸"
        ],
        [
          "Ġ",
          "`"
        ],
        [
          "Ġ",
          "right"
        ],
        [
          "ĺ",
          "¨"
        ],
        [
          "Ġì",
          "ĨĮê°ľ"
        ],
        [
          "íķĺ",
          "ëĭ¤ê³ł"
        ],
        [
          "íķĺ",
          "ê²łëĭ¤ê³ł"
        ],
        [
          "íķĺ",
          "ëł¤ê³ł"
        ],
        [
          "ìĿ´",
          "ë©´"
        ],
        [
          "ìĿ´",
          "ë¯Ģë¡ľ"
        ],
        [
          "ê°",
          "ķìķĦì§Ģ"
        ],
        [
          "Ġa",
          "way"
        ],
        [
          "Ġëį",
          "§ë¶"
        ],
        [
          "íķ´",
          "ë³¼"
        ],
        [
          "Īë",
          "§Į"
        ],
        [
          "Ġìłķ",
          "íķ´ë³´ìŀĲ"
        ],
        [
          "ë¦¬",
          "ë©´"
        ],
        [
          "ĠëŃĲ",
          "íķĺëĬĶ"
        ],
        [
          "ĠìĦ¤ëªħ",
          "ìĿĢ"
        ],
        [
          "ĠëĮĢíĻĶ",
          "ìĹĲìĦľ"
        ],
        [
          "ĠìķĮëł¤",
          "ì£¼ë©´"
        ],
        [
          "Ġìī",
          "½ëĭ¤"
        ],
        [
          "Ġë¬¼",
          "ìľ¼ë©´"
        ],
        [
          "Ġì£¼ìłľ",
          "ë¥¼"
        ],
        [
          "Ġë°°ìļ°",
          "ê¸°"
        ],
        [
          "Ġë¶Ī",
          "íİ¸"
        ],
        [
          "Ġê·¸ëŁ",
          "°"
        ],
        [
          "Ġë¶ĻìĹ¬",
          "ì£¼ë©´"
        ],
        [
          "Ġêº¼ëĤ´",
          "ë´Ĳ"
        ],
        [
          "Ġë¶ĦìľĦ",
          "ê¸°ë¥¼"
        ],
        [
          "ìĽĲ",
          "íķĺëĬĶ"
        ],
        [
          "Ġë§ŀì¶°ì",
          "§Ħ"
        ],
        [
          "ĠëĴ¤",
          "ìĹĲ"
        ],
        [
          "Ġì¤ĦìĿ´",
          "ê³ł"
        ],
        [
          "ê°ķìķĦì§Ģ",
          "ëĬĶ"
        ],
        [
          "Ġëį§ë¶",
          "Ļ"
        ],
        [
          "G",
          "o"
        ],
        [
          "P",
          "I"
        ],
        [
          "a",
          "d"
        ],
        [
          "a",
          "s"
        ],
        [
          "¤",
          "ê³Ħ"
        ],
        [
          "¦",
          "¬"
        ],
        [
          "§",
          "ģìĿ´"
        ],
        [
          "ª",
          "¼"
[...]
