{
  "version": 3,
  "type": "purple-bee-bytelevel-bpe",
  "vocab_size_limit": 32000,
  "backend": "huggingface-tokenizers",
  "special_tokens": {
    "<pad>": 0,
    "<bos>": 1,
    "<eos>": 2,
    "<unk>": 3
  },
  "hf_tokenizer_json": {
    "version": "1.0",
    "truncation": null,
    "padding": null,
    "added_tokens": [
      {
        "id": 0,
        "content": "<pad>",
        "single_word": false,
        "lstrip": false,
        "rstrip": false,
        "normalized": false,
        "special": true
      },
      {
        "id": 1,
        "content": "<bos>",
        "single_word": false,
        "lstrip": false,
        "rstrip": false,
        "normalized": false,
        "special": true
      },
      {
        "id": 2,
        "content": "<eos>",
        "single_word": false,
        "lstrip": false,
        "rstrip": false,
        "normalized": false,
        "special": true
      },
      {
        "id": 3,
        "content": "<unk>",
        "single_word": false,
        "lstrip": false,
        "rstrip": false,
        "normalized": false,
        "special": true
      }
    ],
    "normalizer": {
      "type": "Sequence",
      "normalizers": [
        {
          "type": "NFKC"
        }
      ]
    },
    "pre_tokenizer": {
      "type": "ByteLevel",
      "add_prefix_space": false,
      "trim_offsets": true,
      "use_regex": true
    },
    "post_processor": null,
    "decoder": {
      "type": "ByteLevel",
      "add_prefix_space": true,
      "trim_offsets": true,
      "use_regex": true
    },
    "model": {
      "type": "BPE",
      "dropout": null,
      "unk_token": "<unk>",
      "continuing_subword_prefix": null,
      "end_of_word_suffix": null,
      "fuse_unk": false,
      "byte_fallback": false,
      "ignore_merges": false,
      "vocab": {
        "<pad>": 0,
        "<bos>": 1,
        "<eos>": 2,
        "<unk>": 3,
        "!": 4,
        "\"": 5,
        "#": 6,
        "$": 7,
        "%": 8,
        "&": 9,
        "'": 10,
        "(": 11,
        ")": 12,
        "*": 13,
        "+": 14,
        ",": 15,
        "-": 16,
        ".": 17,
        "/": 18,
        "0": 19,
        "1": 20,
        "2": 21,
        "3": 22,
        "4": 23,
        "5": 24,
        "6": 25,
        "7": 26,
        "8": 27,
        "9": 28,
        ":": 29,
        ";": 30,
        "<": 31,
        "=": 32,
        ">": 33,
        "?": 34,
        "@": 35,
        "A": 36,
        "B": 37,
        "C": 38,
        "D": 39,
        "E": 40,
        "F": 41,
        "G": 42,
        "H": 43,
        "I": 44,
        "J": 45,
        "K": 46,
        "L": 47,
        "M": 48,
        "N": 49,
        "O": 50,
        "P": 51,
        "Q": 52,
        "R": 53,
        "S": 54,
        "T": 55,
        "U": 56,
        "V": 57,
        "W": 58,
        "X": 59,
        "Y": 60,
        "Z": 61,
        "[": 62,
        "\\": 63,
        "]": 64,
        "^": 65,
        "_": 66,
        "`": 67,
        "a": 68,
        "b": 69,
        "c": 70,
        "d": 71,
        "e": 72,
        "f": 73,
        "g": 74,
        "h": 75,
        "i": 76,
        "j": 77,
        "k": 78,
        "l": 79,
        "m": 80,
        "n": 81,
        "o": 82,
        "p": 83,
        "q": 84,
        "r": 85,
        "s": 86,
        "t": 87,
        "u": 88,
        "v": 89,
        "w": 90,
        "x": 91,
        "y": 92,
        "z": 93,
        "{": 94,
        "|": 95,
        "}": 96,
        "~": 97,
        "¡": 98,
        "¢": 99,
        "£": 100,
        "¤": 101,
        "¥": 102,
        "¦": 103,
        "§": 104,
        "¨": 105,
        "©": 106,
        "ª": 107,
        "«": 108,
        "¬": 109,
        "®": 110,
        "¯": 111,
        "°": 112,
        "±": 113,
        "²": 114,
        "³": 115,
        "´": 116,
        "µ": 117,
        "¶": 118,
        "·": 119,
        "¸": 120,
        "¹": 121,
        "º": 122,
        "»": 123,
        "¼": 124,
        "½": 125,
        "¾": 126,
        "¿": 127,
        "À": 128,
        "Á": 129,
        "Â": 130,
        "Ã": 131,
        "Ä": 132,
        "Å": 133,
        "Æ": 134,
        "Ç": 135,
        "È": 136,
        "É": 137,
        "Ê": 138,
        "Ë": 139,
        "Ì": 140,
        "Í": 141,
        "Î": 142,
        "Ï": 143,
        "Ð": 144,
        "Ñ": 145,
        "Ò": 146,
        "Ó": 147,
        "Ô": 148,
        "Õ": 149,
        "Ö": 150,
        "×": 151,
        "Ø": 152,
        "Ù": 153,
        "Ú": 154,
        "Û": 155,
        "Ü": 156,
        "Ý": 157,
        "Þ": 158,
        "ß": 159,
        "à": 160,
        "á": 161,
        "â": 162,
        "ã": 163,
        "ä": 164,
        "å": 165,
        "æ": 166,
        "ç": 167,
        "è": 168,
        "é": 169,
        "ê": 170,
        "ë": 171,
        "ì": 172,
        "í": 173,
        "î": 174,
        "ï": 175,
        "ð": 176,
        "ñ": 177,
        "ò": 178,
        "ó": 179,
        "ô": 180,
        "õ": 181,
        "ö": 182,
        "÷": 183,
        "ø": 184,
        "ù": 185,
        "ú": 186,
        "û": 187,
        "ü": 188,
        "ý": 189,
        "þ": 190,
        "ÿ": 191,
        "Ā": 192,
        "ā": 193,
        "Ă": 194,
        "ă": 195,
        "Ą": 196,
        "ą": 197,
        "Ć": 198,
        "ć": 199,
        "Ĉ": 200,
        "ĉ": 201,
        "Ċ": 202,
        "ċ": 203,
        "Č": 204,
        "č": 205,
        "Ď": 206,
        "ď": 207,
        "Đ": 208,
        "đ": 209,
        "Ē": 210,
        "ē": 211,
        "Ĕ": 212,
        "ĕ": 213,
        "Ė": 214,
        "ė": 215,
        "Ę": 216,
        "ę": 217,
        "Ě": 218,
        "ě": 219,
        "Ĝ": 220,
        "ĝ": 221,
        "Ğ": 222,
        "ğ": 223,
        "Ġ": 224,
        "ġ": 225,
        "Ģ": 226,
        "ģ": 227,
        "Ĥ": 228,
        "ĥ": 229,
        "Ħ": 230,
        "ħ": 231,
        "Ĩ": 232,
        "ĩ": 233,
        "Ī": 234,
        "ī": 235,
        "Ĭ": 236,
        "ĭ": 237,
        "Į": 238,
        "į": 239,
        "İ": 240,
        "ı": 241,
        "Ĳ": 242,
        "ĳ": 243,
        "Ĵ": 244,
        "ĵ": 245,
        "Ķ": 246,
        "ķ": 247,
        "ĸ": 248,
        "Ĺ": 249,
        "ĺ": 250,
        "Ļ": 251,
        "ļ": 252,
        "Ľ": 253,
        "ľ": 254,
        "Ŀ": 255,
        "ŀ": 256,
        "Ł": 257,
        "ł": 258,
        "Ń": 259,
        "Ġì": 260,
        "Ġë": 261,
        "íķ": 262,
        "ìĿ": 263,
        "Ġê": 264,
        "´ì": 265,
        "ê²": 266,
        "an": 267,
        "st": 268,
        "ëĬ": 269,
        "er": 270,
        "Ġë§": 271,
        "íķĺ": 272,
        "ê²Į": 273,
        "ê³": 274,
        "ĸ´": 275,
        "ë¡": 276,
        "ant": 277,
        "ss": 278,
        "Ġìŀ": 279,
        "ëĬĶ": 280,
        "ĠìĿ": 281,
        "ist": 282,
        "ser": 283,
        "Ġí": 284,
        "ssist": 285,
        "ssistant": 286,
        "User": 287,
        "Assistant": 288,
        "ìĿ´": 289,
        "ë¡ľ": 290,
        "ĭ¤": 291,
        "ìĹ": 292,
        "ìķ": 293,
        "ìĸ´": 294,
        "Ġë°": 295,
        "§Ģ": 296,
        "ìł": 297,
        "ê³ł": 298,
        "Ġë§Ĳ": 299,
        "ê°": 300,
        "ıĦ": 301,
        "ìĦ": 302,
        "ë¦": 303,
        "ê¸": 304,
        "ë¥": 305,
        "íķľ": 306,
        "Ġê°": 307,
        "ìļ": 308,
        "Ġìł": 309,
        "Ġìķ": 310,
        "ìĿĦ": 311,
        "ĠìŀĪ": 312,
        "ìĭ": 313,
        "ëĭ¤": 314,
        "ìŀ": 315,
        "ìĿĢ": 316,
        "ëıĦ": 317,
        "Īĺ": 318,
        "Ĥ¬": 319,
        "ë©": 320,
        "ìķĦ": 321,
        "ìľ": 322,
        "ìĹĲ": 323,
        "ë¦¬": 324,
        "ê°Ģ": 325,
        "Ġíķ": 326,
        "¤ĺ": 327,
        "ĠìĪĺ": 328,
        "ì§Ģ": 329,
        "¤ë": 330,
        "ë©´": 331,
        "Ĥĺ": 332,
        "ìĬ": 333,
        "in": 334,
        "ë³": 335,
        "íķ´ì": 336,
        "ë¥¼": 337,
        "Ġëį": 338,
        "ë§": 339,
        "ìĦľ": 340,
        "Ġëĭ": 341,
        "ìľ¼": 342,
        "¬¸": 343,
        "ur": 344,
        "Ģí": 345,
        "Ġìłķ": 346,
        "·¸": 347,
        "Ġë°Ķ": 348,
        "Ġì§": 349,
        "Ġìĺ": 350,
        "ìŀĲ": 351,
        "Īë": 352,
        "ĠìŀĪìĸ´": 353,
        "ĠìĿ´ì": 354,
        "íķ´": 355,
        "íķł": 356,
        "ëĤĺ": 357,
        "ê¸Ī": 358,
        "Ġë³": 359,
        "ìĭľ": 360,
        "ìĿ´ì": 361,
        "le": 362,
        "ìľ¼ë¡ľ": 363,
        "ìļ©": 364,
        "ëł": 365,
        "Ġt": 366,
        "ĸ´ì": 367,
        "ê¸°": 368,
        "Ġì§Ģ": 369,
        "Ġëĭ¤": 370,
        "Ġëĭµ": 371,
        "ìĿĺ": 372,
        "Ġë¶": 373,
        "Ġì¢": 374,
        "ĠìĦ": 375,
        "Ĥ¬ìļ©": 376,
        "Ġê³": 377,
        "£¼": 378,
        "Ġë°Ķë¡ľ": 379,
        "ĠëŃ": 380,
        "Ġê·¸": 381,
        "Ġê°Ļ": 382,
        "Ħ°": 383,
        "ĠëįĶ": 384,
        "ë¶": 385,
        "ee": 386,
        "íķ´ì¤ĺ": 387,
        "Ĥ¬ìļ©ìŀĲ": 388,
        "±°": 389,
        "ĠëŃĲ": 390,
        "ķ¼": 391,
        "Ġíķĺ": 392,
        "ë§Į": 393,
        "íķĺê²Į": 394,
        "on": 395,
        "ëĵ": 396,
        "Ġì¤": 397,
        "ĠìĽ": 398,
        "ìĿ¸": 399,
        "Ŀ¼": 400,
        "ĠëĮ": 401,
        "Ġë¬¸": 402,
        "he": 403,
        "ªħ": 404,
        "at": 405,
        "ëŁ": 406,
        "ĠìķĮ": 407,
        "ĠB": 408,
        "ĠìŀĲ": 409,
        "Ġc": 410,
        "îĪ": 411,
        "ìĿ¼": 412,
        "ìļĶ": 413,
        "ple": 414,
        "ĻĶ": 415,
        "ê³¼": 416,
        "ìķ¼": 417,
        "Ġê°Ģ": 418,
        "ëĭ": 419,
        "urple": 420,
        "ĠëĦ": 421,
        "Ġì¢ĭ": 422,
        "Purple": 423,
        "ëĿ¼": 424,
        "ĠBee": 425,
        "ì²": 426,
        "êµ": 427,
        "Ġìłķë¦¬": 428,
        "Ġë§ŀ": 429,
        "ì¶": 430,
        "ar": 431,
        "Ħľ": 432,
        "íķľëĭ¤": 433,
        "ĠìĽĲ": 434,
        "ëĵľ": 435,
        "Ģì": 436,
        "ĠíĮ": 437,
        "Ġëĭ¤ìĭľ": 438,
        "Ġê¸": 439,
        "íĸ": 440,
        "ing": 441,
        "ìĹ°": 442,
        "íķĺëĬĶ": 443,
        "ìĤ¬ìļ©ìŀĲ": 444,
        "ĠëĮĢí": 445,
        "½ê²Į": 446,
        "ĠìĿ´": 447,
        "Ġë³´": 448,
        "Ġì¢ĭìķĦ": 449,
        "ĠìĹ": 450,
        "ìĽ": 451,
        "ct": 452,
        "½Ķ": 453,
        "¤ëªħ": 454,
        "ĠìĤ¬": 455,
        "ìłķ": 456,
        "ĠìĦ¤ëªħ": 457,
        "Ġì§§": 458,
        "ìĬ¤": 459,
        "íķłê²Į": 460,
        "Ġë§ŀì¶": 461,
        "ëĶ": 462,
        "Ġìļ": 463,
        "Ġê°ĻìĿ´": 464,
        "ëŀ": 465,
        "Ġë°ĺ": 466,
        "Ĭ¸": 467,
        "Ġë°©": 468,
        "Ġì§Ģê¸Ī": 469,
        "ì¤ĺ": 470,
        "ìłģ": 471,
        "ìĬ¤ë": 472,
        "ìłľ": 473,
        "se": 474,
        "Ġìĭ": 475,
        "Ġê²": 476,
        "ion": 477,
        "re": 478,
        "ĠìķĦ": 479,
        "Ġì½Ķ": 480,
        "ĥģ": 481,
        "Ġë§Ĳíķ´ì¤ĺ": 482,
        "ìĻ": 483,
        "Ġthe": 484,
        "ch": 485,
        "ìĿ´í": 486,
        "ĠìŀĲìĹ°": 487,
        "ĠíĮĮ": 488,
        "µìĭ": 489,
        "ìĿ´ìķ¼": 490,
        "Ġíķľ": 491,
        "Ġw": 492,
        "Ġêµ": 493,
        "ìĬ¤ëŁ": 494,
        "íģ": 495,
        "ĠìŀĲìĹ°ìĬ¤ëŁ": 496,
        "Ġëı": 497,
        "Ġì¤ĳ": 498,
        "ĠëĮĢíĻĶ": 499,
        "ĠëĤ": 500,
        "ĠëıĦ": 501,
        "Ġê¸°": 502,
        "İ¸": 503,
        "ĠìĿĳ": 504,
        "ĸ´ìĦľ": 505,
        "ĢíĦ°": 506,
        "Ġë¶Ħ": 507,
        "ëį": 508,
        "ìĹĲìĦľ": 509,
        "ê±°": 510,
        "it": 511,
        "ª¨": 512,
        "£¼ë©´": 513,
        "ëł¤": 514,
        "Īë¬¸": 515,
        "Ġf": 516,
        "łì": 517,
        "Ġì§Īë¬¸": 518,
        "ëħ": 519,
        "ëŁ¼": 520,
        "¤Ħ": 521,
        "Ġ1": 522,
        "ë¶ĢíĦ°": 523,
        "Ġíİ¸": 524,
        "Ĳĺ": 525,
        "Ġë²": 526,
        "ction": 527,
        "ê¹": 528,
        "Ġê±°": 529,
        "ru": 530,
        "¡°": 531,
        "Ġìĸ": 532,
        "Ġan": 533,
        "Ġs": 534,
        "ë³¼": 535,
        "ou": 536,
        "ê²ł": 537,
        "ë¥´": 538,
        "ë¯": 539,
        "íķĺê³ł": 540,
        "íĺ": 541,
        "stru": 542,
        "ìĺ": 543,
        "In": 544,
        "ê¹Į": 545,
        "Ġd": 546,
        "Th": 547,
        "ëĬ¥": 548,
        "ĠìŀĲìĹ°ìĬ¤ëŁ½ê²Į": 549,
        "Ġìĺ¤": 550,
        "or": 551,
        "Instru": 552,
        "ĠìłĦ": 553,
        "ë²": 554,
        "ëĤ": 555,
        "ìŀ¥": 556,
        "Ġìľ": 557,
        "íķĺë©´": 558,
        "urn": 559,
        "Instruction": 560,
        "êµ¬": 561,
        "ľê": 562,
        "arch": 563,
        "íģ¬": 564,
        "lo": 565,
        "íĥ": 566,
        "king": 567,
        "Ġë¨": 568,
        "en": 569,
        "îĪĤ": 570,
        "inking": 571,
        "ëĭĪ": 572,
        "Thinking": 573,
        "ĠëĤĺ": 574,
        "search": 575,
        "ĠëĶ": 576,
        "Ġê´": 577,
        "turn": 578,
        "Ġíİ¸íķĺê²Į": 579,
        "ľì": 580,
        "ĠìĿ´ìĸ´ìĦľ": 581,
        "ĠìĿ¼": 582,
        "ª½": 583,
        "Ġm": 584,
        "ë³¼ê²Į": 585,
        "ĠI": 586,
        "ìĸ´ì": 587,
        "ĠìļĶ": 588,
        "ìĦ±": 589,
        "Ġì¤Ħ": 590,
        "ĠìĽĲíķĺëĬĶ": 591,
        "·¼": 592,
        "íĸ¥": 593,
        "ê²łìĸ´": 594,
        "ë°": 595,
        "Ġêµ¬": 596,
        "ìĿ´ëĭ¤": 597,
        "ëħĦ": 598,
        "Ġìĺģ": 599,
        "Ġíķµìĭ": 600,
        "ĠëŃĲìķ¼": 601,
        "Ġíķµìĭ¬": 602,
        "Ġë§ŀì¶ľ": 603,
        "Ġëª¨": 604,
        "Ġë§Ĳíķłê²Į": 605,
        "ĠíķĺëĤĺ": 606,
        "Ġì°": 607,
        "Ġìĥ": 608,
        "ĠìĿ´ìĸ´": 609,
        "Ġë¶Ģ": 610,
        "ĺëŁ¼": 611,
        "ìĽĮ": 612,
        "Ġê°ĻìĿĢ": 613,
        "Ġë°©íĸ¥": 614,
        "Ġëį°": 615,
        "Ġìĸ´": 616,
        "ĠìķĪë": 617,
        "ĠëĦ¤": 618,
        "íŀ": 619,
        "íĬ¸": 620,
        "Ġíĺ": 621,
        "ìĬµ": 622,
        "ë¶Ħ": 623,
        "ĠìķĮëł¤": 624,
        "íĻ": 625,
        "ê³Ħ": 626,
        "Ġëı¼": 627,
        "is": 628,
        "Ġì§§ê²Į": 629,
        "al": 630,
        "el": 631,
        "Ġê°ĢëĬ¥": 632,
        "ĳľ": 633,
        "ĠíĿ": 634,
        "ë¦Ħ": 635,
        "ìľĦ": 636,
        "ëĶ©": 637,
        "ëį¸": 638,
        "ĠìķĮê²łìĸ´": 639,
        "ìĿ´íĦ°": 640,
        "Ġíķ¨": 641,
        "ĠëıĦìĻ": 642,
        "Ġand": 643,
        "Ġre": 644,
        "om": 645,
        "ì¹": 646,
        "Ġì²": 647,
        "ĠëĲĺ": 648,
        "ìłģìĿ¸": 649,
        "Ġëį°ìĿ´íĦ°": 650,
        "ì§": 651,
        "Ġì£¼": 652,
        "ë¯¸": 653,
        "Ġìĺģìĸ´": 654,
        "hat": 655,
        "ľ»": 656,
        "ĠíĿĲ": 657,
        "ìĦĿ": 658,
        "Ġëª¨ëį¸": 659,
        "Ġìª½": 660,
        "ìłĢ": 661,
        "Ġë¬": 662,
        "Ġìłľ": 663,
        "Ġëľ»": 664,
        "ĠëıĦìĻĢì": 665,
        "ĠíĨ": 666,
        "ì²ĺëŁ¼": 667,
        "Ġë¹": 668,
        "íŀĪ": 669,
        "ĥī": 670,
        "Ġì½ĶëĶ©": 671,
        "ĠìĤ¬ìļ©ìŀĲ": 672,
        "Ġë¶ĦìĦĿ": 673,
        "ë£": 674,
        "ìĿĮ": 675,
        "ê±°ëĤĺ": 676,
        "ħķ": 677,
        "ìĹĲëĬĶ": 678,
        "Ġê³¼": 679,
        "ëĮ": 680,
        "ĶĦ": 681,
        "Ġì¹": 682,
        "Ġê¶": 683,
        "Ġê±": 684,
        "Ġë³¼": 685,
        "od": 686,
        "Ġë§ŀì¶°": 687,
        "Ġë§ŀì¶ľê²Į": 688,
        "ĠìķĪëħķ": 689,
        "ĠëıĦìĻĢì¤Ħ": 690,
        "Ġ|": 691,
        "ĠëĲĺê³ł": 692,
        "Ġë¨¼": 693,
        "Ġì¶": 694,
        "Ġë¨¼ìłĢ": 695,
        "¸ìĸ´": 696,
        "ìĤ¬": 697,
        "ĠëĬ": 698,
        "ë¬": 699,
        "į¬": 700,
        "ê°Ī": 701,
        "ĻìĬµ": 702,
        "ĠìĿ´ìķ¼": 703,
        "ìĿ´ìį¬": 704,
        "ĠíĮĮìĿ´ìį¬": 705,
        "ĦìļĶ": 706,
        "Ġì½Ķëĵľ": 707,
        "Ġ2": 708,
        "ľê·¼": 709,
        "ģê¸Ī": 710,
        "Ġìī": 711,
        "Ġcan": 712,
        "Ġê¶ģê¸Ī": 713,
        "Ġìĭľ": 714,
        "ģíģ¬": 715,
        "Ġë¬¸ìĦľ": 716,
        "Ġp": 717,
        "Ġëĭ¨": 718,
        "Ġy": 719,
        "Ġë§İ": 720,
        "Ġë§ģíģ¬": 721,
        "ĠìĿĺ": 722,
        "Ġíķł": 723,
        "ìľ¼ë©´": 724,
        "ĠíĿĲë¦Ħ": 725,
        "ë¥ĺ": 726,
        "ê°ĢìĽĮ": 727,
        "ex": 728,
        "ĠìķĮëł¤ì¤ĺ": 729,
        "Ġë§Ĳê³ł": 730,
        "Ī¬": 731,
        "ıĻ": 732,
        "ë¡Ŀ": 733,
        "Ġìĺ¤ë": 734,
        "ì²Ń": 735,
        "ê»": 736,
        "Ġë©": 737,
        "Ġëĵ": 738,
        "ite": 739,
        "íĸĪ": 740,
        "ĠìĥĿ": 741,
        "ì¤": 742,
        "ë³Ģ": 743,
        "ĠìĤ¬ê³¼": 744,
        "âĢ": 745,
        "Ġê°ķ": 746,
        "ë³´": 747,
        "ĠëĦĪ": 748,
        "ĠíĮĮìĿ¼": 749,
        "Ġyou": 750,
        "ĠA": 751,
        "Ġh": 752,
        "Ġìŀĳ": 753,
        "ìķĪ": 754,
        "Ġë°©ê¸Ī": 755,
        "Ġíķ¨ê»": 756,
        "Ġíķ¨ê»ĺ": 757,
        "®ìķĦ": 758,
        "°®ìķĦ": 759,
        "ĠíķĻìĬµ": 760,
        "êµŃ": 761,
        "Ġê´ľì": 762,
        "Ġê´ľì°®ìķĦ": 763,
        "ìĪĺ": 764,
        "íĪ¬": 765,
        "Ġëĭµë³Ģ": 766,
        "Ġë°ĺê°ĢìĽĮ": 767,
        "½ê³ł": 768,
        "íķĺì§Ģ": 769,
        "ĠíĴ": 770,
        "ĠíķĦìļĶ": 771,
        "îĪĢ": 772,
        "îĪģ": 773,
        "ëĿ¼ê³ł": 774,
        "ëĥ": 775,
        "ĠîĪĢ": 776,
        "ĠìĿ¸": 777,
        "Ġë§Ĳíķ´": 778,
        "Ġê±¸": 779,
        "Ġë¡": 780,
        "Ġë°Ķê": 781,
        "Ġëĭµíķľëĭ¤": 782,
        "Ġìļ°": 783,
        "ĠìļĶì²Ń": 784,
        "Ġê¶ģê¸Īíķľ": 785,
        "ķĮ": 786,
        "ëŁ¬": 787,
        "ìĻĢ": 788,
        "cite": 789,
        "Ġa": 790,
        "Ġì¹ľê·¼": 791,
        "íķ´ëıĦ": 792,
        "íĻĶ": 793,
        "Ġb": 794,
        "ĠìĿ´ìĸ´ê°Ī": 795,
        "pt": 796,
        "ìĥģ": 797,
        "Ġìĥģ": 798,
        "Ġì§§ìĿĢ": 799,
        "Ġìĸ¸ìĸ´": 800,
        "ëĮĢ": 801,
        "ê·¸": 802,
        "ļĶ": 803,
        "Ġì¡°": 804,
        "ìĭĿ": 805,
        "Ġto": 806,
        "ĠëĦĪë": 807,
        "Ġìľł": 808,
        "ìĹŃ": 809,
        "ìļ°": 810,
        "ĠìĦ¤ëªħíķ´ì¤ĺ": 811,
        "Ġê°ľ": 812,
        "Ġin": 813,
        "Ġn": 814,
        "Ġë§ĲíĪ¬": 815,
        "ëŀĺ": 816,
        "ëĬĺ": 817,
        "ĠíĻ": 818,
        "ĠìķĦëĭĪ": 819,
        "Ġìĺ¤ëĬĺ": 820,
        "¨í": 821,
        "´Ĳ": 822,
        "ìĽĶ": 823,
        "ra": 824,
        "ë¡ľëıĦ": 825,
        "ëł¥": 826,
        "ĠìĽĲìĿ¸": 827,
        "Ġê²Ģì": 828,
        "ìĿ´íĬ¸": 829,
        "**": 830,
        "ĠìĿĮ": 831,
        "Ġë§Ĳíķ´ì": 832,
        "Ġíķµìĭ¬ë§Į": 833,
        "Ġê·¸ëĥ": 834,
        "ĠìĹĨ": 835,
        "ê¹Įì§Ģ": 836,
        "Ġê·¸ëĥ¥": 837,
        "ĺê¸°": 838,
        "ĠëŃĲíķł": 839,
        "µìĭĿ": 840,
        "Ġìĸĺê¸°": 841,
        "Ġê³µìĭĿ": 842,
        "Ġìĸ´ë": 843,
        "Ġfi": 844,
        "Ġë°Ķê¿": 845,
        "Ġë§Ĳíķ´ì£¼ë©´": 846,
        "Ġë§Į": 847,
        "ĠC": 848,
        "ĠëĶ±": 849,
        "¬´": 850,
        "Ġìķŀ": 851,
        "ìķĦì§Ģ": 852,
        "ĠëĮĢ": 853,
        "Ġìī½ê²Į": 854,
        "ĠëĦĪë¬´": 855,
        "Ġê°ķìķĦì§Ģ": 856,
        "ge": 857,
        "ps": 858,
        "ëªħ": 859,
        "Ġìĭ¤": 860,
        "Ġì¶Ķ": 861,
        "ìłĲ": 862,
        "íĨ": 863,
        "ê³µ": 864,
        "ë§Ĳ": 865,
        "Ġì¢Ģ": 866,
        "tt": 867,
        "ì¡°": 868,
        "Ġìŀĺ": 869,
        "Ġíķ´ì": 870,
        "ëŀĮ": 871,
        "ly": 872,
        "Ĭ¤": 873,
        "ĠìĺĪ": 874,
        "Â·": 875,
        "Ġê³ł": 876,
        "ì¹ĺ": 877,
        "Ġê²Ģìĥī": 878,
        "ë£Į": 879,
        "Ġì¹ľê·¼íķĺê²Į": 880,
        "ĠìĤ¬ëŀĮ": 881,
        "Ġë§İìĿ´": 882,
        "ë¦°": 883,
        "ĠìŀĪìĸ´ì": 884,
        "íĺķ": 885,
        "ëĤ´ì": 886,
        "ì¤Ģ": 887,
        "ë¥¸": 888,
        "ìļ´": 889,
        "Ĥ°": 890,
        "ĨĮ": 891,
        "ĠíĶĦ": 892,
        "ĠìķĬ": 893,
        "Ġíķ´": 894,
        "ëĶ±": 895,
        "ĠëĶ±ëĶ±": 896,
        "Ġ19": 897,
        "ëĦ": 898,
        "Ġë°°": 899,
        "ìĦ¸": 900,
        "ent": 901,
        "Ġìĺ¤ëŀ": 902,
        "ìĭ¬": 903,
        "ĠìĤ¬ìļ©ìŀĲê°Ģ": 904,
        "ëĲĺ": 905,
        "ë³µ": 906,
        "Ġíķĺê³ł": 907,
        "ĠìķĮìķĦ": 908,
        "Ġdo": 909,
        "Ġë°Ķê¿Ķ": 910,
        "Ġìŀ¡": 911,
        "Ġë³´ê³ł": 912,
        "Ġì§Ģê¸ĪìĿĢ": 913,
        "ĠìŀĪìľ¼ë©´": 914,
        "íķ´ìĦľ": 915,
        "Ġë¬¸ìłľ": 916,
        "ìł¸": 917,
        "ìŀ¬": 918,
        "Ġì°¨": 919,
        "Ġë¶Ģë¶Ħ": 920,
        "pe": 921,
        "ìĹ¬": 922,
        "ëĶĶ": 923,
        "ë¬¼": 924,
        "Ġë©Ķ": 925,
        "ad": 926,
        "Īľ": 927,
        "es": 928,
        "íķĺê±°ëĤĺ": 929,
        "ĠëĤ´": 930,
        "ìĺģ": 931,
        "Ġê´Ģ": 932,
        "įê²Į": 933,
        "Ķ¨": 934,
        "Ġê°Ģë³": 935,
        "ë¥´ê²Į": 936,
        "ľê·¸": 937,
        "ĠëĦ¤ê°Ģ": 938,
        "ot": 939,
        "´ìĹ": 940,
        "´ìļ": 941,
        "ìĿ´ëĤĺ": 942,
        "łìĶ¨": 943,
        "Ġëĵ¤": 944,
        "Ġê°Ģë³įê²Į": 945,
        "Ġ(": 946,
        "Ġíı": 947,
        "Ġth": 948,
        "Ġì°¾": 949,
        "Ġì£¼ìłľ": 950,
        "ĠìŀĪìĸ´ìļĶ": 951,
        "ì£¼": 952,
        "ë§¥": 953,
        "ĠíĻķ": 954,
        "íĤ": 955,
        "Ħ´": 956,
        "Ġìŀ¬": 957,
        "Ġëľ»ìĿĦ": 958,
        "Ġì´": 959,
        "ìĿ´ì§Ģ": 960,
        "Ġê³łì": 961,
        "Ġê·¸ëŁ¼": 962,
        "Ġë¬¸ë§¥": 963,
        "Ġìļ°ë¦¬": 964,
        "ìĹĪ": 965,
        "ĠëĮĢíĳľ": 966,
        "ĠìĿ´ìķ¼ê¸°": 967,
        "ĠíķĦìļĶíķĺë©´": 968,
        "Ġëª": 969,
        "ìłĦ": 970,
        "Ġë²Ķ": 971,
        "íĥľ": 972,
        "Ġê°ĢëĬ¥íķľ": 973,
        "ext": 974,
        "Ġë§Ĳíķ´ë³¼ê²Į": 975,
        "gpt": 976,
        "us": 977,
        "ĠìĬ¤": 978,
        "ê°ģ": 979,
        "ëıĦë¥¼": 980,
        "Ġëįĺ": 981,
        "Ġë¬¸ìŀ¥": 982,
        "ĠìĿ´íķ´": 983,
        "ĠëĤ´ìļ": 984,
        "ĠëĤłìĶ¨": 985,
        "ĠëĤ´ìļ©": 986,
        "Ġhe": 987,
        "ë©°": 988,
        "ĠìĪĺìłķ": 989,
        "ĠìĿ´ìĥģ": 990,
        "Ġëĭ¤ë¥¸": 991,
        "íĺĦ": 992,
        "ëıĻ": 993,
        "ĠìĹ¬": 994,
        "ĠëĤĺëĬĶ": 995,
        "Ġìĭ¤ìłľ": 996,
        "Ġíķ´ì¤ĺ": 997,
        "Ġëįĺìł¸": 998,
        "ro": 999,
        "ëª¨": 1000,
        "ê°Ĳ": 1001,
        "ìĬ¤íĬ¸": 1002,
        "Ġíĺķ": 1003,
        "com": 1004,
        "Ġë¯": 1005,
        "ĠìĽ¹": 1006,
        "ë²Ī": 1007,
        "ĠíĺĦ": 1008,
        "Ġë¬¼": 1009,
        ":/": 1010,
        "ë¹": 1011,
        "Ġlo": 1012,
        "ĠìĹĲ": 1013,
        "Ġë°ĺë³µ": 1014,
        "Ġë²Ħ": 1015,
        "ĠëĬĲ": 1016,
        "ĠS": 1017,
        "Įë¦¬": 1018,
        "ê°Ħ": 1019,
        "ìĺ¤": 1020,
        "odel": 1021,
        "ttps": 1022,
        "://": 1023,
        "ed": 1024,
        "Ġis": 1025,
        "´ìł": 1026,
        "ë¦´": 1027,
        "ë³¸": 1028,
        "Ġëĭ¬": 1029,
        "ĠíĻķìĿ¸": 1030,
        "ĠëĮĢíĳľìłģìĿ¸": 1031,
        "Ġë²ĶìľĦ": 1032,
        "Ġë§Ĳíķľëĭ¤": 1033,
        "ìķĦì¤ĺ": 1034,
        "ĠìłķìĿĺ": 1035,
        "ëĵľë¦´": 1036,
        "Ġl": 1037,
        "ĠìĻ": 1038,
        "Ġcon": 1039,
        "are": 1040,
        "ĠíĮ¨í": 1041,
        "Ġêµ¬ì¡°": 1042,
        "íĻĺ": 1043,
        "Ġë¹Ħ": 1044,
        "Ġhel": 1045,
        "ĠíĮ¨íĦ´": 1046,
        "ìĹħ": 1047,
        "ìĦł": 1048,
        "Ġcod": 1049,
        "ĠíĨł": 1050,
        "Ġìµ": 1051,
        "ìĹĶ": 1052,
        "ĠìŀĪëĬĶ": 1053,
        "Ġëĭµíķł": 1054,
        "Ġìĭ¶": 1055,
        "ĠíķĺëĤĺë§Į": 1056,
        "Ġëį°ìĿ´íĦ°ë¥¼": 1057,
        "Ġìª½ìľ¼ë¡ľ": 1058,
        "ĠAI": 1059,
        "ĠíĮ¨íĦ´ìĿĦ": 1060,
        "ë¶Ģ": 1061,
        "ëĭ´": 1062,
        "Ġë³´ëĬĶ": 1063,
        "Ġë²Ī": 1064,
        "ĠìĿ´ìĸ´ê°Ģ": 1065,
        "ĠìĿ´ìĸ´ê°Īê²Į": 1066,
        "íĨµ": 1067,
        "ľë§Į": 1068,
        "Ġíķĺì§Ģ": 1069,
        "Ġê¸Ģ": 1070,
        "ĠìĿ´ë¯¸": 1071,
        "Ġê²ĥ": 1072,
        "Ġì¤ĳìļĶ": 1073,
        "Ġë¨¹": 1074,
        "Ġ20": 1075,
        "ĠíĺĦìŀ¬": 1076,
        "Ĩį": 1077,
        "ĠìĿ´ë²Ī": 1078,
        "Ġhttps": 1079,
        "Ġìĺ¤ëŀľë§Į": 1080,
        "ic": 1081,
        "ì¤Ħ": 1082,
        "ìĤ°": 1083,
        "Ġíħ": 1084,
        "ëł¤ë": 1085,
        "Ġë³´ëĤ´ì": 1086,
        "ìłģìľ¼ë¡ľ": 1087,
        "Ġê¸°ì¤Ģ": 1088,
        "..": 1089,
        "ë´Ĳ": 1090,
        "Ġwhat": 1091,
        "ĠìľĦ": 1092,
        "Ġë³´ëĤ´ì£¼ë©´": 1093,
        "sw": 1094,
        "Ġíķĺë©´": 1095,
        "ë°ĺ": 1096,
        "ĠëĤ´ê°Ģ": 1097,
        "swer": 1098,
        "ig": 1099,
        "ģìĿ´": 1100,
        "íķĺìŀĲ": 1101,
        "ê°ľ": 1102,
        "ëł¨": 1103,
        "Ġëĭ¤ìĿĮ": 1104,
        "ĠìŀĲë£Į": 1105,
        "Ġanswer": 1106,
        "ĠíĶĦë¡ľ": 1107,
        "ĠM": 1108,
        "ĶĶ": 1109,
        "ìľ¼ë¡ľëĬĶ": 1110,
        "ĠìĽĲíķĺë©´": 1111,
        "Ġìĭ¶ìĿĢ": 1112,
        "ĠìĿ´ë²ĪìĹĶ": 1113,
        "ĠìĿ½": 1114,
        "íĤ¤": 1115,
        "GP": 1116,
        "ll": 1117,
        "ĺë¦¬": 1118,
        "ĠëķĮ": 1119,
        "ìķ½": 1120,
        "Ġëĭµíķłê²Į": 1121,
        "ëĵ¤": 1122,
        "íģ°": 1123,
        "ĠëıĦêµ¬": 1124,
        "ĠìłĦíĻĺ": 1125,
        "íĻķ": 1126,
        "Ġìĺģìĸ´ë¡ľ": 1127,
        "rom": 1128,
        "ug": 1129,
        "ĠE": 1130,
        "ĠìĪľ": 1131,
        "ìķħ": 1132,
        "ëıĦë¡Ŀ": 1133,
        "Ġì§ģ": 1134,
        "ĠëĮĢíĻĶìĹĲ": 1135,
        "Ġsh": 1136,
        "ëĤ´": 1137,
        "ìĭĿìĿĦ": 1138,
        "Ġë¯¸": 1139,
        "Ġcode": 1140,
        "ĠìĿ´ìł": 1141,
        "ëłĪ": 1142,
        "Ġwe": 1143,
        "ĠíĨłíģ°": 1144,
        "´í": 1145,
        "ãĢ": 1146,
        "íĶ": 1147,
        "ĠìĿ½ê³ł": 1148,
        "Ġíĳľ": 1149,
        "ë³´ì": 1150,
        "ĠëĶ°": 1151,
        "ĠìĿ¼ìĥģ": 1152,
        "ĠìłľìķĪ": 1153,
        "Ġê³¼ìĿ¼": 1154,
        "ĠìĤ¬ê³¼ëĬĶ": 1155,
        "Ġì¡°ê¸Ī": 1156,
        "Ġìĸ´ëķĮ": 1157,
        "¥ëł¥": 1158,
        "ĠìŀĪëĭ¤": 1159,
        "ĠëĭµìĿ´": 1160,
        "Ġë°ĺëł¤ë": 1161,
        "Ġìĺ¤ë¥ĺ": 1162,
        "ê³Ħë¥¼": 1163,
        "ĠëĬ¥ëł¥": 1164,
        "ıĻë¬¼": 1165,
        "Ġê´Ģëł¨": 1166,
        "ĠìĿ´ë¯¸ì§Ģ": 1167,
        "ĠìĪľìĦľ": 1168,
        "Ġë°ĺëł¤ëıĻë¬¼": 1169,
        "ld": 1170,
        "um": 1171,
        "Ġì§ĢìĹŃ": 1172,
        "Ġì§§ê³ł": 1173,
        "Ġê±°ìķ¼": 1174,
        "Ġë¡ľê·¸": 1175,
        "ce": 1176,
        "íħ": 1177,
        "ĺĲ": 1178,
        "ĠìłķíĻķ": 1179,
        "Ġë³´íĨµ": 1180,
        "Ġê²½": 1181,
        "ĠíĨ¤": 1182,
        "Ġê¸°ì¤Ģìľ¼ë¡ľ": 1183,
        "ow": 1184,
        "ue": 1185,
        "íĦ°": 1186,
        "Ġst": 1187,
        "Ġê·": 1188,
        "ĠìĤ¬ìĿ´íĬ¸": 1189,
        "ë¥´ëĬĶ": 1190,
        "Ġë°©íĸ¥ìĿĢ": 1191,
        "ë³´ëĭ¤": 1192,
        "ĠìĿĮìķħ": 1193,
        "Ġìŀ¡ëĭ´": 1194,
        "ë¹Ħ": 1195,
        "Ġex": 1196,
        "ìķķ": 1197,
        "ĠìĦ¤ëªħíķłê²Į": 1198,
        "Ġ**": 1199,
        "ŀĲ": 1200,
        "Ġê·¸ê±°": 1201,
        "Ġê±°ê¸°": 1202,
        "ĠëĶĶ": 1203,
        "ĠìĿĺëıĦë¥¼": 1204,
        "ĠìĥĿìĦ±": 1205,
        "ĠìĤ¬ëŀĮê³¼": 1206,
        "ck": 1207,
        "íĮ": 1208,
        "ĠâĢ": 1209,
        "ĵ°": 1210,
        "Ġìĸ´ì": 1211,
        "Ġë³´ì": 1212,
        "Ġê³µ": 1213,
        "ëĭµ": 1214,
        "ĠìĭĿ": 1215,
        "ĠìĿ¼ìĿĦ": 1216,
        "Ġë¡ľ": 1217,
        "Ġìĥģíĥľ": 1218,
        "GPT": 1219,
        "ĠH": 1220,
        "ĠR": 1221,
        "Ġì»": 1222,
        "ĠëĺĲ": 1223,
        "íķĻ": 1224,
        "ì²´ìł": 1225,
        "íĸī": 1226,
        "ĠìłĦìķķ": 1227,
        "Ġmodel": 1228,
        "âĢĿ": 1229,
        "ĠìĹĨìĿ´": 1230,
        "Ġëįĺìł¸ì¤ĺ": 1231,
        "Ġì¤ĳìļĶíķľ": 1232,
        "ë´ĲëıĦ": 1233,
        "Ġìĸ´ìĥī": 1234,
        "un": 1235,
        "º¼": 1236,
        "ĠW": 1237,
        "ĭ°": 1238,
        "ith": 1239,
        "ĠíĳľíĺĦ": 1240,
        "ë¸": 1241,
        "ì¼": 1242,
        "ìĨĮ": 1243,
        "Īł": 1244,
        "įìĬ¤íĬ¸": 1245,
        "Ġëģ": 1246,
        "ê²ĮìļĶ": 1247,
        "ìĹ°íķĺê²Į": 1248,
        "Ġwith": 1249,
        "ë²ķ": 1250,
        "Ġêµ¬ì²´ìł": 1251,
        "ĠìĤ¬ìļ©ìŀĲìĿĺ": 1252,
        "ĠâĢľ": 1253,
        "ter": 1254,
        "ì¸": 1255,
        "ĠPurple": 1256,
        "į¨": 1257,
        "Ġìį¨": 1258,
        "Ġíģ": 1259,
        "Ġê°Ģìŀ¥": 1260,
        "ĠìŀĲìĹ°ìĬ¤ëŁ½ê³ł": 1261,
        "íĻ©": 1262,
        "Ġë§ŀì¶°ìĦľ": 1263,
        "ĠíĿĲë¦ĦìĹĲ": 1264,
        "ĠìļĶì²ŃìĹĲëĬĶ": 1265,
        "Ġê°ķìķĦì§ĢëĬĶ": 1266,
        "¹ĺ": 1267,
        "ìĸ": 1268,
        "Ġ`": 1269,
        "Ģëĭ¤": 1270,
        "ĠìŀĪê³ł": 1271,
        "ĠìĦ¤": 1272,
        "ëį°": 1273,
        "ì§Ī": 1274,
        "Ġëª¨ëį¸ìĿ´": 1275,
        "Ġê³¼ìŀ¥": 1276,
        "ĠìľłìĹ°íķĺê²Į": 1277,
        "ĠëĤ´ìļ©ìĿĦ": 1278,
        "ĽĦ": 1279,
        "atgpt": 1280,
        "chatgpt": 1281,
        "Ġwant": 1282,
        "Ġfrom": 1283,
        "pect": 1284,
        "ĠíĺķìĭĿìĿĦ": 1285,
        "ê·¼": 1286,
        "ì°": 1287,
        "İĺ": 1288,
        "Ġë§Ĳíķĺê³ł": 1289,
        "ĠëŃĲíķ´": 1290,
        "Ġì§Īë¬¸ê³¼": 1291,
        "ould": 1292,
        "íĺ¸": 1293,
        "Ġë§ĲíĪ¬ëĤĺ": 1294,
        "ëĦ¤": 1295,
        "Ġhelp": 1296,
        "íļ": 1297,
        "ĠT": 1298,
        "Ġë°Ľ": 1299,
        "Ġë¬¸ë²ķ": 1300,
        "ĠìķĦê¹Į": 1301,
        "Ġì§Īë¬¸ìĹĲëĬĶ": 1302,
        "íĥķ": 1303,
        "Ġme": 1304,
        "Ġíķ¨ìĪĺ": 1305,
        "ĠëŃĲíķłëŀĺ": 1306,
        "Ġìķŀìľ¼ë¡ľëĬĶ": 1307,
        "ĠìķĬê²Į": 1308,
        "Ġì´Ī": 1309,
        "Ġë²Ħê·¸": 1310,
        "Ġshould": 1311,
        "ĠëĶ°ëĿ¼": 1312,
        "ual": 1313,
        "¨ëĿ¼": 1314,
        "ë¬¸": 1315,
        "ì¦": 1316,
        "ìĸ´ìĦľ": 1317,
        "Ġor": 1318,
        "Ġìĵ°": 1319,
        "Ġë§ī": 1320,
        "ê¸Ģ": 1321,
        "Ġë¶Ļ": 1322,
        "Ġë§ŀìķĦ": 1323,
        "ìĸ´ì£¼ë©´": 1324,
        "Ġëª©": 1325,
        "ts": 1326,
        "ìª½": 1327,
        "Ĳľ": 1328,
        "Ġë´Ĳ": 1329,
        "Ġêº¼": 1330,
        "ĠíĹ": 1331,
        "Ġìłģ": 1332,
        "ê¸°ë¥¼": 1333,
        "ìĿ¼ê²Į": 1334,
        "Ġë°ĺìĺģ": 1335,
        "Ġë°©íĸ¥ìĿĦ": 1336,
        "Ġìĺģìĸ´ë¡ľëıĦ": 1337,
        "Ġíı¬": 1338,
        "ĠìĹĲëŁ¬": 1339,
        "íĶĦ": 1340,
        "Ġk": 1341,
        "£¼ëĬĶ": 1342,
        "ĠBeeìķ¼": 1343,
        "êµĲ": 1344,
        "Ġì¤Ħë§Į": 1345,
        "Ġê°ĢëĬ¥íķ´": 1346,
        "ĠìŀĳìĹħ": 1347,
        "Ġfile": 1348,
        "Ġê³łìłķ": 1349,
        "Ġìĭ¤ìłľë¡ľ": 1350,
        "pl": 1351,
        "ëĬĶì§Ģ": 1352,
        "ë§Ī": 1353,
        "Ġë°Ķíĥķ": 1354,
        "ìĭľì§Ģ": 1355,
        "Ġì§ĢìłĲ": 1356,
        "Ġë¬¸êµ¬": 1357,
        "Ġíķľê³Ħë¥¼": 1358,
        "ĠëıĻ": 1359,
        "ĠìĿĳëĭµ": 1360,
        "ëĭĪëĭ¤": 1361,
        "Ġë¶Ģëĵľ": 1362,
        "ì§ģ": 1363,
        "Ġpat": 1364,
        "ĠíĴĢì": 1365,
        "Ġë©Ķìĭľì§Ģ": 1366,
        "ĠìłķìĿĺíĺķ": 1367,
        "ģìĿ´ê³ł": 1368,
        "Ġê³¼ìĿ¼ìĿ´ìķ¼": 1369,
        "Ġìĸ´ìĥīíĸĪ": 1370,
        "Ġë°Ķíĥķìľ¼ë¡ľ": 1371,
        "sh": 1372,
        "ìĥ": 1373,
        "Ġr": 1374,
        "Īìĸ´": 1375,
        "Ġëĳ": 1376,
        "Ġê²Į": 1377,
        "ĠIf": 1378,
        "Ġì²ľ": 1379,
        "ë£¨": 1380,
        "Ġê³łì¹ĺ": 1381,
        "Ġë²ĶìľĦìĻĢ": 1382,
        "ĠíĶĦë¡ľê·¸": 1383,
        "Ġêµ¬ì²´ìłģìĿ´ê³ł": 1384,
        "Ġë°ĺìĺģíķľëĭ¤": 1385,
        "Ġê³łì¹ĺëĿ¼ê³ł": 1386,
        "00": 1387,
        "ĠìŀĪì§Ģ": 1388,
        "Ġë¶Ī": 1389,
        "ation": 1390,
        "ëĭ¨": 1391,
        "Ġì¤Ħë¡ľ": 1392,
        "Ġê³łìłķìłģìĿ¸": 1393,
        "ul": 1394,
        "ver": 1395,
        "Ģë¡ľ": 1396,
        "ìĸ´ê°Ģ": 1397,
        "ìĸ´ë´ĲëıĦ": 1398,
        "Ġìłĳ": 1399,
        "Ġë³´ë©´": 1400,
        "ëŀĳ": 1401,
        "Ġmo": 1402,
        "Ġëį°ìĿ´íĦ°ëĬĶ": 1403,
        "ĠíĴĪ": 1404,
        "ìĦ¸ìļĶ": 1405,
        "ng": 1406,
        "íķĺìĦ¸ìļĶ": 1407,
        "ĠëĭµìĿĦ": 1408,
        "ĠíķĺëĬĶ": 1409,
        "êµ°": 1410,
        "ĠìĹ°": 1411,
        "ëĤĮ": 1412,
        "Ġë¹¼": 1413,
        "ĠìķĪëħķíķĺìĦ¸ìļĶ": 1414,
        "Ġë°°ìļ°": 1415,
        "´ìĹĲ": 1416,
        "ĠëĬĲëĤĮ": 1417,
        "ì¤Ħê²Į": 1418,
        "ì¼Ģ": 1419,
        "iz": 1420,
        "ww": 1421,
        "Ġì£¼ë©´": 1422,
        "ë§Īë": 1423,
        "ĢíĬ¸": 1424,
        "Ġê°ĢìŀĲ": 1425,
        "Ġêµ°": 1426,
        "hatGPT": 1427,
        "Ġìª½ìĿĦ": 1428,
        "Ġë§ģíģ¬ëĬĶ": 1429,
        "ĠìĤ¬ê³¼ê°Ģ": 1430,
        "ëĵľë¦´ê²ĮìļĶ": 1431,
        "ĠíħįìĬ¤íĬ¸": 1432,
        "rst": 1433,
        "ëħĲ": 1434,
        "Ġdi": 1435,
        "îĪģ.": 1436,
        "Ġë¶ĢëĵľëŁ": 1437,
        "Ġ~": 1438,
        "ìŀĳ": 1439,
        "Ġìĺ¬": 1440,
        "íķ´ë³¼ê²Į": 1441,
        "Ġtra": 1442,
        "Ġê³¨ëĿ¼": 1443,
        "ĠëŃĲë¶ĢíĦ°": 1444,
        "ĠìļĶìķ½": 1445,
        "Ġëª¨ëį¸ìĿĢ": 1446,
        "ìĤ¬ìĿ´íĬ¸": 1447,
        "ĠìŀĳìĦ±": 1448,
        "ĠìĽ¹ìĤ¬ìĿ´íĬ¸": 1449,
        "ĠëĺĲëĬĶ": 1450,
        "Ġ3": 1451,
        "ĠP": 1452,
        "Ġëĸ": 1453,
        "ìłĳ": 1454,
        "ë¯Ģë¡ľ": 1455,
        "ĠìĿ¸ê³µ": 1456,
        "Ġê°ľëħĲ": 1457,
        "Ġfirst": 1458,
        "ë³´ìŀĲ": 1459,
        "ëĲľ": 1460,
        "ĠD": 1461,
        "ìĿ´ëĿ¼": 1462,
        "Ġë§Ĳíķľ": 1463,
        "ìĭł": 1464,
        "ì§ĢëĬ¥": 1465,
        "Ġìłķë³´": 1466,
        "ì²ľ": 1467,
        "Ġì¢ĭìķĦìļĶ": 1468,
        "ìĽĲ": 1469,
        "Ġì¤ĳìĭ¬": 1470,
        "ë¯¼": 1471,
        "ĠìĥĪ": 1472,
        "Ġì²ĺë¦¬": 1473,
        "ĠìĥĿê°ģ": 1474,
        "ĠìĥģíĻ©": 1475,
        "Ġìĸ´ëĸ": 1476,
        "ĠìĿ´ìłĦ": 1477,
        "ĠìĿ¸ê³µì§ĢëĬ¥": 1478,
        "ble": 1479,
        "nt": 1480,
        "ere": 1481,
        "ìłĢíĬ¸": 1482,
        "Ġëĭ¤ë¥´ê²Į": 1483,
        "Ġìłķë¦¬íķłê²Į": 1484,
        "ĠêµŃ": 1485,
        "Ġì§Īë¬¸ìĿĦ": 1486,
        "out": 1487,
        "ĠëĤĺëıĦ": 1488,
        "ì§Ħ": 1489,
        "ì¤ĳ": 1490,
        "ëĮĢë¡ľ": 1491,
        "Ġë§Įëĵ¤": 1492,
        "ĠChatGPT": 1493,
        "Ġëĭ¬ëĿ¼ê³ł": 1494,
        "ĠëĶĶìłĢíĬ¸": 1495,
        "19": 1496,
        "vi": 1497,
        "ì½Ķ": 1498,
        "Ġare": 1499,
        "ìľ¼ë©°": 1500,
        "Ġë¶Ħëªħ": 1501,
        "--": 1502,
        "íı": 1503,
        "ĠíĻĶ": 1504,
        "ĠìĦľ": 1505,
        "Ġê²°": 1506,
        "ĠíķľêµŃ": 1507,
        "Ġì¤ĳìĹĲìĦľ": 1508,
        "íĥĢ": 1509,
        "ĠëĤĺë": 1510,
        "íŀĪëĬĶ": 1511,
        "Ġìĺ¤ëĶĶ": 1512,
        "ĠíķĻìĬµìĿĢ": 1513,
        "ĠíĴĢ": 1514,
        "Ġë§ĲíĪ¬ë¡ľ": 1515,
        "ĠìĹĨìĸ´": 1516,
        "ë§ĲìķĦì¤ĺ": 1517,
        "Ġë¬¼ìĸ´ë´ĲëıĦ": 1518,
        "Ġíķĺì§Ģë§ĲìķĦì¤ĺ": 1519,
        "Ġê±°ê¸°ìĹĲ": 1520,
        "Ġë¹¼ê³ł": 1521,
        "Ġìĺ¤ëĶĶìĺ¤": 1522,
        "ain": 1523,
        "Ġ+": 1524,
        "Ġg": 1525,
        "Ġì±": 1526,
        "Ġíĥ": 1527,
        "Ġbe": 1528,
        "Ġê°ľë¥¼": 1529,
        "ë§Ĳê³ł": 1530,
        "Ġë¬¸ìŀ¥ìľ¼ë¡ľ": 1531,
        "Įë¦¬ëĬĶ": 1532,
        "Ġê·¸ê±°ë§Ĳê³ł": 1533,
        "ĠëģĮë¦¬ëĬĶ": 1534,
        "Ġpath": 1535,
        "´ìĹĲìĦľ": 1536,
        "use": 1537,
        "ĠY": 1538,
        "Ġon": 1539,
        "Ġit": 1540,
        "ĠìĤ¬ìļ©": 1541,
        "ĠìĨį": 1542,
        "ê²°": 1543,
        "ĠìłĲ": 1544,
        "ë©Ķ": 1545,
        "ëįĶ": 1546,
        "ìĬµëĭĪëĭ¤": 1547,
        "ĠëĦĪëĬĶ": 1548,
        "Ġëĵ¤ìĸ´ê°Ģ": 1549,
        "Ġcont": 1550,
        "Ġì´ĪìķĪ": 1551,
        "cr": 1552,
        "lis": 1553,
        "ê±": 1554,
        "íĳľ": 1555,
        "íİĺ": 1556,
        "ĮëĬĶ": 1557,
        "Ġë¸": 1558,
        "ìĿ´ë¯Ģë¡ľ": 1559,
        "Ġê°Ĳ": 1560,
        "ĠìĦ¸": 1561,
        "ata": 1562,
        "ĠìĿ´ë¦Ħ": 1563,
        "Ġì¤ĳìĿ´ìķ¼": 1564,
        "ê²łìĬµëĭĪëĭ¤": 1565,
        "ĠìĽĲìĿ¸ìĿĦ": 1566,
        "Ġì¶Ķìłģ": 1567,
        "ĠìĹ¬ëŁ¬": 1568,
        "ĠìĿ½ê¸°": 1569,
        "ĠEng": 1570,
        "Ġì§ģìłĳ": 1571,
        "íļĮ": 1572,
        "),": 1573,
        "ol": 1574,
        "pu": 1575,
        "ł¸": 1576,
        "íķ¨": 1577,
        "íķ©": 1578,
        "Ġíĸ": 1579,
        "ĠìĪĺëıĦ": 1580,
        "ĠìĦł": 1581,
        "Ġcur": 1582,
        "Ġìĭ¬": 1583,
        "Ġìĺ¤ì¼Ģ": 1584,
        "ĠìĿĺë¯¸": 1585,
        "Ġëĵ±": 1586,
        "Ġë°Ķê¿ĶìĦľ": 1587,
        "ìĹĪëĭ¤": 1588,
        "Ġë¯¸êµŃ": 1589,
        "Ġë°ĺëł¤ëıĻë¬¼ìĿ´ìķ¼": 1590,
        "Ġìĺ¤ì¼ĢìĿ´": 1591,
        "ìħ": 1592,
        "ĠG": 1593,
        "Ĵ¤": 1594,
        "´ìĦľ": 1595,
        "ĠíĽĦ": 1596,
        "ìĿ´ëĶĶ": 1597,
        "ë©´ìĦľ": 1598,
        "íķ´ëĵľë¦´ê²ĮìļĶ": 1599,
        "ĠëıĮ": 1600,
        "low": 1601,
        "Ġëĭ¨ìľĦ": 1602,
        "...": 1603,
        "´íĵ": 1604,
        "lish": 1605,
        "ĠEnglish": 1606,
        "cum": 1607,
        "im": 1608,
        "ê´": 1609,
        "ĮëĿ¼": 1610,
        "Ļê²": 1611,
        "ìĸ´ë¥¼": 1612,
        "Ġë§ĲìĿĦ": 1613,
        "Ġëĭµíķ´ì¤ĺ": 1614,
        "een": 1615,
        "ĠìŀĲëıĻ": 1616,
        "Ġca": 1617,
        "Ġìłķë¦¬íķ´ì": 1618,
        "ĠìĹŃ": 1619,
        "ëŀ¨": 1620,
        "ĠìķĦì§ģ": 1621,
        "ĠìķĦìĿ´ëĶĶ": 1622,
        "ë²Ħ": 1623,
        "log": 1624,
        "Ġnext": 1625,
        "Ġìĸĺê¸°íķ´ëıĦ": 1626,
        "Ġdocum": 1627,
        "ĠìĿ´íķ´íķł": 1628,
        "Ġìµľ": 1629,
        "íĤ¤ëĬĶ": 1630,
        "ì¸¡": 1631,
        "ì°¨": 1632,
        "ê±´": 1633,
        "Ġdocument": 1634,
        "ast": 1635,
        "ĠF": 1636,
        "ĠL": 1637,
        "ĠO": 1638,
        "Ġë§Ĳíķĺì§Ģ": 1639,
        "ĠìĦłì": 1640,
        "ìĺĢëĭ¤": 1641,
        "ľì¹": 1642,
        "ë°ĮëĬĶ": 1643,
        "Ġíķµìĭ¬ìĿĦ": 1644,
        "Ġë¶Ģë¥´ëĬĶ": 1645,
        "ĠìĺĪìĭľ": 1646,
        "Ġìŀ¬ë°ĮëĬĶ": 1647,
        "ĠíĴĪì§Ī": 1648,
        "Ġì±Ļê²": 1649,
        "ĠYes": 1650,
        "ĠìķĦì§ģìĿ´ìķ¼": 1651,
        "Ġì±Ļê²¼": 1652,
        "AI": 1653,
        "ay": 1654,
        "age": 1655,
        "ik": 1656,
        "th": 1657,
        "²ĺëŁ¼": 1658,
        "¼ìĿĮ": 1659,
        "ì½": 1660,
        "íĭ°": 1661,
        "Ġv": 1662,
        "ĠìĨĮ": 1663,
        "Ġê³Ħ": 1664,
        "ell": 1665,
        "Ġê³¼ìłķ": 1666,
        "Ġint": 1667,
        "ĠìĬ¤íģ¬": 1668,
        "igh": 1669,
        "ĠíĨ¤ìľ¼ë¡ľ": 1670,
        "Ġê·ľì¹": 1671,
        "ĠìĭĿìĤ¬": 1672,
        "Ġì»´íĵ": 1673,
        "ìĥ·": 1674,
        "ĠíĶĦë¡ľê·¸ëŀ¨": 1675,
        "ĠìĦłìĪĺ": 1676,
        "Ġê·ľì¹Ļ": 1677,
        "Ġus": 1678,
        "Ġë§Ī": 1679,
        "ĠìķĪ": 1680,
        "ìľł": 1681,
        "ë³Ħ": 1682,
        "Ġë¶Ħë¥ĺ": 1683,
        "ëł¤ë©´": 1684,
        "Ġìľ¼ìĿĮ": 1685,
        "ĠíĨµ": 1686,
        "ĠíĮĮìĿ¼ìĿĦ": 1687,
        "ĠíķĦìļĶíķľ": 1688,
        "ë¦°ìĥ·": 1689,
        "Ġë¶Ģë¶Ħë¶ĢíĦ°": 1690,
        "Ġëĵ¤ë©´": 1691,
        "Ġì²ľì²ľ": 1692,
        "ĠìĬ¤íģ¬ë¦°ìĥ·": 1693,
        "Ġì²ľì²ľíŀĪ": 1694,
        "ëı": 1695,
        "Ġ5": 1696,
        "ê²½": 1697,
        "ĠìĿµ": 1698,
        "ìĸ´ëıĦ": 1699,
        "Ġê·¸ìª½": 1700,
        "ĠíķĺìĿ´": 1701,
        "Ġìłķë¦¬íķĺê³ł": 1702,
        "rent": 1703,
        "ĠìĺĪì¸¡": 1704,
        "ĠìĿ´ìķ¼ê¸°íķĺìŀĲ": 1705,
        "ëĤ´ëĬĶ": 1706,
        "Ġìĸ´ëĸ¤": 1707,
        "Ġì»´íĵ¨í": 1708,
        "20": 1709,
        "alog": 1710,
        "ill": 1711,
        "¬ìļ´": 1712,
        "Ġ7": 1713,
        "ĪĦ": 1714,
        "íķĺëĭ¤": 1715,
        "íķĺê¸°": 1716,
        "Ġìŀħ": 1717,
        "Ġë°ı": 1718,
        "ining": 1719,
        "hen": 1720,
        "ìĹĲìĦľëĬĶ": 1721,
        "ë¬´ìĹĲìĦľ": 1722,
        "ìĦ¸íŀĪ": 1723,
        "Ġë¬¸ë§¥ìĿĢ": 1724,
        "Ġlog": 1725,
        "Ġë¨¹ê±°ëĤĺ": 1726,
        "Ġ201": 1727,
        "Ġìŀ¡ëĭ´íķ´ëıĦ": 1728,
        "ë¸Ķ": 1729,
        "Ġìłĳê³ł": 1730,
        "Ġìĭ¬ìĭ¬": 1731,
        "ight": 1732,
        "ft": 1733,
        "pen": 1734,
        "¦Ŀ": 1735,
        "Ġ)": 1736,
        "Ġo": 1737,
        "Ġíķľëĭ¤": 1738,
        "Ġgpt": 1739,
        "Ĭ¹": 1740,
        "ĴĪ": 1741,
        "Ġì§ĢëĤ´ëĬĶ": 1742,
        "ĠìŀĲìĦ¸íŀĪ": 1743,
        "ëĿ¼ëĬĶ": 1744,
        "ĠëĤ¨": 1745,
        "Ġê¸°ê¸°": 1746,
        "ĠìĿ¼ë³¸": 1747,
        "Ġì¤ĦìĿ´": 1748,
        "ë°Ķ": 1749,
        "ì¹´": 1750,
        "Ġë§ŀì¶°ë³¼ê²Į": 1751,
        "Ġë§ĮëĤĺ": 1752,
        "Ġì¶Ķìłķ": 1753,
        "ë§Ĳë¡ľ": 1754,
        "Ġì°¨ë¶Ħ": 1755,
        "Ġìĵ°ëĬĶ": 1756,
        "Ġì¤ĳìĭ¬ìľ¼ë¡ľ": 1757,
        "Ġcurrent": 1758,
        "ĠìĺĪìĭľë¥¼": 1759,
        "Ġìŀħëł¥": 1760,
        "ve": 1761,
        "§Ħ": 1762,
        "ìĪł": 1763,
        "ĭĢ": 1764,
        "ìŀĪìĸ´": 1765,
        "Ġìłķë¦¬íķĺëĬĶ": 1766,
        "Ġê¸°ê³Ħ": 1767,
        "ity": 1768,
        "Ġdata": 1769,
        "ĠìłĦë¥ĺ": 1770,
        "ĠíĿĲë¥´ê²Į": 1771,
        "Ġì½ĶëĶ©ìĿĢ": 1772,
        "ĠìĭľíĤ¤ëĬĶ": 1773,
        "íĸĪëĬĶì§Ģ": 1774,
        "ìĪĺìŀĪìĸ´": 1775,
        "ĠëŃĲíķłìĪĺìŀĪìĸ´": 1776,
        "Ġê°ķìķĦì§Ģê°Ģ": 1777,
        "Ġë°°ìĽĮ": 1778,
        "Ġíıī": 1779,
        "ìĹĪìĸ´": 1780,
        "Ġê¸ĢìĿĦ": 1781,
        "ĠìľĦì¹ĺ": 1782,
        "ĠíĨłíģ°ìĿĢ": 1783,
        "ĠìłĦìķķìĿĢ": 1784,
        "ìĸĳ": 1785,
        "ĠíĴĢìĸ´ìĦľ": 1786,
        "Ġmore": 1787,
        "Ġëĭ¨ìľĦìķ¼": 1788,
        "ê´Ģ": 1789,
        "ĠìŀĲëıĻíĻĶ": 1790,
        "Ġê³¼ìłķìĿ´ìķ¼": 1791,
        "ĠíĶĦë¡ľê·¸ëŀ¨ìĿ´ìķ¼": 1792,
        "Ġì»´íĵ¨íĦ°": 1793,
        "Ġì°¨ë¶Ħíķĺê²Į": 1794,
        "ai": 1795,
        "ak": 1796,
        "¼ìļ´": 1797,
        "Ġ?": 1798,
        "ĺ¤": 1799,
        "Ġë¦": 1800,
        "ëĬĲ": 1801,
        "Ġë°¥": 1802,
        "Ġê°Ģë²": 1803,
        "ork": 1804,
        "Ġì¤ĦìĹ¬": 1805,
        "Ġìĸ´ëĬĲ": 1806,
        "Ġres": 1807,
        "Ġë°Ķê¿Ķì¤ĺ": 1808,
        "Ġì´Ŀ": 1809,
        "ĠìĿ´ìĥģíķĺê²Į": 1810,
        "Ġëĭ¤ë¥¸ê±°": 1811,
        "Ġìĺ¤ëŀľë§ĮìĿ´ìķ¼": 1812,
        "ĠìĤ¬ìĿ´íĬ¸ëĬĶ": 1813,
        "ĠíĳľíĺĦìľ¼ë¡ľ": 1814,
        "ĠìķĦê¹Įì²ĺëŁ¼": 1815,
        "ize": 1816,
        "Ġë¶Ħëªħíķĺê²Į": 1817,
        "ĠíķľêµŃìĸ´": 1818,
        "ĠìķĦìĿ´ëĶĶìĸ´": 1819,
        "ĠOpen": 1820,
        "Ġë§ĮëĤĺìĦľ": 1821,
        "Ġê°Ģë²¼ìļ´": 1822,
        "¡´": 1823,
        "¥ê¸Ģ": 1824,
        "íĹ": 1825,
        "ĠìĤ": 1826,
        "ĠìĤ°": 1827,
        "ĠëĿ¼": 1828,
        "ë³¸ìĸ´": 1829,
        "ure": 1830,
        "Īë¶": 1831,
        "ìĬ¤ëĤĺ": 1832,
        "Ġde": 1833,
        "ë²ł": 1834,
        "ĠìķĮëł¤ì¤Ħê²Į": 1835,
        "ello": 1836,
        "Ġì£¼ìĬ¤ëĤĺ": 1837,
        "Ġëĭ¨ê³Ħ": 1838,
        "Ġê±¸ìĸ´ì£¼ë©´": 1839,
        "ëĮĢíķľ": 1840,
        "**:": 1841,
        "ĠìķĬê³ł": 1842,
        "ìĺģìĸ´": 1843,
        "Ġlik": 1844,
        "Ġê¸ĢìŀĲ": 1845,
        "ãĢĬ": 1846,
        "ãĢĭ": 1847,
        "Ġexpl": 1848,
        "Ġêº¼ëĤ´": 1849,
        "Ġëĳ¥ê¸Ģ": 1850,
        "ë§ĪëĶĶ": 1851,
        "Ġë¶ĢëĵľëŁ½ê²Į": 1852,
        "ĠëĤĺëĪł": 1853,
        "Ġëĳ¥ê¸Ģê³ł": 1854,
        "spect": 1855,
        "¢ħ": 1856,
        "¶ìĿĮ": 1857,
        "ìĨį": 1858,
        "íİ¸": 1859,
        "Ġout": 1860,
        "ĠëĨ": 1861,
        "Ġë°ľ": 1862,
        "Ġë§Ĳíķł": 1863,
        "ëĵł": 1864,
        "Ġìłķë¦¬íķł": 1865,
        "Ġìłķë¦¬íķ´ì¤ĺ": 1866,
        "Ġìĭł": 1867,
        "read": 1868,
        "Ġ10": 1869,
        "Ġrep": 1870,
        "ĠìļĶì²ŃìĿ´ë¯Ģë¡ľ": 1871,
        "Ġnot": 1872,
        "ĠCan": 1873,
        "ĠìķŀìĹĲìĦľ": 1874,
        "ĠëĮĢíķ´": 1875,
        "gest": 1876,
        "íĨł": 1877,
        "Ġìĺ¤ëŀĺ": 1878,
        "´ìĹĩ": 1879,
        "ĠAIìķ¼": 1880,
        "uggest": 1881,
        "ĠìĪľìĦľë¡ľ": 1882,
        "Ġë³´ì¡°": 1883,
        "ĠHello": 1884,
        "Ġëª©íĳľ": 1885,
        "Ġêµ°ìĤ°": 1886,
        "Ġê²°ê³¼": 1887,
        "Ġê¸°ê¸°ìĹĲìĦľ": 1888,
        "ĠOpenAI": 1889,
        "Ġoutpu": 1890,
        "'ll": 1891,
        "ëª": 1892,
        "ë¦¬ìķĦ": 1893,
        "Ġì§ļ": 1894,
        "Ġthat": 1895,
        "Ġì¢ģ": 1896,
        "heck": 1897,
        "Ġcheck": 1898,
        "Ġìłķë¦¬íķ´ëĵľë¦´ê²ĮìļĶ": 1899,
        "Ġíķľë§ĪëĶĶ": 1900,
        "Ġfor": 1901,
        "łìĺ¤": 1902,
        "Ġì§Īë¬¸ëıĦ": 1903,
        "ëħ¸": 1904,
        "ë³¼ê¹Į": 1905,
        "ener": 1906,
        "Ġë¬¶ìĿĮ": 1907,
        "Ġë¬´ìĹĩ": 1908,
        "íĸĪëĭ¤": 1909,
        "Ġinspect": 1910,
        "Ġìĺ¤ëĬĺìĿĢ": 1911,
        "ĠìĤ¬ëŀĮì²ĺëŁ¼": 1912,
        "Ġthread": 1913,
        "Ġì°¾ìķĦ": 1914,
        "Įë¦¬ì§Ģ": 1915,
        "ĠìĿ´ë¯¸ì§Ģë¥¼": 1916,
        "ĠìłķíĻķíķ´ì": 1917,
        "ĠìłķíĻķíķĺê²Į": 1918,
        "ually": 1919,
        "ĠìŀĳìĹħìĿĦ": 1920,
        "Ġëĸłìĺ¤": 1921,
        "Ġusually": 1922,
        "Ġexplain": 1923,
        "ĠëĤĺëĪłìĦľ": 1924,
        "Ġíķľë§ĪëĶĶë§Į": 1925,
        "Ġë¬¶ìĿĮìĿ´ìķ¼": 1926,
        "Ġëĸłìĺ¤ë¥´ëĬĶ": 1927,
        "Ġ'": 1928,
        "Ġe": 1929,
        "err": 1930,
        "Ġë§Ľ": 1931,
        "ĠìŀĪìĸ´ìĦľ": 1932,
        "ë§Ľ": 1933,
        "ìĿ¸ì§Ģ": 1934,
        "ate": 1935,
        "Ġê¸¸": 1936,
        "ìĽĢ": 1937,
        "ìĬ¤íħ": 1938,
        "Ġscr": 1939,
        "Ġsuggest": 1940,
        "Ġdra": 1941,
        "ì¤Ģëĭ¤": 1942,
        "ĠëĶ±ëĶ±íķĺì§Ģ": 1943,
        "ëĲĺìĹĪëĭ¤": 1944,
        "ľê·¸ëŀĺ": 1945,
        "Ġthis": 1946,
        "Ġëª»": 1947,
        "ĠWhat": 1948,
        "Ġfiles": 1949,
        "shot": 1950,
        "Ġtraining": 1951,
        "eenshot": 1952,
        "Ġscreenshot": 1953,
        "blo": 1954,
        "et": 1955,
        "Ġerr": 1956,
        "Ġíļ": 1957,
        "Ġë§ĲìĹĲ": 1958,
        "ĠìŀĪê²Į": 1959,
        "íķ´ìķ¼": 1960,
        "íķ´ìļĶ": 1961,
        "Ġëįľ": 1962,
        "ĠìĿ´ìĸ´ì": 1963,
        "Ġì¢ĭìĿĢ": 1964,
        "Ġê¸°ë³¸": 1965,
        "Ġíķµìĭ¬ë¶ĢíĦ°": 1966,
        "Ġìĸ´ëĶĶ": 1967,
        "Ġë¹ł": 1968,
        "ĠíĮĮìĿ´ìį¬ìĿ´": 1969,
        "ĠíĿĲë¦ĦìĿĢ": 1970,
        "ĠìŀĳìĿĢ": 1971,
        "Ġbug": 1972,
        "Ġìĸ¸ìĸ´ë¡ľ": 1973,
        "Ġìľłì§Ģ": 1974,
        "Ġê²Ģìĥīìĸ´ë¥¼": 1975,
        "Ġì£¼ìłľë¡ľ": 1976,
        "ĠìĻľê·¸ëŀĺ": 1977,
        "Ġë§īíŀĪëĬĶ": 1978,
        "ĠíĹ·": 1979,
        "Ġìĺ¤ëĶĶìĺ¤ê°Ģ": 1980,
        "Ġcause": 1981,
        "Ġë¦¬": 1982,
        "ĠìłķíĻķíķ´ìł¸": 1983,
        "Ġdraft": 1984,
        "Ġerror": 1985,
        "##": 1986,
        "12": 1987,
        "ê·": 1988,
        "ëĳ": 1989,
        "ì¢ħ": 1990,
        "Ġ6": 1991,
        "Ġ8": 1992,
        "ĵľ": 1993,
        "ľë¶ĢíĦ°": 1994,
        "ìĿĳ": 1995,
        "ëĬĶëĭ¤": 1996,
        "ìķĺ": 1997,
        "íķ´ì§Ħ": 1998,
        "ural": 1999,
        "ê¸°ëıĦ": 2000,
        "atural": 2001,
        "ëĵľëĬĶ": 2002,
        "ĠëıĦìĭľ": 2003,
        "Ġê¸°ë¶Ħ": 2004,
        "ë¥´ë©´": 2005,
        "all": 2006,
        "ë¬´": 2007,
        "Ġìī¬ìļ´": 2008,
        "Ġë§İìĿĢ": 2009,
        "ĠìĿĺëıĦ": 2010,
        "ĠëŃĲíķłê¹Į": 2011,
        "ĠëĶ±ëĶ±íķĺê²Į": 2012,
        "ëĲĺìĸ´": 2013,
        "Ġì°¾ìķĦì¤ĺ": 2014,
        "Ġìµľê·¼": 2015,
        "ĠìĿ´ìĸ´ê°ĢëıĦ": 2016,
        "ĠìĿ´ìłľë¶ĢíĦ°": 2017,
        "ĠìĦ¤ìłķ": 2018,
        "ì¦Ī": 2019,
        "Ġêº¼ëĤ´ì": 2020,
        "Ġìĸ´ìĥīíĸĪìĸ´": 2021,
        "ëŀĳìĬ¤": 2022,
        "Ġgener": 2023,
        "Ġìłķë¦¬íķ´ì¤Ħ": 2024,
        "Ġreply": 2025,
        "blox": 2026,
        "ken": 2027,
        "our": 2028,
        "íĬ": 2029,
        "Ġun": 2030,
        "ķêµ¬": 2031,
        "íķĺìĺĢëĭ¤": 2032,
        "ìĿ´ë©°": 2033,
        "Ġìłķíķ´ì§Ħ": 2034,
        "ĸ´ì£¼ëĬĶ": 2035,
        "ĠëĮĢíĻĶíķ´ëıĦ": 2036,
        "Ġê¸°ë¡Ŀ": 2037,
        "ort": 2038,
        "Ġread": 2039,
        "ë¡ĿìĬ¤": 2040,
        "íĸĪìĸ´": 2041,
        "Ġìļ°ìĦł": 2042,
        "Ġë¶Ģë¶ĦìĿĦ": 2043,
        "Ġë¨¹ìĹĪìĸ´": 2044,
        "Ġë¡ľë¸Ķ": 2045,
        "www": 2046,
        "íı¬": 2047,
        "Ġë¸ĮëĿ¼": 2048,
        "ëıħ": 2049,
        "Īë¶ĢíĦ°": 2050,
        "ìĬ¤íħľ": 2051,
        "Ġë¡ľë¸Ķë¡ĿìĬ¤": 2052,
        "LM": 2053,
        "ëĿ": 2054,
        "íĴĪ": 2055,
        "Īì¶": 2056,
        "Ġëªħ": 2057,
        "ìĿ´ëĬĶ": 2058,
        "Ġìłķíķ´": 2059,
        "Ġëĭµíķ´ë³¼ê²Į": 2060,
        "ĠëŃĺ": 2061,
        "ëĭĪë": 2062,
        "Ġëıħ": 2063,
        "Ġê¸°ë°ĺ": 2064,
        "Ġ18": 2065,
        "Ġíİ¸íķĺê³ł": 2066,
        "orp": 2067,
        "Ġê°ĢëĬ¥ìĦ±": 2068,
        "Ġì²«": 2069,
        "Ġë¬´ì": 2070,
        "ĠëıĦìĻĢì¤Ħê²Į": 2071,
        "Ġì¶ķêµ¬": 2072,
        "ĠìĭľìĬ¤íħľ": 2073,
        "Ġë©Īì¶": 2074,
        "âĢĵ": 2075,
        "ĠíķĻìĬµìĹĲ": 2076,
        "Ġì¹ľê·¼íķľ": 2077,
        "íĺķìľ¼ë¡ľ": 2078,
        "ê°ĲìĿ´": 2079,
        "Ġë°ĺë³µíķĺì§Ģ": 2080,
        "ĠìŀĲë£Įë¥¼": 2081,
        "Ġì§ģìłĦ": 2082,
        "ĠíĳľíĺĦë§Į": 2083,
        "ĠëĬĲëĤĮìĿĦ": 2084,
        "ollow": 2085,
        "ĠìĿĺë¯¸ëĬĶ": 2086,
        "ĠëıĮëł¤": 2087,
        "ì½¤": 2088,
        "alogue": 2089,
        "Ġìĭ¬ìĭ¬íķ´": 2090,
        "Ġìľłì§Ģíķĺê³ł": 2091,
        "QA": 2092,
        "ê¶": 2093,
        "ì£¼ë©´": 2094,
        "Ġ/": 2095,
        "Ġ4": 2096,
        "ĩ½": 2097,
        "Ġìº": 2098,
        "ĠëĴ¤": 2099,
        "Ġë§ĲìĿ´ëĤĺ": 2100,
        "Ġìķł": 2101,
        "ìĹĲê²Į": 2102,
        "ë¦¬ê³ł": 2103,
        "ìĦľë¶ĢíĦ°": 2104,
        "Ġëĭ¹": 2105,
        "ëŁ°": 2106,
        "Ġcle": 2107,
        "ì²´": 2108,
        "Ġìłķë¦¬íķ´ëıĦ": 2109,
        "art": 2110,
        "ĠìĦ¤ëªħíķľëĭ¤": 2111,
        "Ġwill": 2112,
        "Ġë¶ĦìľĦ": 2113,
        "íĥĿ": 2114,
        "ĠìķĪëĩ½": 2115,
        "Ġíĺ¸": 2116,
        "ĠìłľëĮĢë¡ľ": 2117,
        "Ġê±´": 2118,
        "Ġëĭ¨ìĸ´": 2119,
        "Ġhow": 2120,
        "Ġfix": 2121,
        "Ġë§ĮëĵľëĬĶ": 2122,
        "Ġì°¾ê¸°": 2123,
        "Ġë¬¸ë§¥ìĿĦ": 2124,
        "Ġëįĺìł¸ëıĦ": 2125,
        "ĠíĻķìĿ¸íķ´ìĦľ": 2126,
        "íħĮ": 2127,
        "Ġexpect": 2128,
        "Ġíģ°": 2129,
        "Ġë°ĽìķĦ": 2130,
        "ì¦ĺ": 2131,
        "Ġë¶ĻìĹ¬": 2132,
        "Ġkee": 2133,
        "ult": 2134,
        "ĠìĿ¸ê³µì§ĢëĬ¥ìĿ´": 2135,
        "ĠìĿ¸ê³µì§ĢëĬ¥ìĿĢ": 2136,
        "ĠíĻĶë©´": 2137,
        "Ġcontext": 2138,
        "Ġê°Ĳìłķ": 2139,
        "Ġë¹łë¥´ê²Į": 2140,
        "Ġexpected": 2141,
        "ew": 2142,
        "oin": 2143,
        "pic": 2144,
        "½ëĭ¤": 2145,
        "Ð¸": 2146,
        "ìĤ": 2147,
        "ĠÐ": 2148,
        "íķĦìļĶ": 2149,
        "ê²¨": 2150,
        "Ġìŀ¥": 2151,
        "ĠíĬ¹": 2152,
        "ĠíĭĢ": 2153,
        "ìĿ´ë©´": 2154,
        "Ġë§ĲìĿ´": 2155,
        "ë¥´ì": 2156,
        "ĠìĪĺëĭ¤": 2157,
        "ĠìłķíķĺìŀĲ": 2158,
        "Ġìĺ¨": 2159,
        "Ġìĺ®": 2160,
        "Ġtext": 2161,
        "ĠêµĲ": 2162,
        "Ġrepe": 2163,
        "Ġì²´": 2164,
        "Ġë³¼ì§Ģ": 2165,
        "Ġpro": 2166,
        "Ġpoin": 2167,
        "Ġëĭ¨ë§Ľ": 2168,
        "Ġë§ģíģ¬ëıĦ": 2169,
        "Ġíķ´ëıĦ": 2170,
        "Ġ199": 2171,
        "Ġìŀ¬ë£Į": 2172,
        "ìĿ´ì§Ģë§Į": 2173,
        "ĠìĹ¬ê¸°": 2174,
        "Ġê²ĥë¶ĢíĦ°": 2175,
        "íĶ¼": 2176,
        "Ġê²½ìļ°": 2177,
        "Ġê±°ê¸°ìĦľë¶ĢíĦ°": 2178,
        "Ġíģ¬": 2179,
        "ĠTell": 2180,
        "Ġíı¬íķ¨": 2181,
        "Ġright": 2182,
        "Ġìĺ¬ë¦¬": 2183,
        "Ġê³¨ëĿ¼ë³´ìŀĲ": 2184,
        "ĠìĥģíĻ©ìĹĲ": 2185,
        "Ġëĵ¤ìĸ´ê°ĢëıĦ": 2186,
        "íİĺìĿ´ì§Ģ": 2187,
        "27": 2188,
        "mar": 2189,
        "now": 2190,
        "³Ĳ": 2191,
        "ëī": 2192,
        "ìĭ¤": 2193,
        "Ġj": 2194,
        "į¼": 2195,
        "Ġì¡´": 2196,
        "Ġëł": 2197,
        "íķĻìĬµ": 2198,
        "íķĺëĦ¤": 2199,
        "Ġíŀ": 2200,
        "Ġë§ĲìĿ´ìķ¼": 2201,
        "ìķĦìļĶ": 2202,
        "ĠìķĦëĭĪë": 2203,
        "Ġwork": 2204,
        "Ġë¶Ħë¦¬": 2205,
        "Ġfollow": 2206,
        "Ġ100": 2207,
        "Ġíİ¸íķľ": 2208,
        "ĠìļĶì¦ĺ": 2209,
        "Ġêµ¬ë¶Ħ": 2210,
        "ë¶ĦìĹĲ": 2211,
        "Ġì§§ê²Įë§Į": 2212,
        "ely": 2213,
        "Ġrevi": 2214,
        "ëĮĢí": 2215,
        "Ġì¶ľ": 2216,
        "Ġë°Ķê¾": 2217,
        "Ġíķ´ê²°": 2218,
        "Ġë¬¸ìŀ¥ìĿĦ": 2219,
        "íĮĮ": 2220,
        "ĠìĦ¤ê³Ħ": 2221,
        "Ġinto": 2222,
        "Ġlogs": 2223,
        "Ġlikely": 2224,
        "ëĳĲ": 2225,
        "ëĿ½": 2226,
        "Ġreview": 2227,
        "dge": 2228,
        "fig": 2229,
        "¨ê³¼": 2230,
        "ĻĢ": 2231,
        "íķĺìĹ¬": 2232,
        "ë¡ł": 2233,
        "íķľëį°": 2234,
        "ë¦¬ë©´": 2235,
        "ine": 2236,
        "Ġì§ĳ": 2237,
        "ìĭľìķĦ": 2238,
        "ìĿ´ìĹ": 2239,
        "ëłĪë": 2240,
        "ë¶Ļ": 2241,
        "ĠëŃĲíķĺëĬĶ": 2242,
        "Ġì¢ĭê²łìĸ´": 2243,
        "Ġìłķë¦¬íķĺê±°ëĤĺ": 2244,
        "ì¶ľ": 2245,
        "Ģì§": 2246,
        "ĠìĹ´": 2247,
        "ĠìĤ¬ëĬĶ": 2248,
        "ĠëĮĢíĻĶë¥¼": 2249,
        "Ġê¸°ëĮĢíķľ": 2250,
        "Ġë²ł": 2251,
        "ìĺ¨": 2252,
        "íĥĪ": 2253,
        "ence": 2254,
        "Ġhere": 2255,
        "Ġë¹ĦêµĲ": 2256,
        "Ġhello": 2257,
        "íĶĮ": 2258,
        "Ġìĺ¤ë¥ĺê°Ģ": 2259,
        "Ġê·Ģ": 2260,
        "Ġknow": 2261,
        "Ġë¶ĪíķĦìļĶ": 2262,
        "vers": 2263,
        "Ġíıīê°Ģ": 2264,
        "Ġrepeat": 2265,
        "ĠìķĦëĭĪëĿ¼": 2266,
        "Ġë¶ĪíķĦìļĶíķľ": 2267,
        "13": 2268,
        "am": 2269,
        "if": 2270,
        "ix": 2271,
        "pon": 2272,
        "val": 2273,
        "§ë¶Ļ": 2274,
        "íĽĦ": 2275,
        "Ģëĵľë¦´": 2276,
        "ĺìĿĺ": 2277,
        "ĠìĪ": 2278,
        "Ġëħ": 2279,
        "ĠëĪĦ": 2280,
        "ĠíĽ": 2281,
        "ë¦½": 2282,
        "ê¸Īë¶ĢíĦ°": 2283,
        "Ġê°Ħ": 2284,
        "ĠìŀĪìľ¼ë©°": 2285,
        "Ġëįķ": 2286,
        "Ġëį§ë¶Ļ": 2287,
        "Ġì§Ģê¸Īë¶ĢíĦ°": 2288,
        "eel": 2289,
        "ong": 2290,
        "Ġcorp": 2291,
        "Ġì¢ĭê³ł": 2292,
        "ëŀĢ": 2293,
        "ĠëıĮë¦¬ì§Ģ": 2294,
        "Ġì¤ĳê°Ħ": 2295,
        "Ġfeel": 2296,
        "ĠëıĦìĻĢëĵľë¦´": 2297,
        "Ġrec": 2298,
        "ì§¸": 2299,
        "Ġì£¼ìĬ¤": 2300,
        "Ġë¬»": 2301,
        "Ġëĭ¨ìłķ": 2302,
        "Ġìĸ¸ìĸ´ë¥¼": 2303,
        "Ġnow": 2304,
        "ëĦĪ": 2305,
        "Ġì°¨ê·¼": 2306,
        "Ġë¶Ģë¶ĦìĿ´": 2307,
        "Ġthere": 2308,
        "Ġê³łì³Ĳ": 2309,
        "ĠìĿ´ìĥģíķ´": 2310,
        "row": 2311,
        "Ġlast": 2312,
        "Ġconfig": 2313,
        "Ġ200": 2314,
        "Ġste": 2315,
        "Ġëįĺìł¸ì¤ĺëıĦ": 2316,
        "unction": 2317,
        "ĠíĴĢìĸ´ì": 2318,
        "Ġë¶Īíİ¸": 2319,
        "Ġmost": 2320,
        "Ġtrace": 2321,
        "blem": 2322,
        "Ġì§ģìłĳìłģìľ¼ë¡ľ": 2323,
        "ì°¨ê·¼": 2324,
        "ìĽĢìĿĦ": 2325,
        "ĠìĿ´ìĸ´ì§Ģ": 2326,
        "Ġìłķíķ´ë³´ìŀĲ": 2327,
        "ê¶Į": 2328,
        "Ġcorpus": 2329,
        "Ġì°¨ê·¼ì°¨ê·¼": 2330,
        "AG": 2331,
        "ap": 2332,
        "han": 2333,
        "mer": 2334,
        "per": 2335,
        "port": 2336,
        "qual": 2337,
        "ym": 2338,
        "°ìĦľ": 2339,
        "´ī": 2340,
        "Ð°": 2341,
        "áĥ": 2342,
        "ĠK": 2343,
        "Ľ°": 2344,
        "Ġì¦Ŀ": 2345,
        "ĠëĽ°": 2346,
        "ìĿ´ëĦ¤": 2347,
        "ìĹ´": 2348,
        "ìĹ½ê²Į": 2349,
        "ë¦¬ëĬĶ": 2350,
        "ë¦¬ëıĦë¡Ŀ": 2351,
        "ê°ĢëĬĶ": 2352,
        "inue": 2353,
        "Ģíĭ°": 2354,
        "Ġì§Ħ": 2355,
        "Ġë³Ģ": 2356,
        "Ġë³ĳ": 2357,
        "ĠìĦ±": 2358,
        "ĠëŃĲëĵł": 2359,
        "íķĺê²ĮëıĦ": 2360,
        "ĠìŀĲê¸°": 2361,
        "Ġìłķë¦¬íķĺë©´": 2362,
        "Ġìłķë¦¬íķ´ìĦľ": 2363,
        "Ġìłķë¦¬íķ´ë³¼ê²Į": 2364,
        "ĠìĽĲë¦¬": 2365,
        "Ġë³´ìĿ´ì§Ģ": 2366,
        "ĠìĦ¤ëªħìĿĢ": 2367,
        "ëŀľ": 2368,
        "Ġì§Ģê¸Īì²ĺëŁ¼": 2369,
        "ĠëĮĢíĻĶì²ĺëŁ¼": 2370,
        "Ġfunction": 2371,
        "íĺĢ": 2372,
        "ë³¼ê²ĮìļĶ": 2373,
        "Ġì¤ĦìĿ¼ê²Į": 2374,
        "ë°©": 2375,
        "ë°į": 2376,
        "Ġìĸ´ë¦°": 2377,
        "íŀĮ": 2378,
        "Ġì²Ń": 2379,
        "Ġëľ»ìĿ´ì§Ģë§Į": 2380,
        "ê°Īë¦¬ë©´": 2381,
        "Ġê¶ģê¸ĪíķĺëĦ¤": 2382,
        "ĠíĻľ": 2383,
        "Ġìĸĺê¸°íķĺìŀĲ": 2384,
        "Ġë°Ķê¿Ģ": 2385,
        "Ġê³łë¯¼": 2386,
        "Ġê³łë¥´ë©´": 2387,
        "ĠëĶ±ëĶ±íķĺë©´": 2388,
        "Ġë°Ķê¿Ķë³¼ê²Į": 2389,
        "Ġë¬¸ìłľìłĲ": 2390,
        "Ġë©Ķëī": 2391,
        "Ġëĵ¤ë¦¬ëıĦë¡Ŀ": 2392,
        "ĠìĿ´ìķ¼ê¸°íķł": 2393,
        "ĠìĿ´ìķ¼ê¸°íķ´ì¤ĺ": 2394,
        "ĠìĿ´íķ´íķĺê³ł": 2395,
        "ĠëĤłìĶ¨ëĬĶ": 2396,
        "ëª¨ë¦¬": 2397,
        "ëª¨ì§Ģ": 2398,
        "ĠìĻľ": 2399,
        "Ġìµľì": 2400,
        "Ġë²Īë§Į": 2401,
        "Ġë²ĪìĹŃ": 2402,
        "ĠìĿ´ìĸ´ê°Ģê³ł": 2403,
        "Ġìĺ¤ëŀľë§ĮìĿ´ëĦ¤": 2404,
        "ĠíħĮ": 2405,
        "íĶ½": 2406,
        "íķĻêµĲ": 2407,
        "Ġë§īíŀĮ": 2408,
        "Ġë¶ĻìĿ¼ê²Į": 2409,
        "ĠìĿĳëĭµìĿ´": 2410,
        "ĠíķĺëĬĶê±°": 2411,
        "Ġë°°ìļ°ê³ł": 2412,
        "ĠëĬĲëĤĮìĿ´": 2413,
        "Ġë¶ĢëĵľëŁ½ê³ł": 2414,
        "Ġê³¨ëĿ¼ì¤ĺ": 2415,
        "Ġê°ľëħĲë¶ĢíĦ°": 2416,
        "Ġìłķë¦¬íķłê²ĮìļĶ": 2417,
        "ì¤ĳíķĺê³ł": 2418,
        "Ġcontinue": 2419,
        "Ġíĸī": 2420,
        "ìħĺ": 2421,
        "Ġì±Ļê²¼ìĸ´": 2422,
        "Ġì±Ļê²¼ìľ¼ë©´": 2423,
        "ĠìĭĿìĤ¬íĸĪëĬĶì§Ģ": 2424,
        "Ġê·¸ìª½ìľ¼ë¡ľ": 2425,
        "Ġof": 2426,
        "Ġê¸°ê³Ħìłģìľ¼ë¡ľ": 2427,
        "Ġë§ĽìĿ´": 2428,
        "ĠíĹ·ê°Īë¦¬ë©´": 2429,
        "Ġêº¼ëĤ´ì¤ĺ": 2430,
        "Ġë©Īì¶°ìĦľ": 2431,
        "ĠëĴ¤ìĹĲ": 2432,
        "Ġproblem": 2433,
        "Ġì§ĳì¤ĳíķĺê³ł": 2434,
        "Ġê·ĢìĹ½ê²Į": 2435,
        "Ġëįķë¶ĦìĹĲ": 2436,
        "Ġëį§ë¶ĻìĿ¼ê²Į": 2437,
        "Ġì¤ĳê°ĦìĹĲ": 2438,
        "Ġëĭ¨ìłķíķĺê²ĮëıĦ": 2439,
        "Ġê³łì³Ĳì¤Ħê²Į": 2440,
        "Ġë¶Īíİ¸íķľ": 2441,
        "ĠìĿ´ìĸ´ì§ĢëıĦë¡Ŀ": 2442,
        "quality": 2443,
        "Ġê³łë¯¼ìĿ´ëĤĺ": 2444,
        "Model": 2445,
        "``": 2446,
        "as": 2447,
        "¿ł": 2448,
        "Ġ\"": 2449,
        "Ġ9": 2450,
        "ĠJ": 2451,
        "Īëĭ¤": 2452,
        "ĸĳ": 2453,
        "ĺìĿĮ": 2454,
        "Ġì¤ĺ": 2455,
        "Ġë°Ģì": 2456,
        "Ġë§Ĳë§Į": 2457,
        "ìĦłì": 2458,
        "ë¦¼": 2459,
        "Ġê°Ī": 2460,
        "ìļ¸": 2461,
        "Ġíķ©": 2462,
        "Ġì§Ģë£¨": 2463,
        "ĠëĭµìĿĢ": 2464,
        "Ġë¶ģ": 2465,
        "Ġê·¸ê²Į": 2466,
        "Ġê·¸ê±´": 2467,
        "ĠëŃĲê°Ģ": 2468,
        "atter": 2469,
        "Ġcom": 2470,
        "ëĭ¹": 2471,
        "Ġë°©ìĭĿ": 2472,
        "Ġ11": 2473,
        "Ġìĸ¸": 2474,
        "Ġmatter": 2475,
        "ë°ľ": 2476,
        "Ġë°©íĸ¥ê¹Įì§Ģ": 2477,
        "Ġìª½ìĿ´": 2478,
        "Ġìłľê³µ": 2479,
        "Ġíķłê¹Į": 2480,
        "ĠìĿ¸êµ¬": 2481,
        "ĠìķĦëĭĪìķ¼": 2482,
        "ĠìĺĪë¥¼": 2483,
        "Ġ197": 2484,
        "ê°Ĳìłķ": 2485,
        "Ġë²Ħë¦¬ê³ł": 2486,
        "ĠëĬĲëł¤": 2487,
        "Ġë¬¸êµ¬ì²ĺëŁ¼": 2488,
        "Ġëĸ¨": 2489,
        "Ġë¯¸êµŃìĿĺ": 2490,
        "Ġëĭ¨ê³Ħë³Ħ": 2491,
        "Ġì§ļìĸ´": 2492,
        "Ġìĺ¬ë¦¬ëł¤ë©´": 2493,
        "15": 2494,
        "able": 2495,
        "che": 2496,
        "fa": 2497,
        "ns": 2498,
        "te": 2499,
        "|--": 2500,
        "¤Ģëĭ¤": 2501,
        "íį¼": 2502,
        "ĠØ": 2503,
        "ĠTh": 2504,
        "ĠãĢĬ": 2505,
        "łëıĦ": 2506,
        "ìĿ´ëŀĳ": 2507,
        "ëĭ¤ê³ł": 2508,
        "ì§Ģë§Į": 2509,
        "Ġìłķë³´ì": 2510,
        "ëĤĺëĬĶ": 2511,
        "Ġê·¸ëŀĺ": 2512,
        "ĠìĽĢì§": 2513,
        "Ġë§ŀê²Į": 2514,
        "ĠìĿ´ëŁ°": 2515,
        "Ġë³´ë©´ìĦľ": 2516,
        "ĠìłĦê¸°": 2517,
        "ëĤľ": 2518,
        "êµ¬ìķ¼": 2519,
        "lock": 2520,
        "ĠëĤĺë¬´ìĹĲìĦľ": 2521,
        "ĠìĿ¼ë³¸ìĸ´": 2522,
        "ìĸ´ìķ¼": 2523,
        "ë¯¸ê°Ģ": 2524,
        "ĠíĮĮìĿ´ìį¬ëıĦ": 2525,
        "Ġì½ĶëĵľëĤĺ": 2526,
        "Ġìī½ëĭ¤": 2527,
        "Ġìĭľê¸°ë¥¼": 2528,
        "Ġë¬¸ìĦľë¥¼": 2529,
        "ĠíĿĲë¦ĦìĿĦ": 2530,
        "ìĪĺë¡Ŀ": 2531,
        "îĪģ,": 2532,
        "Ġì¡°ê°ģ": 2533,
        "Ġê°ľìĿĺ": 2534,
        "Ġnatural": 2535,
        "ĠìĿĮë°ĺ": 2536,
        "ĠíĶĦëŀĳìĬ¤": 2537,
        "Ġë°°ì¹ĺ": 2538,
        "Ġì°¨ìĿ´ì": 2539,
        "roblox": 2540,
        "ëª¨ëį¸": 2541,
        "Ġìłģìĸ´ì£¼ë©´": 2542,
        "ĠëĳĲ": 2543,
        "very": 2544,
        "ĠìĤ¬ìļ©íķĺëĬĶ": 2545,
        "ĠìĨįëıĦë¥¼": 2546,
        "ĠìĿ´ë¦ĦìĿ´ìķ¼": 2547,
        "Ġê·ľì¹ĻìĿĦ": 2548,
        "ĠìĺĪì¸¡íķĺëĬĶ": 2549,
        "ëª©": 2550,
        "Ġì¢ģíĺĢ": 2551,
        "ĠëıħìĿ¼": 2552,
        "ìĤŃ": 2553,
        "Ġìŀ¬ë£Įë¡ľëıĦ": 2554,
        "ĠëĪĦêµ¬ìķ¼": 2555,
        "|---": 2556,
        "11": 2557,
        "ag": 2558,
        "ase": 2559,
        "avi": 2560,
        "fer": 2561,
        "ª¼": 2562,
        "«ìŀĲ": 2563,
        "¶Ģ": 2564,
        "ëĴ¤": 2565,
        "ħĺ": 2566,
        "ĵë§Ĳë¡ľ": 2567,
        "Ġìª¼": 2568,
        "ans": 2569,
        "Ġë§¥": 2570,
        "ĠíĶ": 2571,
        "Ġë§ĲëıĦ": 2572,
        "Ġë§Ĳë¡ľëıĦ": 2573,
        "ê°ķ": 2574,
        "Ġìķ±": 2575,
        "ë§ģ": 2576,
        "Ġìłķíķĺë©´": 2577,
        "ëĤĺë¬´ìĹĲìĦľ": 2578,
        "Ġë³´ìĹ": 2579,
        "ìĿ´ìħĺ": 2580,
        "ìĿ¼ë¡ľëıĦ": 2581,
        "ê³¼ìĿ¼ë¡ľëıĦ": 2582,
        "ĠìĿ´ëª¨ì§Ģ": 2583,
        "cture": 2584,
        "Ġë°ĺë§Ĳë¡ľ": 2585,
        "ĠìķĦì¹": 2586,
        "ĠìķĦìĤŃ": 2587,
        "ĠëĮĢíĻĶìĹĲìĦľëĬĶ": 2588,
        "Ġfast": 2589,
        "Ġsm": 2590,
        "Ġsu": 2591,
        "Ġìĺ¤ê°Ħ": 2592,
        "ĠìłĦê¸°ë¥¼": 2593,
        "Ġì¤Ħê²Į": 2594,
        "Ġêµ¬ê¸Ģ": 2595,
        "ĠìķĪë¶Ģ": 2596,
        "Ġì²ĺìĿĮ": 2597,
        "Ġëª¨ëį¸ëıĦ": 2598,
        "Ġëľ»íķĺê±°ëĤĺ": 2599,
        "íŀĪê³ł": 2600,
        "Ġë¶ĦìĦĿíķĺê±°ëĤĺ": 2601,
        "Ġë¶ĦìĦĿìĿ´ëĤĺ": 2602,
        "ëĮĵë§Ĳë¡ľ": 2603,
        "Ġë³¼ìĪĺë¡Ŀ": 2604,
        "Ġë§ŀì¶ľê²ĮìļĶ": 2605,
        "ĠíĮĮìĿ´ìį¬ìĿĢ": 2606,
        "ĠìĥĿê³¼ìĿ¼ë¡ľëıĦ": 2607,
        "ĠìĤ¬ê³¼ëĤĺë¬´ìĹĲìĦľ": 2608,
        "ĠíķĻìĬµíķł": 2609,
        "Ġëĭµë³ĢìĿ´": 2610,
        "Ġblock": 2611,
        "Ġì¡°íļĮ": 2612,
        "ëŀĺë°į": 2613,
        "ĠìķĦëĭĪì§Ģ": 2614,
        "ĠìĿĮìĦ±": 2615,
        "ĠìķŀëĴ¤": 2616,
        "ĠìĺĪìłľ": 2617,
        "Ġíķ´ë³¼ê¹Į": 2618,
        "Ġ194": 2619,
        "Ġì°¨ìĿ´ìķ¼": 2620,
        "ĠìĿ´ìķ¼ê¸°ê¹Įì§Ģ": 2621,
        "ĠìĿ´íķ´íķĺë©´": 2622,
        "Ġload": 2623,
        "Ġë°ĺë³µíķ´ìĦľ": 2624,
        "Ġëĭ¬ëĿ¼": 2625,
        "Ġë²ĶìľĦë¥¼": 2626,
        "Ġë¨¹ìĸ´": 2627,
        "ģìĿ´ëıĦë¡Ŀ": 2628,
        "ê°ľìĦľ": 2629,
        "ĠëıĦêµ¬ë¥¼": 2630,
        "Ġstart": 2631,
        "Ġê³µê°Ĳ": 2632,
        "ĠìĭĿê°ĲìĿ´": 2633,
        "Ġë¡ľëĶ©": 2634,
        "ìĨĮë¦¬": 2635,
        "ìĸµ": 2636,
        "Ġë¬¸ë²ķìĿ´": 2637,
        "Ġìĵ°ìĹ¬": 2638,
        "Ġë´Ĳì¤ĺ": 2639,
        "Ġìłģìĸ´ìĦľ": 2640,
        "Ġë©Ķìĭľì§Ģë¥¼": 2641,
        "ĠíĶĦë¡ľê·¸ëŀĺë°į": 2642,
        "Ġë°°ìļ°ëĬĶ": 2643,
        "Ġdire": 2644,
        "Ġdialogue": 2645,
        "Ġì²ĺë¦¬íķł": 2646,
        "Ġë§Įëĵ¤ê±°ëĤĺ": 2647,
        "ĠëĶĶìłĢíĬ¸ë¡ľëıĦ": 2648,
        "Ġì§ģìłĳìłģìĿ¸": 2649,
        "Ġê·ľì¹Ļê³¼": 2650,
        "ĠìĿµíŀĪëĬĶ": 2651,
        "ĠìĿµíŀĪê³ł": 2652,
        "Ġìŀħëł¥ìĹĲ": 2653,
        "ĠìłĦë¥ĺê°Ģ": 2654,
        "ĠìłĦë¥ĺë¥¼": 2655,
        "Ġë°°ìĽĮìĦľ": 2656,
        "Ġì»´íĵ¨íĦ°ê°Ģ": 2657,
        "Ġì»´íĵ¨íĦ°ìĹĲê²Į": 2658,
        "Ġì¤ĦìĹ¬ê°ĢëĬĶ": 2659,
        "ĠìĤ°ë¯¸ê°Ģ": 2660,
        "Ġê¸ĢìŀĲìĿ¼": 2661,
        "Ġevery": 2662,
        "Ġê¸¸ê²Į": 2663,
        "Ġê¸°ë¡Ŀì²ĺëŁ¼": 2664,
        "Ġkeep": 2665,
        "ĠíĭĢë¦°": 2666,
        "Ġëĭ¨ë§Ľê³¼": 2667,
        "Ġì¡´ëĮĵë§Ĳë¡ľ": 2668,
        "ĠëłĪ": 2669,
        "ĠíŀĺìĿĺ": 2670,
        "ĠìĪ«ìŀĲ": 2671,
        "ĠìĽĲë¦¬ëĿ¼ê³ł": 2672,
        "ëŀľëĵľ": 2673,
        "Ġë²ĪìĹŃëıĦ": 2674,
        "Ġë°Ģìĸ´ì£¼ëĬĶ": 2675,
        "Ġê°Īê²Į": 2676,
        "Ġìĸ¸ìĸ´ìķ¼": 2677,
        "Ġìłķë³´ìķ¼": 2678,
        "Ġê·¸ëŀĺìĦľ": 2679,
        "ĠìĽĢì§ģìĿ´ëıĦë¡Ŀ": 2680,
        "ĠìłĦê¸°ìłģìĿ¸": 2681,
        "Ġì¡°ê°ģìĿ¼": 2682,
        "Ġì°¨ìĿ´ì²ĺëŁ¼": 2683,
        "Ġìª¼ê°ľìĦľ": 2684,
        "Ġë³´ìĹ¬": 2685,
        "ĠìķĦì¹¨": 2686,
        "ĠìķĦìĤŃíķľ": 2687,
        "ĠìķĪë¶ĢìĹĲëĬĶ": 2688,
        "\",": 2689,
        "10": 2690,
        "for": 2691,
        "havi": 2692,
        "ut": 2693,
        "way": 2694,
        "ì¡": 2695,
        "ì´": 2696,
        "ìĪľ": 2697,
        "íĿ": 2698,
        "ĠU": 2699,
        "Ġat": 2700,
        "Ġuse": 2701,
        "ĠëŁ": 2702,
        "Ġê·¼": 2703,
        "ang": 2704,
        "ssing": 2705,
        "ĠìŀĦ": 2706,
        "ìĦ¼": 2707,
        "ìŀĦ": 2708,
        "ìŀħ": 2709,
        "ledge": 2710,
        "Ġì§Ģëĥ": 2711,
        "Ġëĭ¤ìĸĳ": 2712,
        "Ġì¢ħ": 2713,
        "Ġchan": 2714,
        "Ġê°ĢëıĦ": 2715,
        "ĠìķĦë¬´": 2716,
        "Ġwhen": 2717,
        "ĠëĤ®": 2718,
        "ìĺĢ": 2719,
        "ìĺĪ": 2720,
        "ë²¨": 2721,
        "ë¯¸íĦ°": 2722,
        "Ġëľ»ìľ¼ë¡ľ": 2723,
        "ĠíĿĲë¦Ħìľ¼ë¡ľ": 2724,
        "Ġìļ°ìĦłì": 2725,
        "Ġaway": 2726,
        "Ġtopic": 2727,
        "Ġìĭ¤íĸī": 2728,
        "Ġ198": 2729,
        "ĪľìľĦ": 2730,
        "ì£¼ìĿĺ": 2731,
        "Ġê³łìĸĳ": 2732,
        "Ġë¬¸ë§¥ìĿ´": 2733,
        "Ġconvers": 2734,
        "ĠìĪľìĦľë¥¼": 2735,
        "Ġì§ĢìĹŃìĿ´": 2736,
        "Ġê²½ë¡ľ": 2737,
        "Ġë¬¸êµ¬ë¥¼": 2738,
        "izer": 2739,
        "ëĲľëĭ¤": 2740,
        "ĠìĥĪì½¤": 2741,
        "ĠìĥĿê°ģëĤĺëĬĶ": 2742,
        "Ġíĥľ": 2743,
        "Ġbehavi": 2744,
        "ĠìĦłíĥĿ": 2745,
        "ĠFor": 2746,
        "ther": 2747,
        "ĠíĨµíķ´": 2748,
        "Ġì¤ĦìĿ´ê³ł": 2749,
        "íĹĺ": 2750,
        "ĠëĨĴ": 2751,
        "Ġoutputs": 2752,
        "kenizer": 2753,
        "íĬ¼": 2754,
        "Ġclean": 2755,
        "Ġêµ¬ë¶Ħíķ´ìĦľ": 2756,
        "Ġsteps": 2757,
        "ĠThat": 2758,
        "Ġë§¥ëĿ½": 2759,
        "Ġsmall": 2760,
        "Ġdirect": 2761,
        "Ġchange": 2762,
        "Ġìļ°ìĦłìĪľìľĦ": 2763,
        "Ġconversation": 2764,
        "Ġbehavior": 2765,
        "16": 2766,
        "ab": 2767,
        "ack": 2768,
        "ful": 2769,
        "id": 2770,
        "ky": 2771,
        "og": 2772,
        "ok": 2773,
        "ore": 2774,
        "ust": 2775,
        "±ħ": 2776,
        "ì»": 2777,
        "ŀĳ": 2778,
        "łĢ": 2779,
        "ê²©": 2780,
        "ìłĪ": 2781,
        "ë¦Ń": 2782,
        "ìĹĲëıĦ": 2783,
        "lear": 2784,
        "Ġturn": 2785,
        "Ġì§Ģìłķ": 2786,
        "Ġëĭµíķĺê³ł": 2787,
        "ëŁ½": 2788,
        "ì¶ĺ": 2789,
        "Ġê¸Ī": 2790,
        "ĠìĹ´ì": 2791,
        "Ġthen": 2792,
        "ĠëıĦìĽĢìĿĦ": 2793,
        "Ġsym": 2794,
        "ë°Ľ": 2795,
        "Ġì°¸": 2796,
        "isky": 2797,
        "Ġìª½ìĹĲ": 2798,
        "Ġìĭľìŀĳ": 2799,
        "Ġë¬¸ìĦľëıĦ": 2800,
        "Ġëĵľ": 2801,
        "êµŃìĿĺ": 2802,
        "ĠìĿ¸ìĤ¬": 2803,
        "ptom": 2804,
        "Ġno": 2805,
        "ĠëĮĢíķľ": 2806,
        "ëªħìĿĦ": 2807,
        "ê³µê°Ĳ": 2808,
        "ĠìŀĪìĸ´ìķ¼": 2809,
        "ently": 2810,
        "Ġë¬¸ìłľë¥¼": 2811,
        "Ġì£¼ìłľë¥¼": 2812,
        "ĠëĤłìĶ¨ë¥¼": 2813,
        "Ġë¯¼": 2814,
        "Ġlow": 2815,
        "Ġlook": 2816,
        "ĠëķĮëĬĶ": 2817,
        "Ġshare": 2818,
        "ummar": 2819,
        "ĠìĿĮìķħìĿĢ": 2820,
        "ĠRo": 2821,
        "ĠWhen": 2822,
        "ë¸Į": 2823,
        "ìĨĮê°ľ": 2824,
        "ĠëģĿ": 2825,
        "íļį": 2826,
        "ĠëĶ°ëĿ¼ê°Ģ": 2827,
        "ĠëıĻìŀĳ": 2828,
        "Ġrisky": 2829,
        "ĠíĴĪì¢ħ": 2830,
        "ĠíħįìĬ¤íĬ¸ë¡ľ": 2831,
        "Ġìĺ¬ë¦¼": 2832,
        "Ġìµľìĭł": 2833,
        "ĠíĴĪì§ĪìĿ´": 2834,
        "íķĺê¸°ë³´ëĭ¤": 2835,
        "ĠìĿ¼ë³¸ìĸ´ì": 2836,
        "Ġresult": 2837,
        "Ġêº¼ëĤ´ëıĦ": 2838,
        "Ġoutput": 2839,
        "Ġchecks": 2840,
        "Ġscreenshots": 2841,
        "Ġìĸ´ëĶĶê°Ģ": 2842,
        "Ġgeneric": 2843,
        "ĠìĭľìĬ¤íħľìĿĦ": 2844,
        "ĠìºĲ": 2845,
        "Ġë°Ķê¾¼": 2846,
        "Ġknowledge": 2847,
        "ixed": 2848,
        "ponse": 2849,
        "ĠìŀĲê¸°ìĨĮê°ľ": 2850,
        "Ġëĸ¨ìĸ´ëıĦ": 2851,
        "Ġdirectly": 2852,
        "Ġchanged": 2853,
        "Ġsymptom": 2854,
        "Ġìĺ¬ë¦¼íĶ½": 2855,
        "bug": 2856,
        "rs": 2857,
        "ub": 2858,
        "ues": 2859,
        "£¨": 2860,
        "´ë³¼ê²Į": 2861,
        "ë¨": 2862,
        "ĠN": 2863,
        "Ĭ¤ë": 2864,
        "İ´ë³¼ê²Į": 2865,
        "ĻìķĦ": 2866,
        "Ġì¸": 2867,
        "Ġê¹": 2868,
        "ê²¬": 2869,
        "ìĿ´ëĿ¼ê³ł": 2870,
        "ìĿ´ê¸°ëıĦ": 2871,
        "ê°ĻìķĦ": 2872,
        "Ġìķ½": 2873,
        "ìķĦê°Ģ": 2874,
        "ind": 2875,
        "Ġìłķíķĺì§Ģ": 2876,
        "ìĿ´ìĬ¤": 2877,
        "ìĿ´ìŀĲ": 2878,
        "ê¸°ê±°ëĤĺ": 2879,
        "Ġì§ĢìĹ°": 2880,
        "íķ´ì¤ĺëıĦ": 2881,
        "ìĿ¸íĬ¸": 2882,
        "ìĿ¸ëį°": 2883,
        "ĠëĮĢì": 2884,
        "ëŁī": 2885,
        "ìĿ¼ë³¸ìĸ´": 2886,
        "ëĭī": 2887,
        "Ġë§ŀìľ¼ë©´": 2888,
        "ĠìĦ¤ëªħì²ĺëŁ¼": 2889,
        "ĠìĦ¤ëªħíĺķìľ¼ë¡ľ": 2890,
        "ìĬ¤íģ¬": 2891,
        "ìĿ´íĶĦ": 2892,
        "Ġ12": 2893,
        "ê¹ħ": 2894,
        "Ġsp": 2895,
        "Ġspe": 2896,
        "Ġsummar": 2897,
        "ĠìĺģíĻĶ": 2898,
        "ĠíķĺëĤĺìķ¼": 2899,
        "Ġëª¨ëį¸ìĿĦ": 2900,
        "ĠìłľíĴĪ": 2901,
        "ĠëĬĺë¦¬": 2902,
        "Ġë©Ģíĭ°": 2903,
        "ĠìĿ¸ìłķ": 2904,
        "ĠìļĶì²ŃëıĦ": 2905,
        "ìĭĿë§Į": 2906,
        "ĠëĦĪëŀĳ": 2907,
        "Ġê²Ģì¦Ŀ": 2908,
        "ë¦°ì§Ģ": 2909,
        "Ġì°¾ëĬĶ": 2910,
        "ĠíĺķìĭĿë§Į": 2911,
        "ë¹Ļ": 2912,
        "Ġë°ĺë³µíķĺê¸°ë³´ëĭ¤": 2913,
        "ĠëĬĲë¦°ì§Ģ": 2914,
        "Ġë²ĶìľĦìĹĲìĦľ": 2915,
        "ĠìłķìĿĺë¥¼": 2916,
        "ĠìĻķ": 2917,
        "rompt": 2918,
        "´íİ´ë³¼ê²Į": 2919,
        "ĠíĨ¤ê¹Įì§Ģ": 2920,
        "Ġì»¤": 2921,
        "Ġíģ´": 2922,
        "Ġëª©ë¡Ŀ": 2923,
        "plit": 2924,
        "Ġë©Ķìĭľì§ĢëıĦ": 2925,
        "ĠìļĶìķ½íķĺê±°ëĤĺ": 2926,
        "ĠìĥĿê°ģíķ´ëıĦ": 2927,
        "Ġë¶ĦëªħíŀĪ": 2928,
        "ĠíĴĢê³ł": 2929,
        "cri": 2930,
        "ĠìĿ´ë¦Ħë§Į": 2931,
        "ĠGot": 2932,
        "ë²Ħê¹ħ": 2933,
        "Ġê³Ħíļį": 2934,
        "ĠìľĦì¹ĺíķľ": 2935,
        "airs": 2936,
        "ĠìĤ´íİ´ë³¼ê²Į": 2937,
        "Ġdebug": 2938,
        "ë²łë¥´": 2939,
        "Ġë¬´ìĹĩìĿĦ": 2940,
        "Ġë¬´ìĹĩìĿ¸ì§Ģ": 2941,
        "Ġì°¾ìķĦìĦľ": 2942,
        "Ġì°¾ìķĦì¤Ħ": 2943,
        "Ġë¬´ìĬ": 2944,
        "Ġfixes": 2945,
        "Ġìĺ®ê¸°ê±°ëĤĺ": 2946,
        "Ġë¹ĦêµĲìłģ": 2947,
        "Ġê°Ħëĭ¨": 2948,
        "Ġë¬»ëĬĶ": 2949,
        "Ġfunctions": 2950,
        "Ġë¬¸ìłľìłĲìĿĦ": 2951,
        "ĠíķĺëĬĶê±°ê°ĻìķĦ": 2952,
        "Ġì§Ģìłķíķ´ì¤ĺëıĦ": 2953,
        "ĠìĿ¼ë³¸ìĸ´ì²ĺëŁ¼": 2954,
        "ĠìĦ¤ëªħíĺķìľ¼ë¡ľëıĦ": 2955,
        "Ġspeak": 2956,
        "Ġë¬´ìĹĩìĿ¸ì§ĢëıĦ": 2957,
        "25": 2958,
        "ds": 2959,
        "der": 2960,
        "est": 2961,
        "ial": 2962,
        "ri": 2963,
        "uage": 2964,
        "ëŃ": 2965,
        "ìĶ": 2966,
        "ì±ħ": 2967,
        "ĠGPT": 2968,
        "ê³¡": 2969,
        "Ġíİĺ": 2970,
        "Ġë§ĲìĿĢ": 2971,
        "ë¦¿": 2972,
        "ìŀ¡": 2973,
        "ëıĦë¡ľ": 2974,
        "Ġíķłì": 2975,
        "íķ´ë³¼": 2976,
        "íķ´ë³¼ê¹Į": 2977,
        "ìĿ´ìłĢ": 2978,
        "Ġì§ĢìĭĿìĿĦ": 2979,
        "Ġëĭµíķĺ": 2980,
        "ĠëŃĶ": 2981,
        "Ġê·¸ëĮĢë¡ľ": 2982,
        "Ġê°ĻìķĦ": 2983,
        "Ġcra": 2984,
        "ëĿ¼ìĿ¸": 2985,
        "Ġìłķë¦¬ë¥¼": 2986,
        "ìĽ¨": 2987,
        "ĠìĤ¬ì§Ħ": 2988,
        "Ġë°ĺìĿĳ": 2989,
        "ìłģìĿ´ìķ¼": 2990,
        "ìłľë¥¼": 2991,
        "sel": 2992,
        "ions": 2993,
        "Ġê¸°ìĪł": 2994,
        "łìĸ´ì": 2995,
        "Ġsplit": 2996,
        "ê²łëĭ¤ê³ł": 2997,
        "end": 2998,
        "ĠìļĶìłĲ": 2999,
        "Ġëª¨ë¥´": 3000,
        "ĠìķĮëł¤ì£¼ë©´": 3001,
        "Ġëį°ìĿ´íĦ°ê°Ģ": 3002,
        "ìłĢë¡ľ": 3003,
        "Ġëľ»íķ´": 3004,
        "Ġëľ»ìĿ¸ëį°": 3005,
        "ĠëıĦìĻĢì£¼ëĬĶ": 3006,
        "Ġê¶Į": 3007,
        "Ġë³¼ê²ĮìļĶ": 3008,
        "Ġë§İìķĦìļĶ": 3009,
        "ĠìĥĿìľ¼ë¡ľ": 3010,
        "ĠìļĶì²ŃìĿĢ": 3011,
        "Ġtokenizer": 3012,
        "ìļ°ìłĢë¡ľ": 3013,
        "Ġê°ľìĦł": 3014,
        "ĠìķĦëĭĪê³ł": 3015,
        "ĠìĹĨëĤĺ": 3016,
        "Ġìĸĺê¸°íķ´ë³¼ê¹Į": 3017,
        "ĠëĶ±ëĶ±íķ´": 3018,
        "ĠëĶ±ëĶ±íķľëį°": 3019,
        "Ġì°¨ê°ĢìĽĮ": 3020,
        "Ġë©Ķëª¨ë¦¬": 3021,
        "Ġthan": 3022,
        "Ġíĺķíĥľ": 3023,
        "ĠìĽ¹íİĺìĿ´ì§Ģ": 3024,
        "ĠSure": 3025,
        "Ġêµ¬ì¡°ë³´ëĭ¤": 3026,
        "Ġë¹Ħìļ©": 3027,
        "Ġë²Īì§¸": 3028,
        "Ġê²ĥë§Į": 3029,
        "Ġìĺ¤ëŀľë§ĮìĿ´ëĭ¤": 3030,
        "Ġìĺ¤ëŀľë§ĮìĿ´ì§Ģ": 3031,
        "Ġëĭ¤ìĿĮìĹĲ": 3032,
        "Ġì§ĢìĹŃëªħìĿĦ": 3033,
        "ë¹ĦìķĦ": 3034,
        "ĠWe": 3035,
        "ì¸ł": 3036,
        "Ġìĸ´ìĥīíĸĪìľ¼ë©´": 3037,
        "êµ°ìĤ°": 3038,
        "ĠìĽ¹ìĤ¬ìĿ´íĬ¸ëĬĶ": 3039,
        "ĠìĽ¹ìĤ¬ìĿ´íĬ¸ê°Ģ": 3040,
        "ĠëĶĶìłĢíĬ¸ìĹĲëıĦ": 3041,
        "ĠìłĲìĭ¬": 3042,
        "Ġëĵ¤ìĸ´ê°ĢìĦľ": 3043,
        "ĠìĦłíĺ¸": 3044,
        "ĠëıĮìķĦê°Ģ": 3045,
        "Ġìłķë¦¬íķ´ì£¼ëĬĶ": 3046,
        "ĠLLM": 3047,
        "ĠíĴĪì§ĪìĿĦ": 3048,
        "ĠìĭĿìĤ¬íĸĪìĸ´": 3049,
        "Ġë¶Ħë¥ĺíķĺê±°ëĤĺ": 3050,
        "Ġê¸°ê³ĦìłģìĿ´ìķ¼": 3051,
        "Ġresponse": 3052,
        "Ġêµ°ìĤ°ìĿ´ë©´": 3053,
        "Ġbugs": 3054,
        "Ġìłķë¦¬íķ´ì¤Ħê²Į": 3055,
        "Ġunn": 3056,
        "Ġë¸ĮëĿ¼ìļ°ìłĢë¡ľ": 3057,
        "Ġëĭ¹ê²¨": 3058,
        "Ð¸Ð": 3059,
        "Ġì²´ê°Ĳ": 3060,
        "Ġpoints": 3061,
        "Ġjust": 3062,
        "Ġrepeating": 3063,
        "Ġë³Ģê²½": 3064,
        "Ġì§Ģë£¨íķ´": 3065,
        "Ġmatters": 3066,
        "\",\"": 3067,
        "íĿĲ": 3068,
        "anguage": 3069,
        "Ġì§ĢëĥĪìĸ´": 3070,
        "Ġsummarize": 3071,
        "Ġê°Ħëĭ¨íŀĪ": 3072,
        "Ġíķłì¤Ħ": 3073,
        "Ġcrash": 3074,
        "ĠìļĶìłĲë§Į": 3075,
        "ĠìĽ¹íİĺìĿ´ì§ĢìĿĺ": 3076,
        "ĠëıĮìķĦê°Ģì¤ĺ": 3077,
        ")**": 3078,
        "*]": 3079,
        "LE": 3080,
        "[*]": 3081,
        "con": 3082,
        "df": 3083,
        "oc": 3084,
        "¨ë¦¬": 3085,
        "¨ìĶ": 3086,
        "»ê²Į": 3087,
        "Ñģ": 3088,
        "ģìľ¼ë¡ľ": 3089,
        "Ġì½": 3090,
        "íķŃ": 3091,
        "íķĺë©°": 3092,
        "Ġë§ĲìĹĲëĬĶ": 3093,
        "ê¸ī": 3094,
        "Ġê°ģ": 3095,
        "ĠíķĦ": 3096,
        "Ġìłķì¹ĺ": 3097,
        "ìĭľê°Ħ": 3098,
        "ê¸°ë§Į": 3099,
        "Ġê³³": 3100,
        "eed": 3101,
        "ĠëŃĲíķĺì§Ģ": 3102,
        "ì¶Ķ": 3103,
        "ĠíĮĲ": 3104,
        "ĠìĿ´íĽĦ": 3105,
        "Ġë³´ìĿ´ëĬĶ": 3106,
        "ìłģíĻĶ": 3107,
        "Ġì½Ķíį¼": 3108,
        "Ġwh": 3109,
        "Ġdel": 3110,
        "ĠìłĦìĹĲ": 3111,
        "ench": 3112,
        "ìĸ´ì¤ĺ": 3113,
        "ĠíķĺëĤĺë¥¼": 3114,
        "íŀĲ": 3115,
        "Ġíĺ¼": 3116,
        "isc": 3117,
        "Ġê°ĢëĬ¥íķ´ìļĶ": 3118,
        "ĠìłľìĿ¼": 3119,
        "Ġì½ĶëĶ©ìĿĦ": 3120,
        "ĠíĮĮìĿ¼ìĿ´ëĤĺ": 3121,
        "ĠíķĻìĬµìĿĦ": 3122,
        "Ġì¶Ķë¡ł": 3123,
        "Ġì¶Ķì¶ľ": 3124,
        "ëĦ·": 3125,
        "ëĶĶìĺ¤": 3126,
        "Ġë¬¼ìĿĢ": 3127,
        "ĠìŀĲë£Įê°Ģ": 3128,
        "ĠíĨłíģ°ìĿĦ": 3129,
        "íĦ°ë§ģ": 3130,
        "ĠëĶĶë²Ħê¹ħ": 3131,
        "ĠHi": 3132,
        "terns": 3133,
        "Ġë´ĲëıĦ": 3134,
        "Ġíı¬ìĿ¸íĬ¸": 3135,
        "Ġpatterns": 3136,
        "ults": 3137,
        "Ġê°ľëħĲìĿĦ": 3138,
        "ìĿ´ëĿ¼ëĬĶ": 3139,
        "Ġìĸ´ëĸ»ê²Į": 3140,
        "ĠêµŃê°Ģ": 3141,
        "ĠëĤĺëĪĦ": 3142,
        "ĠìłĲìĿĦ": 3143,
        "ĠìĦ¸ê³Ħ": 3144,
        "olve": 3145,
        "ĠìĹŃíķł": 3146,
        "ĠìµľìłģíĻĶ": 3147,
        "Ġê³ĦìĹ´": 3148,
        "ãĢĭ(": 3149,
        "Ġì¢ģíŀĲ": 3150,
        "Ġíļ¨ê³¼": 3151,
        "Ġë¶ĦìľĦê¸°ë¥¼": 3152,
        "Ġë¶ĦìľĦê¸°ë§Į": 3153,
        "Ġê²½ìļ°ê°Ģ": 3154,
        "ĠíĽ¨ìĶ": 3155,
        "Ġì¦Ŀìĥģ": 3156,
        "Ġnaturally": 3157,
        "ĠëŁ¬": 3158,
        "ëĭīìĬ¤": 3159,
        "Ġë¬´ìĬ¨": 3160,
        "self": 3161,
        "Ġëª¨ë¥´ê²łìĸ´": 3162,
        "Ġì½Ķíį¼ìĬ¤": 3163,
        "ĠíĽ¨ìĶ¬": 3164,
        "18": 3165,
        "100": 3166,
        "HF": 3167,
        "The": 3168,
        "js": 3169,
        "rou": 3170,
        "tra": 3171,
        "user": 3172,
        "³¼": 3173,
        "ìĨ": 3174,
        "Ġal": 3175,
        "Ġuser": 3176,
        "Įëĭ¤": 3177,
        "ĶíŀĪ": 3178,
        "íķĦ": 3179,
        "Ġê½": 3180,
        "ê²łìĸ´ì": 3181,
        "ë¡ľìļ´": 3182,
        "ìĹĪë": 3183,
        "Ġë§ĲíķĺëĬĶ": 3184,
        "ìĿĦì§Ģ": 3185,
        "ëıĦëĬĶ": 3186,
        "ĠìĪĺíĸī": 3187,
        "Ģíĺ": 3188,
        "Ġë³µ": 3189,
        "Ġê·¸ëŁ": 3190,
        "ĠìķĮê²łìĸ´ì": 3191,
        "Ġco": 3192,
        "Ġì¢ĭìĿĦì§Ģ": 3193,
        "arrow": 3194,
        "Ġë§ŀì¶Ķ": 3195,
        "ëŀµ": 3196,
        "Ġë°ĺê°Ģ": 3197,
        "ëįĺ": 3198,
        "Ġfind": 3199,
        "Ġsc": 3200,
        "Ġsolve": 3201,
        "íĥĦ": 3202,
        "Ġë¨¸": 3203,
        "ëĭĪìķĦ": 3204,
        "Ġêµ¬ìĦ±": 3205,
        "ĠíĿĶíŀĪ": 3206,
        "ì¹Ń": 3207,
        "Ġìłľìĭľ": 3208,
        "Ġì½ĶëĶ©ìĿ´": 3209,
        "ĠíĿĲë¦Ħê¹Įì§Ģ": 3210,
        "ĠìĤ¬ê³¼ë¥¼": 3211,
        "ĠíķĻìĬµìĿ´": 3212,
        "ĠìļĶì²ŃìĿ´ëĿ¼": 3213,
        "Ġbad": 3214,
        "Ġbut": 3215,
        "ptim": 3216,
        "Ġnarrow": 3217,
        "ĠíĻĪ": 3218,
        "ĠìĹĨëĬĶ": 3219,
        "ĠëĮĢìĭł": 3220,
        "ĠëĮĢíķĻêµĲ": 3221,
        "Ġê°ķìķĦì§Ģë¥¼": 3222,
        "Ġíķ´ìĦ": 3223,
        "Ġ196": 3224,
        "Ġë¬¼ìľ¼ë©´": 3225,
        "Ġë°ĺë³µë³´ëĭ¤": 3226,
        "´ìłģ": 3227,
        "Ġlanguage": 3228,
        "ĠìĻĢ": 3229,
        "ìĦłìĿĺ": 3230,
        "Ġcoding": 3231,
        "ë¶Ģë¥¼": 3232,
        "Ġê²ĥìĿ´": 3233,
        "Ġ202": 3234,
        "ign": 3235,
        "ĠíĨłíģ°ìĿ´": 3236,
        "Ġë³´ì§Ģ": 3237,
        "Ġìĥģíĥľë¥¼": 3238,
        "ĠëĺĲíķľ": 3239,
        "ĠìłĦìķķìĿ´": 3240,
        "ĠìłĦìķķìĿĦ": 3241,
        "Ġë´Ĳìķ¼": 3242,
        "ìĿ´ëĿ¼ë©´": 3243,
        "ĠìĥĪë¡ľìļ´": 3244,
        "íıī": 3245,
        "ĠíĴĢìĸ´ëıĦ": 3246,
        "Ġitself": 3247,
        "Ġë¸Į": 3248,
        "ĠìĬ¤íģ¬ë¦°ìĥ·ìĿĢ": 3249,
        "Ġoptim": 3250,
        "Ġìĸ´ëĶĶë¶ĢíĦ°": 3251,
        "###": 3252,
        "ìķĺëĭ¤": 3253,
        "ĠìĿĺëıĦìĹĲ": 3254,
        "Ġìļ°ìĦłíķľëĭ¤": 3255,
        "Ġê°ĢëĬ¥ìĦ±ìĿ´": 3256,
        "ëĮĢíĻĶ": 3257,
        "Ġëħ¸": 3258,
        "ĠíĴĢìĸ´ì¤Ģëĭ¤": 3259,
        "ĠëĽ°ìĸ´": 3260,
        "Ġë©Ķëī´": 3261,
        "Ġëĭ¨ê³Ħë³Ħë¡ľ": 3262,
        "|---|---": 3263,
        "Ġsup": 3264,
        "Ġloading": 3265,
        "ĠëĤ®ì¶ĺ": 3266,
        "ĠìĥĪì½¤íķľ": 3267,
        "ë¨¼": 3268,
        "Ġdelay": 3269,
        "Ġíĺ¼íķ©": 3270,
        "ĠëĤĺëĪĦë©´": 3271,
        "Ġê·¸ëŁ´": 3272,
        "ĠìķĮê²łìĸ´ìļĶ": 3273,
        "Ġoptimize": 3274,
        "ĠëĤ®ì¶ĺëĭ¤": 3275,
        "17": 3276,
        "FT": 3277,
        "PO": 3278,
        "RAG": 3279,
        "bee": 3280,
        "cl": 3281,
        "gh": 3282,
        "mat": 3283,
        "ment": 3284,
        "ose": 3285,
        "purple": 3286,
        "rans": 3287,
        "sk": 3288,
        "ull": 3289,
        "£ł": 3290,
        "¹Ħ": 3291,
        "Ùħ": 3292,
        "ë´ī": 3293,
        "íĦ´": 3294,
        "Ġse": 3295,
        "Ġ--": 3296,
        "ĠQA": 3297,
        "Ģëĵ": 3298,
        "ĭĪ": 3299,
        "ķĦ": 3300,
        "Ŀê°Ģ": 3301,
        "´ì§Ģ": 3302,
        "ìĹ¼": 3303,
        "ê°Ĵ": 3304,
        "ê¸´": 3305,
        "ê¸ĭ": 3306,
        "Ġìķ¼": 3307,
        "ë¦¬íĬ¸": 3308,
        "ì§Ģë¥¼": 3309,
        "ìĬĪ": 3310,
        "ìľ¼ëĤĺ": 3311,
        "ĢíĨ": 3312,
        "Īëł": 3313,
        "Īëł¸": 3314,
        "Ġë³¸": 3315,
        "ëł¬": 3316,
        "Ġê°Ģê¹Į": 3317,
        "ëĭ¬": 3318,
        "ëĿ¼ë¹ĦìķĦ": 3319,
        "ĠìĿ´íĥĪ": 3320,
        "íķłê²ĮìļĶ": 3321,
        "set": 3322,
        "ĠìŀĲìĹ°ìĸ´": 3323,
        "ĠíĮĮëıĦ": 3324,
        "Ġì¤ĳë³µ": 3325,
        "Ġê¸°ìĸµ": 3326,
        "Ġsour": 3327,
        "Ġsam": 3328,
        "oun": 3329,
        "Ġdisc": 3330,
        "ĠìļĶêµ¬": 3331,
        "Ġêµ¬ê°Ħ": 3332,
        "ëħĦìĹĲ": 3333,
        "Ġìª½ìĿĢ": 3334,
        "Ġì¹´": 3335,
        "Ġìĭľê°Ħ": 3336,
        "Ġpre": 3337,
        "Ġëĭ¨ê³Ħë¥¼": 3338,
        "Ġëĭ¨ìĪľ": 3339,
        "ĠAl": 3340,
        "Ġhi": 3341,
        "ĠìĿ¸íĦ°": 3342,
        "Ġav": 3343,
        "ëĲĺëĬĶ": 3344,
        "Ġìŀ¡ê³ł": 3345,
        "Ġìŀ¬íĺĦ": 3346,
        "Ġìļ°ë¦¬ê°Ģ": 3347,
        "ĠìĿ´ìĥģíķľ": 3348,
        "ĠìĿ´ìĥģíĸĪëĬĶì§Ģ": 3349,
        "Ġanswering": 3350,
        "ĠìĿ½ìĿĦ": 3351,
        "ĠìłľìķĪíķľëĭ¤": 3352,
        "íĮĢ": 3353,
        "Ġë¡ľëĵľ": 3354,
        "ì¸µ": 3355,
        "ëį°ìĿ´íĦ°": 3356,
        "Ġë°ĽìĿĦ": 3357,
        "Ġë°ĽëĬĶëĭ¤": 3358,
        "Ġëª©ìĨĮë¦¬": 3359,
        "Ġì§ĢìłĲìĿĦ": 3360,
        "Ġì§ĢìłĲìĹĲ": 3361,
        "ĠìĹ°ê²°": 3362,
        "ĠìĨįíķĺëĬĶ": 3363,
        "íİĺìĿ¸": 3364,
        "Ġê°Ĳëıħ": 3365,
        "íķĺëĭ¤ê³ł": 3366,
        "ĠíķľêµŃìĸ´ë¡ľ": 3367,
        "ĠëĿ¼ë²¨": 3368,
        "Ġìĭłíĺ¸": 3369,
        "Ġê²°ê³¼ë¥¼": 3370,
        "Ġì§ļìĸ´ì£¼ë©´": 3371,
        "ĠìķłëĭĪ": 3372,
        "Ġpoint": 3373,
        "ìĿ´ìĹĲ": 3374,
        "Ġcomp": 3375,
        "ĠíĶ¼": 3376,
        "Ġê·¼ê±°": 3377,
        "Ġì¸¡": 3378,
        "ìŀ¡ê³ł": 3379,
        "Ġê¸°ìĪłìĿĦ": 3380,
        "Ġíĺķíĥľë¡ľ": 3381,
        "Ġë³Ģê²½ìłĲ": 3382,
        "ĠíĻĪíİĺìĿ´ì§Ģ": 3383,
        "Ġíķ´ìĦĿ": 3384,
        "Ġsupport": 3385,
        "Ġ-->": 3386,
        "Ġdiscu": 3387,
        "Bench": 3388,
        "LHF": 3389,
        "PI": 3390,
        "ST": 3391,
        "cre": 3392,
        "ead": 3393,
        "hn": 3394,
        "ialog": 3395,
        "ive": 3396,
        "mot": 3397,
        "oog": 3398,
        "ry": 3399,
        "to": 3400,
        "ui": 3401,
        "work": 3402,
        "¡±": 3403,
        "´ëĵľ": 3404,
        "¸íĬ¸": 3405,
        "¼íķľ": 3406,
        "Ð¾": 3407,
        "Ø±": 3408,
        "ÙĦ": 3409,
        "ÙĬ": 3410,
        "à¸": 3411,
        "ä¸": 3412,
        "å¤": 3413,
        "å¾": 3414,
        "ì¿ł": 3415,
        "íľ": 3416,
        "Ġå": 3417,
        "Ġstru": 3418,
        "Ġarch": 3419,
        "Ĳł": 3420,
        "ĺģ": 3421,
        "´ìķĦ": 3422,
        "state": 3423,
        "Ġë§¡": 3424,
        "íķĺëĲĺ": 3425,
        "ssage": 3426,
        "ëĬĶëį°": 3427,
        "ĠíĪ¬": 3428,
        "Ġë°ľì": 3429,
        "Ġë°´ëĵľ": 3430,
        "Ġë§Ĳë¡ľ": 3431,
        "ì§ĢëĬĶ": 3432,
        "íķ´ëĵľë¦´": 3433,
        "ëĤĺë¦¬": 3434,
        "Ġë³´ìł": 3435,
        "ê¸°ëĬĶ": 3436,
        "ê¸°ê°Ģ": 3437,
        "Ġì§Ģêµ¬": 3438,
        "ĠëĭµìĿĺ": 3439,
        "ĠëĭµíķĺëĬĶ": 3440,
        "Ġê·¸ëĬĶ": 3441,
        "Ġê°ĻìķĦìļĶ": 3442,
        "Ġíķĺê³Ħ": 3443,
        "ĠìŀĲëĿ¼ëĬĶ": 3444,
        "Ġê°Ģì§Ģë§Į": 3445,
        "Ġì¢ĭëĭ¤": 3446,
        "ëĿ¼ë©´": 3447,
        "ëĿ¼ë§Ī": 3448,
        "ì²ĺ": 3449,
        "Ġìłķë¦¬ê¹Įì§Ģ": 3450,
        "ctor": 3451,
        "ĠìĦ¤ëªħíķ´ëĵľë¦´": 3452,
        "Ġê²ĢíĨ": 3453,
        "ĠíĮĮëĿ¼": 3454,
        "ĠíķľëĳĲ": 3455,
        "Ġwas": 3456,
        "ĠëĮĢíĻĶìļ©": 3457,
        "Ġì§Īë¬¸ìĿĺ": 3458,
        "Ġ14": 3459,
        "Ġë²Įë¦¬ì§Ģ": 3460,
        "ëĤ¨": 3461,
        "ĠìĿ¼ë°ĺ": 3462,
        "Ġmain": 3463,
        "ìĸ´ì¤Ħ": 3464,
        "ë°°": 3465,
        "Ġíķµìĭ¬ê³¼": 3466,
        "ìĽĮíģ¬": 3467,
        "Ġìĸ´ê¸ĭ": 3468,
        "Ġret": 3469,
        "Ġìłľìŀĳ": 3470,
        "Ġëľ»ìĿ´": 3471,
        "Ġë¹¨ëĿ¼": 3472,
        "Ġë¹¨ë¦¬": 3473,
        "Ġë¶ĦìĦĿëıĦ": 3474,
        "Ġë¶ĦìĦĿíķł": 3475,
        "Ġë¶ĦìĦĿíķłê²ĮìļĶ": 3476,
        "Ġë³¼ê¹Į": 3477,
        "Ġì½Ķëĵľê°Ģ": 3478,
        "Ġì½ĶëĵľìĻĢ": 3479,
        "Ġ28": 3480,
        "Ġë¬¸ìĦľëĿ¼ë©´": 3481,
        "Ġprompt": 3482,
        "Ġyour": 3483,
        "ĠìĿĺìĭ¬": 3484,
        "itecture": 3485,
        "ĠíĮĮìĿ¼ëıĦ": 3486,
        "ĠíĮĮìĿ¼ìĿ´ëĿ¼ë©´": 3487,
        "Ġë°ĺê°ĢìĽĮìļĶ": 3488,
        "ĠíķĦìļĶíķł": 3489,
        "ĠìĿ¸ê°Ħ": 3490,
        "Ġë¡ľì": 3491,
        "ĠìļĶì²Ńíķĺë©´": 3492,
        "Ġbro": 3493,
        "Ġë§ĲíĪ¬ê°Ģ": 3494,
        "raper": 3495,
        "ĠìĽĲìĿ¸ìĿ´": 3496,
        "Ġìķŀìľ¼ë¡ľ": 3497,
        "tter": 3498,
        "Ġê²Ģìĥīíķ´ì¤ĺ": 3499,
        "Ġíķ´ë³¸": 3500,
        "Ġdog": 3501,
        "Ġdoing": 3502,
        "Ġë°Ķê¿Ķì¤Ħ": 3503,
        "Ġë¬¸ìłľëĤĺ": 3504,
        "ìł¸ìļĶ": 3505,
        "Ġë¶Ģë¶ĦìĿĢ": 3506,
        "Ġê´ĢìłĲ": 3507,
        "ì£¼ë¡ľ": 3508,
        "ĠëĤ´ìļ©ëıĦ": 3509,
        "Ġë²ĦíĬ¼": 3510,
        "ĠSFT": 3511,
        "Ġëĭ¬ê±°ëĤĺ": 3512,
        "ĠìŀĪëĬĶì§Ģ": 3513,
        "Ġë²ĪìĹĲ": 3514,
        "ĠìĿ´ìĸ´ê°Ģê²łìĬµëĭĪëĭ¤": 3515,
        "ĠìľĦíķľ": 3516,
        "ĠìľĦíķ´": 3517,
        "Ġanswers": 3518,
        "ĠìĿ½ìĸ´ì¤Ħ": 3519,
        "GPU": 3520,
        "Ġweak": 3521,
        "ĠìłľìķĪíķ´ëĵľë¦´ê²ĮìļĶ": 3522,
        "ĠìĪľìĦľë¶ĢíĦ°": 3523,
        "ĠìĪľìĦľê¹Įì§Ģ": 3524,
        "Ġë°ĺëł¤ëıĻë¬¼ìĿ´ì§Ģ": 3525,
        "Ġë¡ľê·¸ë¥¼": 3526,
        "Ġë¡ľê·¸ìĻĢ": 3527,
        "ĠíĨ¤ìĿĦ": 3528,
        "Ġstable": 3529,
        "ĠìĤ¬ìĿ´íĬ¸ìĹĲìĦľ": 3530,
        "ĠìĿĮìķħëıĦ": 3531,
        "íĮ©": 3532,
        "Ġë³´ì£ł": 3533,
        "ĠRe": 3534,
        "tering": 3535,
        "Ġmessage": 3536,
        "ë¬¸ìĦľ": 3537,
        "íĶĦëŀĳìĬ¤": 3538,
        "ĠìŀĳìĹħë¶ĢíĦ°": 3539,
        "Ġë¬¸êµ¬ëĤĺ": 3540,
        "Ġreen": 3541,
        "ë§Īëĵľ": 3542,
        "Ġêµ°ëįĶ": 3543,
        "ĠìļĶìķ½ê³¼": 3544,
        "Ġì²ĺë¦¬íķ´": 3545,
        "ĠìĥģíĻ©ìĿ´ë©´": 3546,
        "198": 3547,
        "ĠìĦľìļ¸": 3548,
        "Ġìĺ¤ëĶĶìĺ¤ëıĦ": 3549,
        "Ġgo": 3550,
        "ë©ĶìĿ´ìħĺ": 3551,
        "ëįĶê¸°": 3552,
        "ĠíĸĪ": 3553,
        "ĠìĿ¼ë³¸ìĿĺ": 3554,
        "Ġìŀħëł¥ê°Ĵ": 3555,
        "Ġlike": 3556,
        "Ġë°ľê²¬": 3557,
        "Ġëª©íĳľëĤĺ": 3558,
        "ĠíļĮ": 3559,
        "ê·ľ": 3560,
        "ĠìĿĺëıĦë¶ĢíĦ°": 3561,
        "Ġìµľê·¼ìĹĲ": 3562,
        "Ġìĺ®ê²¨": 3563,
        "ëĮĢíĳľ": 3564,
        "Ġì¶ľìĭł": 3565,
        "ëłĪëĵľ": 3566,
        "ĠìĹ´ë¦¬ëĬĶ": 3567,
        "ĠíĴĢìĸ´ìķ¼": 3568,
        "Ġì§Ħíĸī": 3569,
        "```": 3570,
        "Ġì§ļìĸ´ëĵľë¦´ê²ĮìļĶ": 3571,
        "Ġì§ļìĸ´ë³¼ê²ĮìļĶ": 3572,
        "ĠìĿ¼ë³¸ìĸ´ë¡ľ": 3573,
        "Ġì¢ģíĺĢë³¼ê²ĮìļĶ": 3574,
        "ĠìĿĮìĦ±ëıĦ": 3575,
        "Ġë³´ìĹ¬ìļĶ": 3576,
        "former": 3577,
        "Ġê³łìĸĳìĿ´": 3578,
        "Ġìļ°ìĦłìĪľìľĦê°Ģ": 3579,
        "ĠëĮĢíķľë¯¼": 3580,
        "ĠRoblox": 3581,
        "ĠëıĻìŀĳìĿĦ": 3582,
        "ĠìºĲìĭľ": 3583,
        "ĠìĤ¬ì§ĦëıĦ": 3584,
        "Ġê¶Įìŀ¥": 3585,
        "Ġëĭ¹ê²¨ìĦľ": 3586,
        "[*],": 3587,
        "Ġìłķì¹ĺìĿ¸": 3588,
        "ĠíĮĲëĭ¨": 3589,
        "ĠëŁ¬ìĭľìķĦ": 3590,
        "Ġalign": 3591,
        "Ġê½¤": 3592,
        "Ġë§ŀì¶Ķê²łìĬµëĭĪëĭ¤": 3593,
        "Ġscraper": 3594,
        "ransformer": 3595,
        "Ġê¸°ìĸµíķ´": 3596,
        "ĠìķłëĭĪë©ĶìĿ´ìħĺ": 3597,
        "Ġíķ´ìĦĿíķ´ìĦľ": 3598,
        "Ġdiscussing": 3599,
        "crete": 3600,
        "Ġarchitecture": 3601,
        "Ġë³´ìłķ": 3602,
        "Ġê²ĢíĨł": 3603,
        "Ġìĸ´ê¸ĭëĤľ": 3604,
        "Ġë¹¨ëĿ¼ìł¸ìļĶ": 3605,
        "Ġbroken": 3606,
        "Ġreentering": 3607,
        "Ġêµ°ëįĶëįĶê¸°": 3608,
        "'m": 3609,
        ")**:": 3610,
        "Dialog": 3611,
        "ac": 3612,
        "be": 3613,
        "bat": 3614,
        "ces": 3615,
        "clear": 3616,
        "ey": 3617,
        "goog": 3618,
        "hing": 3619,
        "io": 3620,
        "ible": 3621,
        "ialogue": 3622,
        "oE": 3623,
        "par": 3624,
        "pose": 3625,
        "¬ìĬ¤": 3626,
        "¯ìĿ´": 3627,
        "´Ī": 3628,
        "Ð²": 3629,
        "Ð»": 3630,
        "ìĵ°": 3631,
        "ì¡´": 3632,
        "Ġ-": 3633,
        "Ġ[": 3634,
        "Ġim": 3635,
        "Ġif": 3636,
        "ģ¬": 3637,
        "ģëıĦ": 3638,
        "Ħ¤": 3639,
        "īì¹ĺ": 3640,
        "ĮíĶĦ": 3641,
        "ĺíĶĮ": 3642,
        "ŀìĸ´ìĦľ": 3643,
        "´ìĺģ": 3644,
        "stead": 3645,
        "íķĺëł¤": 3646,
        "ĠíĬ": 3647,
        "Ġë§ĲëŃ": 3648,
        "ê°Īëł¸": 3649,
        "ìĦ¤": 3650,
        "íķľíħĮ": 3651,
        "ë©ĺ": 3652,
        "ë¦¬ê²łìĬµëĭĪëĭ¤": 3653,
        "ĠíķŃ": 3654,
        "ĠìĪĺëĬĶ": 3655,
        "¤ëį": 3656,
        "ë§µ": 3657,
        "ë§Ŀ": 3658,
        "ĢíĴĪ": 3659,
        "ìŀĲìĿ´ëĭ¤": 3660,
        "ëĤĺê³ł": 3661,
        "Ġë³Ħ": 3662,
        "less": 3663,
        "ëł¹": 3664,
        "ĠìĦŀìĸ´ìĦľ": 3665,
        "ë§Įíķľ": 3666,
        "ĠìĽĮ": 3667,
        "Ġë¬¸ëĭ¨": 3668,
        "het": 3669,
        "ĠìķĮê²łìĬµëĭĪëĭ¤": 3670,
        "Ġchat": 3671,
        "ìĿ¼ìĹĲ": 3672,
        "ê³¼ìĹĲ": 3673,
        "ìķ¼ë§Ī": 3674,
        "ëĭĿ": 3675,
        "ĠëĦĮ": 3676,
        "ëĿ¼ê°Ģ": 3677,
        "ì²łëıĦ": 3678,
        "ëĵľë¦¬ê²łìĬµëĭĪëĭ¤": 3679,
        "ĢìĽ": 3680,
        "ìĿ´íĥ": 3681,
        "íģ¼íķľ": 3682,
        "Ġì¤ĳêµŃ": 3683,
        "Ġì§Īë¬¸íķ´ëıĦ": 3684,
        "Ġ16": 3685,
        "ë¶ĢíĦ°ëĬĶ": 3686,
        "Ġìĸĳ": 3687,
        "ĠëĤĺê³ł": 3688,
        "ĠëĤĺíķľíħĮ": 3689,
        "ĠìĿ¼ë¶Ģ": 3690,
        "Ġmu": 3691,
        "ìĸ´ìĻĢ": 3692,
        "ë°±": 3693,
        "Ġì°Į": 3694,
        "ĠìĥĺíĶĮ": 3695,
        "íĬ¸ë¦Ń": 3696,
        "isible": 3697,
        "Ġì²łëıĦ": 3698,
        "Ġì£¼ìĿĺ": 3699,
        "Ġìª½ìĹĲìĦľ": 3700,
        "Ġìłľê±°": 3701,
        "Ġê³¼íķĻ": 3702,
        "Ġì¹´ì": 3703,
        "Ġì¶©": 3704,
        "Ġ27": 3705,
        "Ġpus": 3706,
        "Ġpairs": 3707,
        "Ġë§İìķĦ": 3708,
        "ĠìĿĺíķ´": 3709,
        "Ġíķłì§Ģ": 3710,
        "Ġíķłë§Įíķľ": 3711,
        "ĠíĿĲë¦ĦìĹĲìĦľ": 3712,
        "íĸĪì§Ģ": 3713,
        "Ġê°ķíķ´ìļĶ": 3714,
        "ĠAPI": 3715,
        "ĠìŀĳíĴĪ": 3716,
        "ìķĪìłĦ": 3717,
        "Ġëĭµë³Ģëĵľë¦¬ê²łìĬµëĭĪëĭ¤": 3718,
        "Ġê±¸ë¡ľ": 3719,
        "Ġact": 3720,
        "Ġask": 3721,
        "íĻĶêµŃ": 3722,
        "Ġìĥģíģ¼íķľ": 3723,
        "Ġinstead": 3724,
        "ĠìķĦëĭĪìĹĪë": 3725,
        "ëł¥ìĿĦ": 3726,
        "ĠìĽĲìĿ¸ë¶ĢíĦ°": 3727,
        "Ġë§Įíķľ": 3728,
        "Ġë§Įëĵł": 3729,
        "ĠëĮĢë¡ľ": 3730,
        "Ġê°ķìķĦì§ĢìĹĲ": 3731,
        "ëªħìĿ´ëĭ¤": 3732,
        "Ġì¶Ķëł¤ë": 3733,
        "tte": 3734,
        "ë¥¸ëĭ¤": 3735,
        "ĠíĶĦëłĪ": 3736,
        "ëĲĺê²Į": 3737,
        "Ġìŀ¡ìķĦ": 3738,
        "ë¬¼ìĿ´ìķ¼": 3739,
        "Ġthrou": 3740,
        "Ġì£¼ìłľê°Ģ": 3741,
        "íĤ¹": 3742,
        "ìłĦíķĻìĬµ": 3743,
        "ê°ģìĿ´": 3744,
        "ê°ģê³¼": 3745,
        "Ġë¬¸ìŀ¥ìĿ´ëĤĺ": 3746,
        "ĠìĿ´íķ´ëĲĺê²Į": 3747,
        "ĠëĤ´ìļ©ìĿ´ëĿ¼": 3748,
        "ĠìĿ´ìĥģíĸĪì§Ģ": 3749,
        "ĠìĹ¬ë¶Ģë¥¼": 3750,
        "ĠSt": 3751,
        "Ġëĭ¬ì½¤": 3752,
        "ĠìĻ¸": 3753,
        "Ġconcrete": 3754,
        "Ġë¹Ħìĸ´": 3755,
        "ĠìľĦì£¼ë¡ľ": 3756,
        "ê°ľìĿĺ": 3757,
        "ĠìĿ½ìĸ´ëıĦ": 3758,
        "ëĵ¤ìĿĢ": 3759,
        "íĶĪ": 3760,
        "Ġë°ĺëł¤ëıĻë¬¼ìĿ´ê¸°ëıĦ": 3761,
        "Ġì§ĢìĹŃìĿĺ": 3762,
        "ĠíĨ¤ìĿĢ": 3763,
        "ë¹ĦìĬ¤": 3764,
        "ĠìĥĿìĦ±íķĺê±°ëĤĺ": 3765,
        "ĠìĭĿìľ¼ë¡ľ": 3766,
        "ĠRAG": 3767,
        "ë¸Įë¦¬": 3768,
        "ìĨĮë¥¼": 3769,
        "Ġwithout": 3770,
        "Ġêµ¬ì²´ìłģìľ¼ë¡ľ": 3771,
        "ĠThe": 3772,
        "Ġorder": 3773,
        "Ġë¶Ļìŀ¡ê³ł": 3774,
        "ĠíĹĿê°Ģ": 3775,
        "Ġìłģìļ©": 3776,
        "ĠëıĻë¬¼ìĿ´ìķ¼": 3777,
        "Ġìĸ´ìĥīíĸĪì§Ģ": 3778,
        "ĠëĬĲëĤĮìľ¼ë¡ľ": 3779,
        "ĠíħįìĬ¤íĬ¸ë¥¼": 3780,
        "ĠìĥģíĻ©ìĹĲìĦľ": 3781,
        "ì§Ħëĭ¤": 3782,
        "ĠíĻĶìłľë¥¼": 3783,
        "ĠìĦľë¹ĦìĬ¤": 3784,
        "ĠíĴĢìĸ´ë´ĲëıĦ": 3785,
        "ĠíĥĢìĽ": 3786,
        "Ġbetter": 3787,
        "ĠìĤ¬ìļ©íķ´ì¤ĺ": 3788,
        "Ġëĵ±ìĿĺ": 3789,
        "ĠíĽĦê°ģê³¼": 3790,
        "Ġval": 3791,
        "Ġvag": 3792,
        "Ġvisible": 3793,
        "Ġintend": 3794,
        "ĠìĦłìĪĺë¡ľ": 3795,
        "ĠìĦłìĪĺìĿ´ëĭ¤": 3796,
        "Ġê·¸ìª½ìĿĢ": 3797,
        "Ġìĭ¬ìĭ¬íķľëį°": 3798,
        "ail": 3799,
        "ĠìĤ´ìķĦ": 3800,
        "Ġdefa": 3801,
        "Ġêº¼ëĤ´ë´ĲëıĦ": 3802,
        "ĠëĨĢëĵ": 3803,
        "ĠíĹ·ê°Īëł¸": 3804,
        "Ġunclear": 3805,
        "Ġëªħìĭľ": 3806,
        "Ġclear": 3807,
        "Ġë°ĽìķĦë³¼ê²Į": 3808,
        "Ġë¶ĻìĹ¬ìĦľ": 3809,
        "ĠíĻĶë©´ìĿĦ": 3810,
        "ĠìĪĺëĭ¤ì²ĺëŁ¼": 3811,
        "ĠêµĲê°ĲìĿ´": 3812,
        "Ġíķ´ê²°ìĿĦ": 3813,
        "ĠíĽĪëł": 3814,
        "Ġì²Ńê°ģìĿ´": 3815,
        "ĠíĻľëıĻ": 3816,
        "Ġë©Ķëī´ì": 3817,
        "ĠìµľìĨĮ": 3818,
        "Ġíĸīìłķ": 3819,
        "Ġproblems": 3820,
        "Ġì¢ģíĺĢë³¼ê²Į": 3821,
        "ĠìĿ´ëª¨ì§ĢëıĦ": 3822,
        "ĠìĿ´ëª¨ì§Ģë¥¼": 3823,
        "Ġfastest": 3824,
        "Ġëĭ¬ëĿ¼ì§Ħëĭ¤": 3825,
        "Ġëĭ¤ìĸĳíķĺê³ł": 3826,
        "ĠìķĦë¬´ê±°ëĤĺ": 3827,
        "ìĺĢìľ¼ë©°": 3828,
        "ĠìĦłíĥĿì§Ģë¥¼": 3829,
        "Ġcleaner": 3830,
        "Ġë§¥ëĿ½ìĿ´": 3831,
        "ĠëĵľëĿ¼ë§Ī": 3832,
        "ĠëģĿê¹Įì§Ģ": 3833,
        "ĠíĴĪì¢ħìĿ´": 3834,
        "Ġê³³ìĹĲìĦľ": 3835,
        "³¼ê²Į": 3836,
        "ĠëĽ°ìĸ´ëĤĺê³ł": 3837,
        "Ġsepar": 3838,
        "Ġê°Ģê¹ĮìĽĮ": 3839,
        "ĠìĿ´íĥĪë¦¬ìķĦ": 3840,
        "Ġsources": 3841,
        "Ġsame": 3842,
        "ĠìĿ¸íĦ°ëĦ·": 3843,
        "Ġë¡ľëĵľë§µ": 3844,
        "Ġsupporting": 3845,
        "ĠíĮĮëĿ¼ë¯¸íĦ°": 3846,
        "íĶĦëŀĳìĬ¤ìĸ´": 3847,
        "Ġìĺ®ê²¨ë³¼ê²Į": 3848,
        "ĠíĮĲëĭ¨íķĺëĬĶ": 3849,
        "google": 3850,
        "Ġë§ĲëŃīì¹ĺ": 3851,
        "Ġë¬¸ëĭ¨ìĿĦ": 3852,
        "Ġpushing": 3853,
        "ĠìķĦëĭĪìĹĪëĦ¤": 3854,
        "Ġì¶Ķëł¤ë³¼ê²Į": 3855,
        "Ġthrough": 3856,
        "ĠëĤ´ìļ©ìĿ´ëĿ¼ëıĦ": 3857,
        "Ġëĭ¬ì½¤íķĺê±°ëĤĺ": 3858,
        "Ġvague": 3859,
        "Ġintended": 3860,
        "ĠìĤ´ìķĦìĺ¨": 3861,
        "ĠëĨĢëĵ¯ìĿ´": 3862,
        "ĠíĹ·ê°Īëł¸ëĬĶì§Ģ": 3863,
        "ĠíĽĪëł¨ê³¼": 3864,
        ".âĢĿ": 3865,
        "14": 3866,
        ":\\": 3867,
        "LLM": 3868,
        "Re": 3869,
        "af": 3870,
        "dd": 3871,
        "de": 3872,
        "ece": 3873,
        "ffer": 3874,
        "fore": 3875,
        "ging": 3876,
        "https": 3877,
        "iss": 3878,
        "km": 3879,
        "la": 3880,
        "mp": 3881,
        "py": 3882,
        "sist": 3883,
        "sis": 3884,
        "vant": 3885,
        "¨ì§Ħ": 3886,
        "©ê³ł": 3887,
        "±±": 3888,
        "²Ħ": 3889,
        "Ðµ": 3890,
        "ÑĢ": 3891,
        "Ø§": 3892,
        "êº¼": 3893,
        "íĭ": 3894,
        "íİ": 3895,
        "íĭĢ": 3896,
        "Ġiss": 3897,
        "ĥĿ": 3898,
        "īê¸Ģ": 3899,
        "įĺ": 3900,
        "ĵ´": 3901,
        "ķł": 3902,
        "ķìħĺ": 3903,
        "ľëŀĢ": 3904,
        "ĠëĲľ": 3905,
        "Ġë£¨": 3906,
        "ĠëĲł": 3907,
        "and": 3908,
        "any": 3909,
        "íķĺë©´ìĦľ": 3910,
        "íķĺëł¤ë©´": 3911,
        "sse": 3912,
        "Ġìŀīê¸Ģ": 3913,
        "ĠíĬ¸": 3914,
        "ìĿ´ê³ł": 3915,
        "ìĸ´ë´Ĳ": 3916,
        "Ġë°±": 3917,
        "ìłł": 3918,
        "Ġê°ĸ": 3919,
        "ĠìłĢíĴĪ": 3920,
        "ĠìŀĪìĹĪ": 3921,
        "ëĭ¤ëĬĶ": 3922,
        "ìķĦíĭ°": 3923,
        "ìľ¨": 3924,
        "ë¦¬ì¹´": 3925,
        "ë³ĳ": 3926,
        "ë§¤": 3927,
        "Ġëĭ´": 3928,
        "urt": 3929,
        "Ġìłķìłľ": 3930,
        "Ġìłķíķ´ìĦľ": 3931,
        "Ġìłķì±ħ": 3932,
        "ìĿ´ìĬ¤ë": 3933,
        "levant": 3934,
        "ëłĮ": 3935,
        "ê¸°ë³´ëĭ¤": 3936,
        "ìĿĺìĽĲ": 3937,
        "ĠëŃĲëĿ¼ê³ł": 3938,
        "hether": 3939,
        "ated": 3940,
        "Ġcare": 3941,
        "ìĿ¼ìĸ´": 3942,
        "ëĿ¼ìĿ´": 3943,
        "ì²ł": 3944,
        "ary": 3945,
        "arts": 3946,
        "Ģì¡±": 3947,
        "Ġë³´ìĿ´": 3948,
        "ìłķë³´": 3949,
        "ĠìĦ¤ëªħê¹Įì§Ģ": 3950,
        "ìĬ¤íĥĦ": 3951,
        "Ġìļ´": 3952,
        "Ġìļ´ìĺģ": 3953,
        "ì¤ĺëıĦ": 3954,
        "ìĻķ": 3955,
        "Ġthey": 3956,
        "Ġwhether": 3957,
        "ĠìŀĲìĹ°ìĬ¤ëŁ¬ìļ´": 3958,
        "Ġê¸°ìĹħ": 3959,
        "Ġê¸°íĥĢ": 3960,
        "ëįķìħĺ": 3961,
        "Ġfall": 3962,
        "Ġfoc": 3963,
        "Ġ13": 3964,
        "Ġ17": 3965,
        "Ġsus": 3966,
        "Ġsoun": 3967,
        "ë¥´íĬ¸": 3968,
        "Ġdes": 3969,
        "ëĤłìĶ¨": 3970,
        "Ġìľłì": 3971,
        "Ġmi": 3972,
        "Ġmis": 3973,
        "Ġmap": 3974,
        "Ġmixed": 3975,
        "Ġìĥ¤": 3976,
        "els": 3977,
        "ìľĦë¥¼": 3978,
        "Ġrefa": 3979,
        "Ġreset": 3980,
        "Ġrestate": 3981,
        "Ġrelevant": 3982,
        "Ġìĺģìĸ´ë¥¼": 3983,
        "Ġë¶ĦìĦĿíķĺëł¤": 3984,
        "Ġê±´ì§Ģ": 3985,
        "Ġë§ŀì¶°ë³¼": 3986,
        "Ġ23": 3987,
        "Ġ25": 3988,
        "Ġìĭľê³Ħ": 3989,
        "Ġë¬¸ìĦľíĺķ": 3990,
        "Ġpull": 3991,
        "Ġë§ģíģ¬ë¥¼": 3992,
        "Ġê°ķìĪĺ": 3993,
        "Ġê°ķì¡°": 3994,
        "ë³´ê²łìĬµëĭĪëĭ¤": 3995,
        "ĠíĮĮìĿ¼ê³¼": 3996,
        "Ġhurt": 3997,
        "êµŃìĸ´": 3998,
        "Ġëĭµë³Ģê³¼": 3999,
        "Ġê±¸ëŁ¬": 4000,
        "Ġê±¸ìĸ´ì¤ĺ": 4001,
        "Ġam": 4002,
        "Ġback": 4003,
        "Ġtoge": 4004,
        "ìĹŃìĿ´ëĭ¤": 4005,
        "Ġincon": 4006,
        "ĠìĿĮë£Į": 4007,
        "Ġìĸĺê¸°ëĤĺ": 4008,
        "Ġìĸĺê¸°ë¶ĢíĦ°": 4009,
        "Ġìĸĺê¸°íķĺê³ł": 4010,
        "Ġìĸ´ëķł": 4011,
        "ĠëĮĢíķĻ": 4012,
        "ĠëĮĢìĿĳ": 4013,
        "ttent": 4014,
        "Ġìŀ¡ìĿĦ": 4015,
        "Ġë¬¸ìłľìĿ¸": 4016,
        "ots": 4017,
        "ĠíĻķìŀ¥": 4018,
        "íĤ¨": 4019,
        "Ġë¬¸ë§¥ìĹĲ": 4020,
        "ĠìĬ¤ìľĦ": 4021,
        "ĠìĬ¤íĥĢ": 4022,
        "Ġë¬¼ìĸ´ë´Ĳ": 4023,
        "Ġlot": 4024,
        "Ġline": 4025,
        "Ġlab": 4026,
        "Ġìĭ¶ìĸ´": 4027,
        "ë¶ĢìĹĲ": 4028,
        "ëĭ´íĻĶ": 4029,
        "ĠìĿ´ìĸ´ê°ĢëĬĶ": 4030,
        "ĠìĿ´ìĸ´ê°ĢìŀĲ": 4031,
        "Ġì¤ĳìļĶíķ´ìļĶ": 4032,
        "ĠMixed": 4033,
        "ĠìĿ½ìĹĪìĸ´": 4034,
        "ëłĪìĭľ": 4035,
        "ĠìłľìķĪíķĺëĬĶ": 4036,
        "ump": 4037,
        "Ġstarts": 4038,
        "Ġexpose": 4039,
        "íĮĶ": 4040,
        "ĠTransformer": 4041,
        "Ġë°Ľê³ł": 4042,
        "Ġì´Īê¸°": 4043,
        "Ġë§īëĬĶ": 4044,
        "ìª½ìľ¼ë¡ľ": 4045,
        "ìª½ìľ¼ë¡ľëĬĶ": 4046,
        "Ġkey": 4047,
        "ĠìŀĳìĹħìľ¼ë¡ľ": 4048,
        "ëĬĶì§Ģë¶ĢíĦ°": 4049,
        "ĠëıĻìĿ¼": 4050,
        "ìĥĿ": 4051,
        "ë£¨ìĬ¤": 4052,
        "ìĸ´ê°ĢëĬĶ": 4053,
        "Ġë¹¼ëĬĶ": 4054,
        "Ġdiffer": 4055,
        "Ġìĺ¬ëĿ¼ê°Ģ": 4056,
        "ĠìĽ¹ìĤ¬ìĿ´íĬ¸ìĹĲìĦľ": 4057,
        "ĠPD": 4058,
        "ĠDialogue": 4059,
        "ĠìĥĿê°ģíķĺë©´": 4060,
        "ĠíķľêµŃìĸ´ìĻĢ": 4061,
        "ĠíĴĢìĸ´ê°ĢëĬĶ": 4062,
        "ĠìĨįëıĦëĬĶ": 4063,
        "ëįĶìĬ¤": 4064,
        "Ġëĵ¤ìĸ´ê°Ģì§Ģ": 4065,
        "ĠíĸĪìĸ´": 4066,
        "Ġcurated": 4067,
        "ime": 4068,
        "ĠìĹŃë¶ĢíĦ°": 4069,
        "ĠìµľëĮĢíķľ": 4070,
        "Ġdocuments": 4071,
        "ĠLet": 4072,
        "Ġvs": 4073,
        "elling": 4074,
        "ĠìķĪìłĦ": 4075,
        "Ġ2010": 4076,
        "ĠëĤ¨ëĬĶ": 4077,
        "ĠëĤ¨ê¸´": 4078,
        "Ġì¤ĦìĿ´ëĬĶ": 4079,
        "ĠìľĦì¹ĺë¥¼": 4080,
        "Ġì¤ĦìĹ¬ìĦľ": 4081,
        "Ġêº¼ëĤ´ë´Ĳ": 4082,
        "ìĨįìĹĲ": 4083,
        "ê·Ģ": 4084,
        "ĠìĿ´ìłľë¶ĢíĦ°ëĬĶ": 4085,
        "Ġêº¼ëĤ´ì§Ģ": 4086,
        "Ġìļ°ìĦłìŀħ": 4087,
        "Ġê°ĢëĬ¥ìĦ±ìĿĦ": 4088,
        "Ġë°ĽìķĦìķ¼": 4089,
        "Ġë°ĽìķĦì¤Ģëĭ¤": 4090,
        "Ġë¶ĻìĹ¬ì£¼ë©´": 4091,
        "Ġkeeps": 4092,
        "Ġìŀ¥ë¬¸": 4093,
        "ĠìĹ¬ê¸°ìĦľ": 4094,
        "Ġjump": 4095,
        "Ġë¶Ħë¦¬íķĺê³ł": 4096,
        "Ġì¶ľëł¥": 4097,
        "Ġë°Ķê¾¸": 4098,
        "ìĿ´ìĹĪëĭ¤": 4099,
        "Ġrecent": 4100,
        "Ġrecently": 4101,
        "ches": 4102,
        "ference": 4103,
        "Ġfaster": 4104,
        "Ġblocker": 4105,
        "Ġblocked": 4106,
        "ëŀľëĵľìĿĺ": 4107,
        "Ġuseful": 4108,
        "ĠëĨĴìĿĢ": 4109,
        "Ġì°¸ê°Ģ": 4110,
        "ĠìĿ¸ìĤ¬ë¡ľ": 4111,
        "ĠëĶ°ëĿ¼ê°Ģë©´ìĦľ": 4112,
        "ĠëĶ°ëĿ¼ê°Ģë³´ê²łìĬµëĭĪëĭ¤": 4113,
        "Ġê¹¨ì§Ħ": 4114,
        "ëŁīìĿĦ": 4115,
        "Ġspots": 4116,
        "Ġì»¤ìļĶ": 4117,
        "cribe": 4118,
        "ĠíİĺìĿ´ì§Ģ": 4119,
        "ë¦¿ìĨįìĹĲ": 4120,
        "ĠëĭµíķĺëıĦë¡Ŀ": 4121,
        "Ġë°ĺìĿĳìĿ´": 4122,
        "Ġìĸĺê¸°íķ´ë³¼ê¹ĮìļĶ": 4123,
        "Ġunnatural": 4124,
        "ĠêµŃê°ĢëĮĢíĳľ": 4125,
        "ĠìĹŃíķłìĿ´ëĿ¼ê³ł": 4126,
        "json": 4127,
        "ìĨ¡": 4128,
        "ĠìĪĺíĸīíķĺëĬĶ": 4129,
        "Ġë¨¸ë¦¿ìĨįìĹĲ": 4130,
        "Ġìłľìĭľíķľëĭ¤": 4131,
        "clou": 4132,
        "matches": 4133,
        "Ġavail": 4134,
        "Ġcompare": 4135,
        "uild": 4136,
        "íľĺ": 4137,
        "Ġstructure": 4138,
        "ctors": 4139,
        "Ġretelling": 4140,
        "Ġgoal": 4141,
        "ĠíĸĪì§Ģ": 4142,
        "Ġaligned": 4143,
        "lessly": 4144,
        "Ġmuch": 4145,
        "Ġì°Įêº¼": 4146,
        "Ġactual": 4147,
        "Ġìŀ¡ìķĦëĵľë¦´": 4148,
        "ĠíĹĿê°Ģë¦¬": 4149,
        "Ġvalues": 4150,
        "Ġdefaults": 4151,
        "Ġë©Ķëī´ì²ĺëŁ¼": 4152,
        "Ġseparate": 4153,
        "Ġë§ĲëŃīì¹ĺìĻĢ": 4154,
        "sistent": 4155,
        "Ġissue": 4156,
        "ĠìłĢíĴĪì§Ī": 4157,
        "Ġcarelessly": 4158,
        "Ġfalling": 4159,
        "Ġfocus": 4160,
        "Ġsuspect": 4161,
        "Ġsounds": 4162,
        "Ġdescribe": 4163,
        "Ġmismatches": 4164,
        "Ġrefactors": 4165,
        "Ġë¶ĦìĦĿíķĺëł¤ê³ł": 4166,
        "Ġê±¸ëŁ¬ìķ¼": 4167,
        "Ġtogether": 4168,
        "Ġinconsistent": 4169,
        "Ġìĸ´ëķłëĬĶì§Ģë¶ĢíĦ°": 4170,
        "Ġë¬¼ìĸ´ë´Ĳì¤ĺëıĦ": 4171,
        "Ġlabels": 4172,
        "Ġexposes": 4173,
        "Ġdifferently": 4174,
        "Ġìĺ¬ëĿ¼ê°ĢìļĶ": 4175,
        "ĠëĤ¨ê¸´ëĭ¤": 4176,
        "Ġìļ°ìĦłìŀħëĭĪëĭ¤": 4177,
        "Ġavailable": 4178,
        "Ġì°Įêº¼ê¸°ë¥¼": 4179,
        "200": 4180,
        "Attent": 4181,
        "Eval": 4182,
        "ML": 4183,
        "Qu": 4184,
        "ahn": 4185,
        "cal": 4186,
        "eval": 4187,
        "fter": 4188,
        "il": 4189,
        "ies": 4190,
        "lin": 4191,
        "lare": 4192,
        "lic": 4193,
        "no": 4194,
        "os": 4195,
        "peed": 4196,
        "rong": 4197,
        "scri": 4198,
        "uce": 4199,
        "yle": 4200,
        "ysis": 4201,
        "~)": 4202,
        "¡Įëĭ¤": 4203,
        "¤ĳ": 4204,
        "§Ī": 4205,
        "¨íķ´": 4206,
        "©ìĸ´": 4207,
        "´ëł¤": 4208,
        "¹´": 4209,
        "ÃĹ": 4210,
        "Ìģ": 4211,
        "Ø¨": 4212,
        "âĨ": 4213,
        "äº": 4214,
        "åĽ": 4215,
        "æĹ": 4216,
        "ìŁ": 4217,
        "Ġ:": 4218,
        "ĠIn": 4219,
        "Ġlear": 4220,
        "Ģë¥´": 4221,
        "ħ¸": 4222,
        "ħįìĬ¤íĬ¸": 4223,
        "Īë¦¬ìķĦ": 4224,
        "Įëĵľ": 4225,
        "įìĸ´": 4226,
        "ĹĲ": 4227,
        "Ľ¨": 4228,
        "ľł": 4229,
        "Ġì¼": 4230,
        "ĠìĬ¹": 4231,
        "´ì¡Įëĭ¤": 4232,
        "ê²Ģì": 4233,
        "stions": 4234,
        "ers": 4235,
        "íķĺëĭĪ": 4236,
        "íķĺê²łëĭ¤ê³ł": 4237,
        "ìĿ´ìĿĺ": 4238,
        "ë¡ľìķĦíĭ°": 4239,
        "ìĹĦ": 4240,
        "ìķĶ": 4241,
        "Ġë§Ĳíķĺë©´": 4242,
        "ë¥ł": 4243,
        "ĠìķĶ": 4244,
        "ìķĦëĿ¼ë¹ĦìķĦ": 4245,
        "ë¦¬ì¦Ī": 4246,
        "ì§Ģìħĺ": 4247,
        "ë§ī": 4248,
        "ĠëĭĪ": 4249,
        "ëĤĺìĿ´ìłĢ": 4250,
        "ìĿ´ìĸ´": 4251,
        "Ġì§Ģìĭľ": 4252,
        "Ġì§ĢìĭĿ": 4253,
        "Ġëĭ¤ë£": 4254,
        "Ġê·¸ìĿĺ": 4255,
        "Ġì¤Ģ": 4256,
        "ìĿ¸ëĭ¤": 4257,
        "Ġë¬¸íĻĶ": 4258,
        "ìĿ¼ë¶ĢíĦ°": 4259,
        "Ġê°Ģê¸°": 4260,
        "Ġìłķë¦¬íķľëĭ¤": 4261,
        "ì¶ķ": 4262,
        "ĠìĦ¤ëªħìĿĦ": 4263,
        "ĠìĦ¤ëªħë¶ĢíĦ°": 4264,
        "ĠìĦ¤ëªħíķĺê³ł": 4265,
        "Ġìļ©ìĸ´": 4266,
        "ëŀįìĸ´": 4267,
        "ìĻ¸": 4268,
        "ĠíĮĮë¦¬": 4269,
        "Ġêµ´ëł¤": 4270,
        "Ġì¤ĳìķ": 4271,
        "ĠëĮĢíĻĶíķĺëĬĶ": 4272,
        "ĠëĤľ": 4273,
        "Ġê¸°ëĬ¥": 4274,
        "Ġê¸°ìĺ¨": 4275,
        "Ġì§Īë¬¸ìĿ´ë¯Ģë¡ľ": 4276,
        "Ġë²¤": 4277,
        "Ġê±°ëĤĺ": 4278,
        "Ġìĸµ": 4279,
        "Ġanal": 4280,
        "Instruct": 4281,
        "ĠìłĦëŀµ": 4282,
        "ĠìłĦìŁ": 4283,
        "Ġìľ¡": 4284,
        "íģ¬ëĤĺìĿ´ìłĢ": 4285,
        "íĥĳ": 4286,
        "ĠëĤĺìĦľ": 4287,
        "ĠìĿ¼ìĿĢ": 4288,
        "ĠIt": 4289,
        "ìĸ´ì§Ħ": 4290,
        "ĠìĺģêµŃ": 4291,
        "Ġìĥī": 4292,
        "ĠìĿ´ìĸ´ë°Ľ": 4293,
        "Ġë¶Ģë¥¸ëĭ¤": 4294,
        "Ġë°©íĸ¥ìľ¼ë¡ľ": 4295,
        "Ġìĸ´ëł¤": 4296,
        "ĠëĦ¤íĬ¸": 4297,
        "ì¹ľ": 4298,
        "Ġì²¨": 4299,
        "ì§ķ": 4300,
        "Ġì£¼ìĨĮë¥¼": 4301,
        "Ġ21": 4302,
        "Ġ26": 4303,
        "ë³´ëĵľ": 4304,
        "Ġho": 4305,
        "ĠíķĻìĬµê³¼": 4306,
        "íķĺì§Ģë§Į": 4307,
        "Ġafter": 4308,
        "Ġì¹ľê·¼íķĺê³ł": 4309,
        "pts": 4310,
        "ëĮĢìĿĺ": 4311,
        "Ġtoo": 4312,
        "ĠìľłëĭīìĬ¤": 4313,
        "ìĹŃê¹Įì§Ģ": 4314,
        "ìļ°ëĵľ": 4315,
        "Ġë§ĲíĪ¬ë¥¼": 4316,
        "¨íħįìĬ¤íĬ¸": 4317,
        "Ġì¶Ķê°Ģ": 4318,
        "ì¡°ëĤĺ": 4319,
        "ĠìĤ¬ëŀĮìĿ´": 4320,
        "ĠìķĬëĬĶëĭ¤": 4321,
        "ĠìķĬìķĺ": 4322,
        "ĠëĶ±ëĶ±íĸĪìĸ´": 4323,
        "ëĲĺìĹĪ": 4324,
        "ĠëĤ´ë¶Ģ": 4325,
        "Ġê´Ģë¦¬": 4326,
        "Ġì°¾ìĿĦ": 4327,
        "íĤ¤ë": 4328,
        "ĠìĿ´íķ´ë¥¼": 4329,
        "ĠìĿ´ìĥģíĸĪìĸ´": 4330,
        "ĠëĤĺëĬĶì§Ģ": 4331,
        "ĠíĻķìĿ¸íķ´ë³¼": 4332,
        "ĠìľĦíĹĺ": 4333,
        "Ġëĭ¤ìĿĮë¶ĢíĦ°ëĬĶ": 4334,
        "ĠMLE": 4335,
        "ĠìĪľìĦľëĮĢë¡ľ": 4336,
        "íħįìĬ¤íĬ¸": 4337,
        "Ġê²½ê¸°ëıĦ": 4338,
        "uestions": 4339,
        "íĮ¨": 4340,
        "Ġìĥģíĥľë¶ĢíĦ°": 4341,
        "íĸīìľĦ": 4342,
        "ĠìĦ¤ì¹ĺ": 4343,
        "ê·¼ê±°": 4344,
        "ì°©": 4345,
        "ì°¸": 4346,
        "íĶĦíĬ¸": 4347,
        "Ġrout": 4348,
        "Ġì²ľíĻ©": 4349,
        "ĠìŀĪì§Ģë§Į": 4350,
        "ĠìļĶìķ½íķ´ì¤ĺ": 4351,
        "ĠêµŃìłľ": 4352,
        "ì½Ķëĵľ": 4353,
        "ĠìĦľë²Ħ": 4354,
        "ĠìĦľë¹Ļ": 4355,
        "ĠíĥĢ": 4356,
        "Ġbefore": 4357,
        "put": 4358,
        "íķ¨ë§Īëĵľ": 4359,
        "ĠíĽĦìĨį": 4360,
        "Ġcache": 4361,
        "ĠìķĦìĿ´ëĶĶìĸ´ë¥¼": 4362,
        "ĠìĦłìĪĺëĭ¨": 4363,
        "Ġë¶Ħë¥ĺëĤĺ": 4364,
        "ĠìĬ¤íģ¬ë¦°ìĥ·ìĿ´": 4365,
        "ê²½ìĿĦ": 4366,
        "ĠìĺĪì¸¡ìĿ´ëĤĺ": 4367,
        "Ġ2014": 4368,
        "Ġêµ°ìĤ°ëĤłìĶ¨": 4369,
        "Ġë¦¬ê·¸": 4370,
        "Ġgeneration": 4371,
        "íĬľ": 4372,
        "Ġë¸ĮëĿ¼ëįĶìĬ¤": 4373,
        "ëıħìĿ¼ìĸ´": 4374,
        "Ġ189": 4375,
        "Ġê°ĢëĬ¥ìĦ±ê¹Įì§Ģ": 4376,
        "Ġê±´ë¬¼": 4377,
        "Ġë¶ĻìĹ¬ì¤ĺ": 4378,
        "ĠÐľ": 4379,
        "ĠíĬ¹ì§ķ": 4380,
        "ë¥´ìĽ¨": 4381,
        "Ġìĺ¨ëıĦ": 4382,
        "Ġëĭ¨ë§ĽìĿ´ëĤĺ": 4383,
        "ĠìĹ´ë¦°": 4384,
        "ific": 4385,
        "meric": 4386,
        "Ġë³ĳëª©": 4387,
        "ĠìĦ±ëĬ¥": 4388,
        "ĠíĻľìķ½": 4389,
        "Ġìµľì´Ī": 4390,
        "ĠíħĮëŁ¬": 4391,
        "Ġìłľê³µíķľëĭ¤": 4392,
        "Ġì¡°íļĮíķ´ìĦľ": 4393,
        "Ġì¡°íļĮíķ´ë³¼": 4394,
        "ì´Ī": 4395,
        "ì´Į": 4396,
        "Ġëĭ¤ìĸĳíķľ": 4397,
        "Ġë§¥ëĿ½ìĿĦ": 4398,
        "Ġê¸Īì§Ģ": 4399,
        "ĠìĹ´ìĸ´ì£¼ëĬĶ": 4400,
        "ĠëĮĢìĥģ": 4401,
        "ìĿ´íĶĦëĿ¼ìĿ¸": 4402,
        "ĠëŃĶê°Ģ": 4403,
        "ìĽ¨ìĿ´íĬ¸": 4404,
        "dflare": 4405,
        "training": 4406,
        "ĭĪìķĦ": 4407,
        "Ġìķ¼êµ¬": 4408,
        "íİĺìĿ¸ìĸ´": 4409,
        "ĠíĻĪíİĺìĿ´ì§ĢëĤĺ": 4410,
        "Ġë°ľìĥĿ": 4411,
        "ëĤĺë¦¬ìĺ¤": 4412,
        "¤ëįľëŀĢ": 4413,
        "ìĿ´íĥĪë¦¬ìķĦ": 4414,
        "Ġëªħìĭľìłģìľ¼ë¡ľ": 4415,
        "Ġìŀīê¸ĢëŀľëĵľìĿĺ": 4416,
        "Ġë³´ìĿ´ê²Į": 4417,
        "ĠìľłìĤ¬": 4418,
        "Ġmissing": 4419,
        "ĠíİĺìĿ´ì§ĢëĤĺ": 4420,
        "ĠêµŃê°ĢëĮĢíĳľíĮĢ": 4421,
        "Attention": 4422,
        "scripts": 4423,
        "¨íķ´íĬ¼": 4424,
        "âĨĴ": 4425,
        "æĹ¥": 4426,
        "ë¡ľìķĦíĭ°ìķĦ": 4427,
        "Ġêµ´ëł¤ëıĦ": 4428,
        "Ġê¸°ìĺ¨ìĿ´ëŀĳ": 4429,
        "Ġanalysis": 4430,
        "¤ëįľëŀĢëĵľ": 4431,
        "\"]": 4432,
        ").": 4433,
        ")âĢĵ": 4434,
        "/`": 4435,
        "30": 4436,
        "PE": 4437,
        "Pre": 4438,
        "To": 4439,
        "[\"": 4440,
        "](": 4441,
        "ach": 4442,
        "duce": 4443,
        "ia": 4444,
        "ip": 4445,
        "ir": 4446,
        "ience": 4447,
        "je": 4448,
        "lat": 4449,
        "mb": 4450,
        "na": 4451,
        "we": 4452,
        "yth": 4453,
        "¤Ģ": 4454,
        "¨íĬ¸": 4455,
        "²ł": 4456,
        "¼ĵ": 4457,
        "½ĳ": 4458,
        "½ì§Ģ": 4459,
        "Ã©": 4460,
        "ËĪ": 4461,
        "Ð½": 4462,
        "ÑĤ": 4463,
        "Ø¯": 4464,
        "ÙĪ": 4465,
        "ä¿": 4466,
        "å±±": 4467,
        "æľ": 4468,
        "éĥ": 4469,
        "ëĨ": 4470,
        "ëľ»": 4471,
        "ìĥī": 4472,
        "ĠQ": 4473,
        "ĠV": 4474,
        "Ġple": 4475,
        "Ġra": 4476,
        "Ġext": 4477,
        "ĢëŁ¬": 4478,
        "ĩĮ": 4479,
        "ĩê²Į": 4480,
        "ĭľ": 4481,
        "Ĳë¦¬": 4482,
        "ĳľì": 4483,
        "ĳê³¡": 4484,
        "ĵì¹ľ": 4485,
        "Ķê³ł": 4486,
        "ĺ¨": 4487,
        "ļĮ": 4488,
        "ĠìĬ": 4489,
        "Ġìĵ´": 4490,
        "Ġëī": 4491,
        "ĠëĨį": 4492,
        "Ġë½ĳ": 4493,
        "ano": 4494,
        "ĸ´ëĳĲ": 4495,
        "ssary": 4496,
        "Ġíĳľì": 4497,
        "ìķĮ": 4498,
        "Ġë§ĲìķĦì¤ĺ": 4499,
        "ê¸¸": 4500,
        "Ġê°Ĵ": 4501,
        "Ġê°ľì": 4502,
        "ĠìłĪ": 4503,
        "ìĿĦê¹Į": 4504,
        "ìĹĲë¦¬ìķĦ": 4505,
        "ë¦¬ê·¸": 4506,
        "ë¦¬ìĬ¤íĬ¸": 4507,
        "ë¦¬ì¡°ëĤĺ": 4508,
        "ĠíķĻ": 4509,
        "ĠìĪĺì¤Ģ": 4510,
        "ìĬ¬": 4511,
        "íķ´ì¤Ħ": 4512,
        "ë¥¼ë¦°": 4513,
        "ìĦľìĪł": 4514,
        "ìĦľë¹Ļ": 4515,
        "Ġì§ľì": 4516,
        "ĠìĿ´ìľł": 4517,
        "lease": 4518,
        "ëłĩê²Į": 4519,
        "Ġte": 4520,
        "Ġtime": 4521,
        "Ġì§Ģíľĺ": 4522,
        "Ġëĭµíķĺë©´": 4523,
        "ĠìĦ¼": 4524,
        "Ġê·¸ë£": 4525,
        "Ġê·¸ë¦¬ê³ł": 4526,
        "Ġê·¸ëłĩê²Į": 4527,
        "Ġíķĺëł¤ë©´": 4528,
        "ëĵ±": 4529,
        "ìļĶìķ½": 4530,
        "Ġê°Ģìķ¼": 4531,
        "ì²´ì": 4532,
        "ĠìĽĲíķ´": 4533,
        "ĠëĮĢíļĮ": 4534,
        "ĠìĿ´ê²Į": 4535,
        "ĠìĿ´ë²": 4536,
        "ĠìĤ¬ìļ°": 4537,
        "ĠìĤ¬ìĭ¤": 4538,
        "ĠìĤ¬ë§Ŀ": 4539,
        "ĠìĤ¬ìłĦíķĻìĬµ": 4540,
        "ĠìĦ¤ëªħíķ´ë³¼ê²Į": 4541,
        "ìĬ¤ìĿĺ": 4542,
        "ëŀŃ": 4543,
        "ìłģìĿ´ëĭ¤": 4544,
        "ìĬ¤ëª¨": 4545,
        "reng": 4546,
        "ĠìķĦëĬĶ": 4547,
        "ĠìŀĲìĹ°ìĸ´ë¥¼": 4548,
        "Ġwrong": 4549,
        "ĠìŀĲìĹ°ìĬ¤ëŁ½ëĭ¤": 4550,
        "ĠìŀĲìĹ°ìĬ¤ëŁ½ì§Ģ": 4551,
        "Ġê¸°ì´Ī": 4552,
        "Ġë¶Ħìķ¼": 4553,
        "Ġë¶Ħê¸°ê°Ģ": 4554,
        "Ġë¶ĦëŁīìĿĦ": 4555,
        "itial": 4556,
        "Ġflow": 4557,
        "Ġì§Īë¬¸íķľ": 4558,
        "Ġì§Īë¬¸ìĹĲ": 4559,
        "¡°ê±´": 4560,
        "Ġanyth": 4561,
        "Ġslow": 4562,
        "Ġsay": 4563,
        "Ġsmar": 4564,
        "ë¥´ê¸°": 4565,
        "ë¥´ëª¨": 4566,
        "íĺ¼": 4567,
        "Ġìĺ¤íĶĪ": 4568,
        "ora": 4569,
        "ë²Ķ": 4570,
        "ëĤ¸": 4571,
        "ĠëĤĺíĥĢ": 4572,
        "Ġmak": 4573,
        "ëħĦë¶ĢíĦ°": 4574,
        "Ġìĺģíĸ¥": 4575,
        "Ġëª¨ëĵľ": 4576,
        "Ġë¶Ģëĭ´": 4577,
        "Ġë°©íĸ¥ëıĦ": 4578,
        "íĬ¸ë¡ľ": 4579,
        "ĠìķĮëł¤ì§Ħ": 4580,
        "ĠìķĮëł¤ì¤Ģëĭ¤": 4581,
        "Ġê°ĢëĬ¥íķĺëĲĺ": 4582,
        "Ġrepl": 4583,
        "Ġreduce": 4584,
        "ì¹´ì": 4585,
        "ĠëĲĺëĬĶëį°": 4586,
        "ì§ĳ": 4587,
        "ë¯¸ê³¼ìĹĲ": 4588,
        "Ġëª¨ëį¸ë§Į": 4589,
        "Ġëľ»ìĿĺ": 4590,
        "ĠìĤ¬ìļ©ìŀĲëĬĶ": 4591,
        "Ġë¶ĦìĦĿìĿĦ": 4592,
        "Ġë¶ĦìĦĿìĿĢ": 4593,
        "Ġë§ŀì¶°ìķ¼": 4594,
        "Ġë§ŀì¶°ì¤Ģëĭ¤": 4595,
        "Ġë¨¼ìłĢìķ¼": 4596,
        "Ġì½ĶëĵľëıĦ": 4597,
        "ĠìĭľìłĪ": 4598,
        "Ġìĭľë¦¬ì¦Ī": 4599,
        "ĠìĭľëĤĺë¦¬ìĺ¤": 4600,
        "Ġpdf": 4601,
        "ĠíĿĲë¦Ħê³¼": 4602,
        "ê»´ì¡Įëĭ¤": 4603,
        "Ġë©´ìłģ": 4604,
        "ĠíĮĮìĿ¼ìĿ´": 4605,
        "ĠíĮĮìĿ¼ìĿ´ëŀĳ": 4606,
        "ĠìŀĳìłĦ": 4607,
        "ìķĪíķ´": 4608,
        "ĠíķĦìļĶíķĺëĭĪ": 4609,
        "ĠìļĶì²Ńíķľ": 4610,
        "ëŁ¬ìļ´": 4611,
        "Ġby": 4612,
        "ìĥģìĿĦ": 4613,
        "ìĥģíĥľ": 4614,
        "ìĥģíĻ©": 4615,
        "Ġìĸ¸ìĸ´ëª¨ëį¸": 4616,
        "ê·¸ë¦¬": 4617,
        "Ġì¡°ìļ©": 4618,
        "Ġìľłëŀĺ": 4619,
        "ĠìľłëŁ½": 4620,
        "ìļ°ìĬ¤": 4621,
        "Ġê°ľìĿ¸": 4622,
        "Ġinitial": 4623,
        "Ġnet": 4624,
        "ract": 4625,
        "ĠëĮĢìłĦ": 4626,
        "ëªħìĿ´": 4627,
        "ëªħìľ¼ë¡ľ": 4628,
        "Ġìĭ¤íĹĺ": 4629,
        "ê³µìĤ¬": 4630,
        "ì¡°ì§Ģ": 4631,
        "ĠìŀĺíķĺëĬĶ": 4632,
        "Ġìŀĺëª": 4633,
        "Ġíķ´ìķ¼": 4634,
        "Ġíķ´ìļĶ": 4635,
        "Ġê³łë¥¼": 4636,
        "ìļ´ëĭ¤ëĬĶ": 4637,
        "ĠìķĬìĿĦê¹Į": 4638,
        "ĠëĶ±ëĶ±íķĺëĭ¤": 4639,
        "ëĦĲ": 4640,
        "Ġë°°ìļ´ëĭ¤ëĬĶ": 4641,
        "ents": 4642,
        "Ġìŀ¡ìķĦì¤ĺ": 4643,
        "Ġìŀ¡ìķĺ": 4644,
        "Ġë¬¸ìłľìĿ¸ì§Ģ": 4645,
        "Ġë¶Ģë¶Ħë§Į": 4646,
        "ëĶĶìķĦëĿ¼ë¹ĦìķĦ": 4647,
        "ì£¼ìłľ": 4648,
        "Ġìŀ¬ìĦľìĪł": 4649,
        "íĥľìĬ¤íģ¬": 4650,
        "ĠëĤ´ìļ©ìĹĲìĦľ": 4651,
        "Ġhey": 4652,
        "Ġë¬¼ìĸ´ìĦľ": 4653,
        "Ġë°ĺë³µê³¼": 4654,
        "ĠëĬĲê»´ì¡Įëĭ¤": 4655,
        "ĠSer": 4656,
        "ĠSpeed": 4657,
        "Įë¦¬ìĹĦ": 4658,
        "ĠíĻķìĿ¸íķľëĭ¤": 4659,
        "ĠíĻķìĿ¸íķĺê³ł": 4660,
        "ĠíĻķìĿ¸íķ´ìķ¼": 4661,
        "ĠìłķìĿĺë¡ľ": 4662,
        "ĠìłķìĿĺíķľëĭ¤": 4663,
        "Ġë¹Ħìľł": 4664,
        "Ġhelps": 4665,
        "ìĦłíĺ¸": 4666,
        "ĠíĨłíģ¬ëĤĺìĿ´ìłĢ": 4667,
        "ë¶Ģíķľ": 4668,
        "ĠìĿ´ìĸ´ê°Ģë©´": 4669,
        "ĠìĿ´ìĸ´ê°Ģì¤ĺ": 4670,
        "Ġì¤ĳìļĶíķ´": 4671,
        "Ġìĺ¤ëŀľë§ĮìĿ´ëĿ¼ëĬĶ": 4672,
        "Ġê¸°ì¤ĢìĿĦ": 4673,
        "íĤ¤ìĹĲë¦¬ìķĦ": 4674,
        "ĺë¦¬íı¬": 4675,
        "ĠëķĮê°Ģ": 4676,
        "ëĵ¤ìĿĦ": 4677,
        "ĠìłĦíĻĺìĿĢ": 4678,
        "ĠìłĦíĻĺíķľëĭ¤": 4679,
        "ĠEmp": 4680,
        "Ġë¯¸ìķĪíķ´": 4681,
        "ëłĪìĿ´": 4682,
        "ãĢĪ": 4683,
        "ãĢī": 4684,
        "ĠëĶ°ëľ»": 4685,
        "ĠìłľìķĪíķ´ì¤Ħ": 4686,
        "ĠìĿ´ë¯¸ì§ĢëĬĶ": 4687,
        "íħĲ": 4688,
        "ĠìłķíĻķíķľ": 4689,
        "Ġstreng": 4690,
        "Ġê·ľ": 4691,
        "Ġexper": 4692,
        "ĠìĥĿìĦ±ê³¼": 4693,
        "Ġê³µê°ľ": 4694,
        "Ġê³µìľł": 4695,
        "ĠìĥģíĥľëĿ¼": 4696,
        "ĠRight": 4697,
        "ĠRLHF": 4698,
        "Ġì»¨íħįìĬ¤íĬ¸": 4699,
        "Ġìĸ´ìĥīíķł": 4700,
        "ĠíĳľíĺĦìĹĲëĬĶ": 4701,
        "ë¸ĮëĿ¼": 4702,
        "ĠëģĮ": 4703,
        "ìĸ¼": 4704,
        "Ġê³¼ìŀ¥íķĺì§Ģ": 4705,
        "Ġì´Īë³´ìŀĲ": 4706,
        "ĠëĶ°ëĿ¼ê°Ī": 4707,
        "Ġë¶ĻìĿĦ": 4708,
        "Ġë´Ĳì¤Ħ": 4709,
        "Ġíı¬ì§Ģìħĺ": 4710,
        "ĠìĹĲëŁ¬ê°Ģ": 4711,
        "ë§Īíģ¬": 4712,
        "ĠìĿĳëĭµíķľëĭ¤": 4713,
        "Ġë¶ĢëĵľëŁ¬ìļ´": 4714,
        "Ġìĸ´ìĥīíĸĪìĿĦ": 4715,
        "shee": 4716,
        "shAttention": 4717,
        "Ġì¤Ħë¡ľë§Į": 4718,
        "verage": 4719,
        "Ġìłĳê·¼": 4720,
        "êµ°ìĿĺ": 4721,
        "ĠìĹ°ëĭ¤": 4722,
        "ĠìĹ°êµ¬": 4723,
        "Ġdid": 4724,
        "ĠìļĶìķ½íĺķìľ¼ë¡ľ": 4725,
        "ĠPlease": 4726,
        "Ġê°ľëħĲìĿĢ": 4727,
        "ĠDPO": 4728,
        "Ġìłķë³´ê°Ģ": 4729,
        "Ġìłķë³´ìĿĺ": 4730,
        "ìĽĲíķľëĭ¤": 4731,
        "ìĽĲìĿĺìĽĲ": 4732,
        "Ġì²ĺë¦¬íķľëĭ¤": 4733,
        "ĠìĥģíĻ©ìĿ¸ì§Ģ": 4734,
        "Ġë§Įëĵ¤ê¸°": 4735,
        "ì½ĶëĶ©": 4736,
        "ì½ĶëįĶ": 4737,
        "Ġê²°íķ©": 4738,
        "Ġì´ĪìķĪëıĦ": 4739,
        "atashee": 4740,
        "íļĮìĿĺ": 4741,
        "íķ¨ìĹĲëĬĶ": 4742,
        "Ġëĵ±ìŀ¥": 4743,
        "ìħĭ": 4744,
        "ìħĶ": 4745,
        "ĠFC": 4746,
        "ths": 4747,
        "ĠìĨĮìĨį": 4748,
        "ĠíĨµìĿ¼": 4749,
        "ëıĮ": 4750,
        "Ġ2011": 4751,
        "Ġì¤ĦìĿ´ëł¤ë©´": 4752,
        "Ġì¤ĦìĿ´ê¸°ë³´ëĭ¤": 4753,
        "ìĸĳìĿĦ": 4754,
        "Ġì°¨ë¶Ħíķĺê²Įì²ĺëŁ¼": 4755,
        "Ġì¤ĦìĹ¬ë³¼ê²Į": 4756,
        "Ġì´Ŀë¦¬": 4757,
        "Ġëĭ¨ê³Ħìłģìľ¼ë¡ľ": 4758,
        "íİ¸íĸ¥": 4759,
        "ĠëĨĵì¹ľ": 4760,
        "Ġê²°ê³¼ê°Ģ": 4761,
        "Ġë§Ľê³¼": 4762,
        "Ġê¸¸ìĿ´": 4763,
        "Ġëª»íķĺì§Ģ": 4764,
        "ĠìĿ´ìĸ´ì¤Ģëĭ¤": 4765,
        "Ġë¦¬íĮ©": 4766,
        "Ġëªħì¹Ń": 4767,
        "Ġë¬´ì¡°ê±´": 4768,
        "Ġë©Īì¶Ķê³ł": 4769,
        "ĠëıĮëł¤ì¤Ģëĭ¤": 4770,
        "Ġìķłë¦¬ì¡°ëĤĺ": 4771,
        "Ġëĭ¹ìĭľ": 4772,
        "Ġìŀ¥ë¯¸ê³¼ìĹĲ": 4773,
        "ĠíĭĢìĿĦ": 4774,
        "Ġìĺ¨ëıĦë¥¼": 4775,
        "Ġìĺ¨ëıĦë¡ľ": 4776,
        "Ġìŀ¬ë£ĮëĿ¼ëĬĶ": 4777,
        "Ġê²½ìļ°ìĹĲëĬĶ": 4778,
        "ĠëłĪë": 4779,
        "Ġë¶Ħë¦¬íķ´ìķ¼": 4780,
        "Ġêµ¬ë¶Ħíķľëĭ¤": 4781,
        "ponents": 4782,
        "ongBench": 4783,
        "Ġfeels": 4784,
        "Ġë¬»ëĬĶëĭ¤": 4785,
        "app": 4786,
        "portant": 4787,
        "Ġë¬¸ìłľìłĲìĿ´": 4788,
        "ĠíĸīëıĻ": 4789,
        "Ġíķ©ìĦ±": 4790,
        "Ġì§Ģë£¨íķ¨ìĹĲëĬĶ": 4791,
        "Ġë¶ģìĦľ": 4792,
        "Ġcomponents": 4793,
        "Ġë°©ìĭĿìĿĢ": 4794,
        "ĠìĿ¸êµ¬ëĬĶ": 4795,
        "ĠØ§": 4796,
        "ĠìĿ¼ë³¸ìĸ´ë¡ľëıĦ": 4797,
        "ĠìĿĮë°ĺìĿ´ëĭ¤": 4798,
        "Ġë¡ľëĶ©ìĿĦ": 4799,
        "ìĨĮë¦¬ìķ¼": 4800,
        "ĠëłĪì½Ķëĵľ": 4801,
        "ì¡±": 4802,
        "Ġìĭ¤íĸīìĿĢ": 4803,
        "Ġsmaller": 4804,
        "Ġìļ°ìĦłìĪľìľĦë¥¼": 4805,
        "ĠìĹ´ìĸ´ëĳĲ": 4806,
        "ĠëıĻìŀĳê³¼": 4807,
        "ĠíĴĪì¢ħìĹĲ": 4808,
        "Ġë°Ķê¾¼ëĭ¤": 4809,
        "Ġì§ĢìĹ°ìĿĦ": 4810,
        "Ġspeed": 4811,
        "ĠëĬĺë¦¬ì§Ģ": 4812,
        "ĠëĬĺë¦¬ëĿ¼ëĬĶ": 4813,
        "ĠìĿ¸ìłķíķĺê³ł": 4814,
        "ĠëĬĲë¦°ì§Ģë¶ĢíĦ°": 4815,
        "ĠìĻķë³µ": 4816,
        "Ġê³Ħíļįìľ¼ë¡ľ": 4817,
        "Ġdebugging": 4818,
        "ĠëŃĶìĨĮë¦¬ìķ¼": 4819,
        "Ġë²Īì§¸ë¡ľ": 4820,
        "Ġunnece": 4821,
        "Ġì½©ê³ł": 4822,
        "ĠíķĦíĦ°": 4823,
        "Ġwhy": 4824,
        "Ġwhere": 4825,
        "Ġì¶Ķë¡łìĿĺ": 4826,
        "Ġì¶Ķì¶ľíķĺëĬĶ": 4827,
        "Ġíļ¨ê³¼ê°Ģ": 4828,
        "Ģíĺķ": 4829,
        "Ġë³µìĽĲíķľëĭ¤": 4830,
        "Ġcost": 4831,
        "Ġë°ĺê°ĢìĽĢ": 4832,
        "Ġë°ĺê°ĢìĽĢìĿĦ": 4833,
        "Ġë°ĺë³µë³´ëĭ¤ëĬĶ": 4834,
        "íıīê°Ģ": 4835,
        "Ġêµ¬ê°ĦìĿ´ëĭ¤": 4836,
        "Ġìĭľê°Ħê³¼": 4837,
        "ĠìĹ°ê²°íķ´": 4838,
        "Ġìĭłíĺ¸ëĿ¼": 4839,
        "Ġì¸¡ìłķ": 4840,
        "motion": 4841,
        "ÙĬØ": 4842,
        "å¾Ĳ": 4843,
        "ĠìĿ¸ê°ĦìłģìĿ¸": 4844,
        "Ġë¡ľì¼ĵ": 4845,
        "Ġê´ĢìłĲìľ¼ë¡ľ": 4846,
        "ëłĪëĵľìĽ¨ìĿ´íĬ¸": 4847,
        "Ġì§Ħíĸīíķĺëł¤ë©´": 4848,
        "ĠëĮĢíķľë¯¼êµŃ": 4849,
        "Ġê¶Įìŀ¥íķľëĭ¤": 4850,
        "Ġìłķì¹ĺìĿ¸ìĿ´ëĭ¤": 4851,
        "Ġë³´ìłķìĿĦ": 4852,
        "¬ìĬ¤íĦ°": 4853,
        "Ġimportant": 4854,
        "Ġë³ĦëıĦ": 4855,
        "hetic": 4856,
        "ĠíĶĦëłĪìŀĦ": 4857,
        "Ġë¡ľëĵľë§µì²ĺëŁ¼": 4858,
        "Ġthroughput": 4859,
        "lashAttention": 4860,
        "ĠëĲľëĭ¤": 4861,
        "ĠìŀĪìĹĪì§Ģ": 4862,
        "Ġëĭ´íĻĶ": 4863,
        "Ġìłķìłľíķ´ìķ¼": 4864,
        "Ġìĭľê³Ħíĥĳ": 4865,
        "Ġê°ķì¡°íķľëĭ¤": 4866,
        "ĠìĬ¤íĥĢìĿ¼": 4867,
        "ĠPDF": 4868,
        "Ġë°Ķê¾¸ëĿ¼ëĬĶ": 4869,
        "cloudflare": 4870,
        "ĮëĵľëłĪëĵľìĽ¨ìĿ´íĬ¸": 4871,
        "Ġì§ĢìĭĿê³¼": 4872,
        "Ġìļ©ìĸ´ëĬĶ": 4873,
        "Ġì¤ĳìķĻ": 4874,
        "ĠìĸµìĸĳìĿĦ": 4875,
        "ĠìłĦìŁģ": 4876,
        "ĠìĥīìĿ´": 4877,
        "ĠìĿ´ìĸ´ë°Ľê¸°ëĬĶ": 4878,
        "Ġìĸ´ëł¤ìļ´": 4879,
        "ĠëĦ¤íĬ¸ìĽĮíģ¬": 4880,
        "Ġì²¨ë¶Ģíķľ": 4881,
        "Ġhops": 4882,
        "ĠìķĬìķĺì§Ģ": 4883,
        "íĤ¤ë§Ī": 4884,
        "Ġrouting": 4885,
        "Ġë³ĳëª©ìĿ¼": 4886,
        "Ġìµľì´ĪìĿĺ": 4887,
        "ĠëĮĢìĥģìĿ´ë¯Ģë¡ľ": 4888,
        "Ġplease": 4889,
        "Ġraw": 4890,
        "Ġextract": 4891,
        "Ġë½ĳìķĦì¤ĺ": 4892,
        "Ġíĳľì¤Ģ": 4893,
        "Ġì§ľì¤Ħ": 4894,
        "Ġê·¸ë£¹": 4895,
        "ĠìĤ¬ìļ°ëĶĶìķĦëĿ¼ë¹ĦìķĦ": 4896,
        "ìĬ¤ëª¨ìĬ¤": 4897,
        "Ġanything": 4898,
        "Ġsmarter": 4899,
        "Ġmake": 4900,
        "Ġreplies": 4901,
        "Ġnetwork": 4902,
        "Ġìŀĺëª»": 4903,
        "ĠëĶ±ëĶ±íķĺëĭ¤ëĬĶ": 4904,
        "Ġìŀ¡ìķĺëĦ¤": 4905,
        "ĠëĬĲê»´ì¡Įëĭ¤ë©´": 4906,
        "Ġë¹Ħìľłë³´ëĭ¤": 4907,
        "ĺë¦¬íı¬ëĭĪìķĦ": 4908,
        "ĠëĶ°ëľ»íķĺê³ł": 4909,
        "Ġstrengths": 4910,
        "Ġexperience": 4911,
        "Ġì´Īë³´ìŀĲëıĦ": 4912,
        "Ġíı¬ì§ĢìħĺìĿĢ": 4913,
        "Ġë¦¬íĮ©íĦ°ë§ģ": 4914,
        "ĠìĹ´ìĸ´ëĳĲëĲĺ": 4915,
        "Ġunnecessary": 4916,
        ")âĢĿ": 4917,
        ".)": 4918,
        "04": 4919,
        "21": 4920,
        "89": 4921,
        "AD": 4922,
        "ChatGPT": 4923,
        "Li": 4924,
        "Prompt": 4925,
        "SA": 4926,
        "SD": 4927,
        "St": 4928,
        "TV": 4929,
        "ale": 4930,
        "corp": 4931,
        "ire": 4932,
        "ju": 4933,
        "line": 4934,
        "ne": 4935,
        "nize": 4936,
        "ole": 4937,
        "pany": 4938,
        "questions": 4939,
        "ron": 4940,
        "xic": 4941,
        "§ĳ": 4942,
        "©íķ´ìĦľ": 4943,
        "´ë§Į": 4944,
        "´ë¨¼": 4945,
        "µľ": 4946,
        "¹ìĿĢ": 4947,
        "Ã¡": 4948,
        "Ðº": 4949,
        "Ð¼": 4950,
        "ÙĨ": 4951,
        "áĪ": 4952,
        "ãĥ": 4953,
        "åº": 4954,
        "ç¾": 4955,
        "çĶ": 4956,
        "ëĺĲ": 4957,
        "ìº": 4958,
        "ì¿": 4959,
        "ìĪ": 4960,
        "íĽ": 4961,
        "íĬ¹": 4962,
        "Ġ&": 4963,
        "Ġart": 4964,
        "Ġid": 4965,
        "ĠÙħ": 4966,
        "ĠGPU": 4967,
        "Ġquestions": 4968,
        "Ģìŀ¥": 4969,
        "Ħ¸íĬ¸": 4970,
        "Ĳì§Ģ": 4971,
        "ĳìĹŃ": 4972,
        "ĺĳê³¡": 4973,
        "ļ©": 4974,
        "ľĦ": 4975,
        "ľíĶĮ": 4976,
        "ŀ¬": 4977,
        "łë¡ľ": 4978,
        "Ġì¡": 4979,
        "Ġìħ": 4980,
        "Ġë´ī": 4981,
        "´ìŀ¬": 4982,
        "anel": 4983,
        "style": 4984,
        "Ġë§¤": 4985,
        "Ġë§¨íķ´íĬ¼": 4986,
        "íķĺëĿ¼": 4987,
        "ê³¨": 4988,
        "ë¡¯": 4989,
        "ë¡Ģ": 4990,
        "Ġíľ": 4991,
        "ìĿ´íķ´": 4992,
        "ë¡ľëĬĶ": 4993,
        "ìķĪë¶": 4994,
        "Ġë°Ģ": 4995,
        "ìłĿ": 4996,
        "ê°Ŀ": 4997,
        "ìĦ¬": 4998,
        "ìĦ¤ëªħ": 4999,
        "ĠìłĢìŀ¥": 5000,
        "Ġìķķ": 5001,
        "ìĭ±": 5002,
        "ëĭ¤ìĿĮ": 5003,
        "ëıĦìĭľ": 5004,
        "ë©Ģíĭ°": 5005,
        "ìľ¡": 5006,
        "ë¦¬ì§Ģ": 5007,
        "ë¦¬ëħ¸": 5008,
        "ìĬ·": 5009,
        "ë§¤ë": 5010,
        "Ģíģ¬": 5011,
        "ĠìłķëıĦ": 5012,
        "Ġë°ĶìĿ´ìĹĲ": 5013,
        "ìŀĲê°Ģ": 5014,
        "ĠìĿ´ìļ©": 5015,
        "íķ´ê²°": 5016,
        "ìĭľíĤ¤ëĬĶ": 5017,
        "les": 5018,
        "ëł¸": 5019,
        "ëłī": 5020,
        "ê¸°ìĿĺ": 5021,
        "Ġì§Ģìĥģ": 5022,
        "Ġì§ĢëĤ´ì": 5023,
        "Ġì§Ģë°Ķ": 5024,
        "Ġë¶Ģì¡±": 5025,
        "ĠìĦľì": 5026,
        "ĠíķĺëıĦë¡Ŀ": 5027,
        "Ġì¤Ģëĭ¤": 5028,
        "ìĿ¸ë¯¼": 5029,
        "ath": 5030,
        "athetic": 5031,
        "ĠìķĮìĤ¬": 5032,
        "ĠBM": 5033,
        "ĠìŀĲë¦¬": 5034,
        "ìĿ¼ê¹Įì§Ģ": 5035,
        "ìĿ¼ë³¸": 5036,
        "Ġê°Ģì§Ģ": 5037,
        "ëĭĲ": 5038,
        "ĠëĦ¤ëįľëŀĢëĵľ": 5039,
        "ëĿ¼ìĿ´ì": 5040,
        "ëĿ¼ë²¨": 5041,
        "ĠBeeê³ł": 5042,
        "ì²ĺë¦¬": 5043,
        "ì²©íķ´ìĦľ": 5044,
        "Ġìłķë¦¬ëıĦ": 5045,
        "ard": 5046,
        "ëĵľíķĦ": 5047,
        "ĢìĤ¬": 5048,
        "ĠìĹ¼": 5049,
        "ìłķìĦľ": 5050,
        "ĠìĦ¤ëªħìĿ´ëĤĺ": 5051,
        "ĠìĦ¤ëªħë³´ëĭ¤": 5052,
        "Ġì§§ìķĦ": 5053,
        "ìĬ¤ê°Ģ": 5054,
        "ìĬ¤ì½Ķ": 5055,
        "ìĬ¤íĥĢ": 5056,
        "ìĬ¤íİĺìĿ¸ìĸ´": 5057,
        "section": 5058,
        "res": 5059,
        "ress": 5060,
        "ĠìķĦë©Ķ": 5061,
        "chno": 5062,
        "ĠíĮĮê²¬": 5063,
        "ĠíĮĮìĿ´íĶĦëĿ¼ìĿ¸": 5064,
        "ĠëĮĢíĻĶíĺķìľ¼ë¡ľ": 5065,
        "ĠëĮĢíĻĶíķĺë©´ìĦľ": 5066,
        "ĠëıĦìļ¸": 5067,
        "Ġì§Īë¬¸ìĿĢ": 5068,
        "¤Ħê²Į": 5069,
        "ruth": 5070,
        "ount": 5071,
        "ë¥´íĪ¬": 5072,
        "ìŀ¥ìĿ´ëĭ¤": 5073,
        "ìŀ¥ë¬¸": 5074,
        "ĠìľĮë¦¬ìĹĦ": 5075,
        "îĪĤ[\"": 5076,
        "ľì¡°": 5077,
        "ĠìĿ¼ì¢ħ": 5078,
        "ë°ķ": 5079,
        "ëħĦëĮĢ": 5080,
        "ëħĦê¹Įì§Ģ": 5081,
        "ĠìĺģêµŃìĿĺ": 5082,
        "Ġëª¨ëĳĲ": 5083,
        "ĠíķĺëĤĺìĿ´ëĭ¤": 5084,
        "Ġì°½": 5085,
        "ìĽĮëĵľ": 5086,
        "íĬ¸ìĿĺ": 5087,
        "Ġíĺĳ": 5088,
        "alTo": 5089,
        "ìľĦëĮĢ": 5090,
        "ì¹¸": 5091,
        "ì¹´í": 5092,
        "ĠëĲĺìĹĪëĭ¤": 5093,
        "Ġìĺģìĸ´ëıĦ": 5094,
        "Ġë¬´": 5095,
        "Ġë¹Ī": 5096,
        "ë£¬": 5097,
        "Ġì¹ĺ": 5098,
        "Ġì¹´í": 5099,
        "Ġ22": 5100,
        "Ġìī¬": 5101,
        "Ġìĭľë¦¬ìķĦ": 5102,
        "ë¥ĺë¡ľ": 5103,
        "ì²Ńë¶": 5104,
        "ĠìĥĿìĤ°": 5105,
        "Ġìŀĳê°Ģ": 5106,
        "ĠíķĻìĬµíķ´ìĦľ": 5107,
        "ìĪĺë¡ľ": 5108,
        "Ġëĭµë³ĢìĿĦ": 5109,
        "ëŁ¬ìĬ¤": 5110,
        "ëŁ¬ìĭľìķĦ": 5111,
        "Ġassistant": 5112,
        "ìĥģìĿĺ": 5113,
        "Ġì¡°ì§Ģ": 5114,
        "Ġìľłëªħ": 5115,
        "Ġê°ľë°ľ": 5116,
        "ram": 5117,
        "Ġë§Ĳíķ´ì¤Ħê²Į": 5118,
        "ĠCh": 5119,
        "ĠCom": 5120,
        "ĠëĮĢë¶Ģ": 5121,
        "ëªħìĿĢ": 5122,
        "íĨłì": 5123,
        "ê³µìĹħ": 5124,
        "ì¹ĺë§Īíģ¬": 5125,
        "ĠìĤ¬ëŀĮëĵ¤": 5126,
        "Ġíķ´ëĭ¹": 5127,
        "Ġ193": 5128,
        "Ġ195": 5129,
        "ìĦ¸ê¸°": 5130,
        "entity": 5131,
        "ëĲĺê³ł": 5132,
        "Ġì°¨ì§Ģ": 5133,
        "Ġë©Ķì¹´": 5134,
        "Ġê´Ģê³Ħ": 5135,
        "ì£¼ìĹĲ": 5136,
        "ì£¼ì£¼ìĿĺ": 5137,
        "ĠìĬ¤íĬ¸": 5138,
        "ĠìĬ¤ì¼Ģ": 5139,
        "ĠìĬ¤ì½Ķ": 5140,
        "ĠìĬ¤íĬľ": 5141,
        "ĠìĬ¤íĤ¤ë§Ī": 5142,
        "ĠëĤłìĶ¨ì²ĺëŁ¼": 5143,
        "ëıĻìĹĲ": 5144,
        "ìĬ¤íĬ¸ë¦¬": 5145,
        "company": 5146,
        "ĠìĻĦ": 5147,
        "íĻĺê°ģ": 5148,
        "Ġë¹ĦìĬ·": 5149,
        "ë¶ĢëĬĶ": 5150,
        "Ġë¨¹ëĬĶ": 5151,
        "Ġ2019": 5152,
        "ĠìĿ´ë²ĪìĹĲëĬĶ": 5153,
        "ĠíħĶ": 5154,
        "igence": 5155,
        "ĠíĶĦë¡ľëįķìħĺ": 5156,
        "ĠíĶĦë¡ľìłĿ": 5157,
        "ĠMe": 5158,
        "ĠMoE": 5159,
        "Ġë¯¸ëĵľíķĦ": 5160,
        "ëłĪìķĦ": 5161,
        "ëłĪìĿ´ìħĺ": 5162,
        "ĠìłľìķĪìĿĦ": 5163,
        "ĠìłľìķĪê¹Įì§Ģ": 5164,
        "ĠëĬ¥ëł¥ìĿĦ": 5165,
        "Ġì§ĢìĹŃìĿĦ": 5166,
        "Ġê²½ìłľ": 5167,
        "ë¹Ħë¥¼": 5168,
        "ë¹Ħìļ©": 5169,
        "Ġ**(": 5170,
        "íĮĲ": 5171,
        "íĮĮëĿ¼": 5172,
        "Ġë³´ìľĦ": 5173,
        "Ġê³µìĽĲ": 5174,
        "Ġê³µíĻĶêµŃ": 5175,
        "Ġë¡ľìĬ¤": 5176,
        "ìĨĮìĬ¤": 5177,
        "ĠìĦ¤ë¦½": 5178,
        "íĺ¸ìĦł": 5179,
        "Ġmeans": 5180,
        "ë¬¸ìłľ": 5181,
        "ĠíĹ¤": 5182,
        "Ġìłģìĸ´ì¤ĺ": 5183,
        "Ġíı¬ìľł": 5184,
        "ĠëıĻìĭľ": 5185,
        "ìĥ¤": 5186,
        "Ġëĳĺ": 5187,
        "Ġì²ľìŀ¬": 5188,
        "ations": 5189,
        "Ġë°°ìļ°ìĿ´ëĭ¤": 5190,
        "Ġêµ°ìĿ´ëĭ¤": 5191,
        "Ġ30": 5192,
        "Ġ35": 5193,
        "ĠíĻĶíķĻ": 5194,
        "Ġì±Ħ": 5195,
        "ë©ĶìĿ¸": 5196,
        "ë©ĶíĬ¸ë¦Ń": 5197,
        "Ġë¸Ķ": 5198,
        "ĠìĿ´ë¦ĦìĿĢ": 5199,
        "Ġëĵ±ìĿ´": 5200,
        "ë²Ħì§ĢëĬĶ": 5201,
        "logy": 5202,
        "ì½§": 5203,
        "ĠìĨĮëł¨": 5204,
        "elligence": 5205,
        "Ġintelligence": 5206,
        "Ġë§ĪìħĶ": 5207,
        "ĠìķĪìłķ": 5208,
        "ĠíĨµíķ©": 5209,
        "Ġ53": 5210,
        "ĠìĺĪì¸¡íķĺê±°ëĤĺ": 5211,
        "Ġ2015": 5212,
        "ĠëĤ¨ëıĻ": 5213,
        "ityPrompt": 5214,
        "ĠíıīìķĪë¶": 5215,
        "Ġresults": 5216,
        "ĠìĤ¼": 5217,
        "ĠìĤ´ë§Į": 5218,
        "Ġë°ľë§¤ë": 5219,
        "Ġë³´ì¡°ë¥¼": 5220,
        "Ġeval": 5221,
        "Ġgenerate": 5222,
        "Īë¶ĢíĦ°ëĬĶ": 5223,
        "Ġìłķíķ´ë´ĲëıĦ": 5224,
        "Ð¸Ñ": 5225,
        "ĠÐ¨": 5226,
        "ĠíĬ¹ìłķ": 5227,
        "Ġì²´íģ¬": 5228,
        "ĠìĹ¬ê¸°ìķ¼": 5229,
        "Ġíģ¬ê²Į": 5230,
        "Ġë²łìĿ´ìĬ¤ë": 5231,
        "Ġíıīê°Ģë¥¼": 5232,
        "Ġëħ¹": 5233,
        "Ġrecog": 5234,
        "Ġì£¼ìĬ¤ë¡ľëıĦ": 5235,
        "rowser": 5236,
        "Ġ2005": 5237,
        "Ġ2006": 5238,
        "Ġstep": 5239,
        "ĠKV": 5240,
        "ĠëĽ°ê³ł": 5241,
        "Ġë³Ģëªħ": 5242,
        "ĠíħĮìĿ´íĶĦ": 5243,
        "Ġíķ©ìĿĺ": 5244,
        "Ġë°©ìĭĿìľ¼ë¡ľ": 5245,
        "Ġìłľê³µíķĺëĬĶ": 5246,
        "Ġ1975": 5247,
        "ĠíĶĦëŀĳìĬ¤ìĿĺ": 5248,
        "ĠëıħìĿ¼ìĿĺ": 5249,
        "ìĺĢê³ł": 5250,
        "Ġê³łìĸĳìĿ´ëĬĶ": 5251,
        "ĠìĥĪì½¤íķĺê³ł": 5252,
        "ì»¤": 5253,
        "Ġì°¸ìĹ¬": 5254,
        "Ġë¯¼ì²©íķ´ìĦľ": 5255,
        "ublic": 5256,
        "Ġíģ´ëŁ½": 5257,
        "Ġëĭµíķĺê²łëĭ¤ê³ł": 5258,
        "ĠìĦ¸ê³ĦìĹĲìĦľ": 5259,
        "ĠìĹŃíķłìĿĦ": 5260,
        "Ġcoverage": 5261,
        "Ġë©Ķëī´ë¥¼": 5262,
        "ë¦¬íĬ¸ëłĪìķĦ": 5263,
        "Ġëĭ¨ìĪľíŀĪ": 5264,
        "Ġë°ĽìĿĦê²Į": 5265,
        "ĠdogëĬĶ": 5266,
        "Ġdogê°Ģ": 5267,
        "ĠíļĮìĤ¬": 5268,
        "Ġê³łìĸĳìĿ´ê°Ģ": 5269,
        "Dialogues": 5270,
        "ĠíĬľ": 5271,
        "ĠìĦľë¹ĦìĬ¤ë¥¼": 5272,
        "ĠíĥĢìĽĮ": 5273,
        "ÑĢÐ¸Ð": 5274,
        "ssette": 5275,
        "ĠìĬ¤ìľĦìĬ¤": 5276,
        "ëłĪìĭľëĭ¤": 5277,
        "QuAD": 5278,
        "åĽ½": 5279,
        "Ġlearns": 5280,
        "Ģë¥´íĤ¤": 5281,
        "ĠìĬ¹ê°ķ": 5282,
        "Ġëĭ¤ë£°": 5283,
        "Ġìľ¡ìĭĿ": 5284,
        "ì°©ìłľ": 5285,
        "ĠíĬ¹ì§ķìĿ¸": 5286,
        "ificial": 5287,
        "mericano": 5288,
        "ĠíĻľìķ½íķĺê³ł": 5289,
        "\"]îĪģ": 5290,
        "ipel": 5291,
        "weight": 5292,
        "ĩĮìĹ¼": 5293,
        "Ġê°ľìµľ": 5294,
        "Ġtechno": 5295,
        "ĠìĿ´ë²Īë¶ĢíĦ°ëĬĶ": 5296,
        "Ġë©´ìłģìĿĢ": 5297,
        "Ġì¡°ìļ©íķĺê³ł": 5298,
        "ĠEmpathetic": 5299,
        "atasheets": 5300,
        "ĠØ§ÙĦ": 5301,
        "corpora": 5302,
        "xicityPrompt": 5303,
        "Ġartificial": 5304,
        "Ġide": 5305,
        "ľíĶĮë¦¿": 5306,
        "Ġë°ĶìĿ´ìĹĲë¥¸": 5307,
        "Ġì§ĢëĤ´ìĺ¨": 5308,
        "ìĿ¸ë¯¼ê³µ": 5309,
        "ë¥´íĪ¬ê°Ī": 5310,
        "ĠìĿ¼ì¢ħìĿ´ëĭ¤": 5311,
        "alToxicityPrompt": 5312,
        "ĠìĬ¤íĬľëĶĶìĺ¤": 5313,
        "Ġë¯¸ëĵľíķĦëįĶ": 5314,
        "Ġìłģìĸ´ì¤ĺëıĦ": 5315,
        "Ġíı¬ìľłë¥ĺë¡ľ": 5316,
        "ĠíıīìķĪë¶ģëıĦ": 5317,
        "Ġrecognize": 5318,
        "Ġtechnology": 5319,
        "ĠEmpatheticDialogues": 5320,
        "alToxicityPrompts": 5321,
        "\":": 5322,
        "):": 5323,
        "24": 5324,
        "28": 5325,
        "48": 5326,
        "98": 5327,
        "=...": 5328,
        "BE": 5329,
        "Bi": 5330,
        "Bee": 5331,
        "Datasheets": 5332,
        "LU": 5333,
        "LAI": 5334,
        "ON": 5335,
        "Pairs": 5336,
        "RT": 5337,
        "RLHF": 5338,
        "Set": 5339,
        "SON": 5340,
        "ULE": 5341,
        "WO": 5342,
        "act": 5343,
        "ace": 5344,
        "ber": 5345,
        "bahn": 5346,
        "co": 5347,
        "cod": 5348,
        "ding": 5349,
        "eo": 5350,
        "flow": 5351,
        "gan": 5352,
        "gress": 5353,
        "ho": 5354,
        "ich": 5355,
        "li": 5356,
        "mc": 5357,
        "mor": 5358,
        "ni": 5359,
        "ning": 5360,
        "ph": 5361,
        "pre": 5362,
        "plo": 5363,
        "qu": 5364,
        "rit": 5365,
        "ty": 5366,
        "text": 5367,
        "ud": 5368,
        "uation": 5369,
        "¥Ĳ": 5370,
        "«ìĸ´": 5371,
        "¯¸": 5372,
        "°¨": 5373,
        "·¨": 5374,
        "¸Į": 5375,
        "¸ł": 5376,
        "½ľ": 5377,
        "ÉĻ": 5378,
        "Ñĥ": 5379,
        "Ñĭ": 5380,
        "Ø³": 5381,
        "ãĤ": 5382,
        "ä¹": 5383,
        "å¿": 5384,
        "åī": 5385,
        "åį": 5386,
        "åľ": 5387,
        "æĸ": 5388,
        "æĿ": 5389,
        "çŁ": 5390,
        "è±": 5391,
        "éģ": 5392,
        "ë®": 5393,
        "ëĤ¬": 5394,
        "ìĩ": 5395,
        "ì¥Ĳ": 5396,
        "íĴ": 5397,
        "Ġ$": 5398,
        "ĠZ": 5399,
        "Ġç": 5400,
        "Ġen": 5401,
        "Ġge": 5402,
        "Ġáĥ": 5403,
        "Ġquality": 5404,
        "ĠãĢĪ": 5405,
        "ģ´": 5406,
        "Ĥ¤": 5407,
        "Ĥ´": 5408,
        "ĦĪ": 5409,
        "ħĮ": 5410,
        "ĩ¼": 5411,
        "Ĭê²Į": 5412,
        "Įħ": 5413,
        "ĵìĿĢ": 5414,
        "ķìĭľ": 5415,
        "Ĺìĭľ": 5416,
        "ĺ¤ë": 5417,
        "Ŀëĭ¤": 5418,
        "Ġì¿ł": 5419,
        "Ġìĩ¼": 5420,
        "ĠëĿ": 5421,
        "Ġëħķ": 5422,
        "ance": 5423,
        "ery": 5424,
        "Ġë§Ŀ": 5425,
        "íķĺìĺĢìľ¼ë©°": 5426,
        "íķĺìĺĢê³ł": 5427,
        "ë¡¬": 5428,
        "Ġìŀİ": 5429,
        "ĠìĿĢ": 5430,
        "istill": 5431,
        "ĠíĢ": 5432,
        "Ġíĭ°": 5433,
        "ìĿ´ëĦĪ": 5434,
        "ë¡ľìĦľ": 5435,
        "ìķĪë": 5436,
        "Ġë°ķ": 5437,
        "Ġìłľì¡°": 5438,
        "Ġìķ¨": 5439,
        "Ġìķħ": 5440,
        "ĠìŀĪìľ¼": 5441,
        "ìĭ¯": 5442,
        "ìĭ¼": 5443,
        "ìķĦëŀĺ": 5444,
        "ìķĦë²Ħì§ĢëĬĶ": 5445,
        "ìĹĲëĵľ": 5446,
        "ë¦¬ìĸ´": 5447,
        "ë¦¬ìĿĺ": 5448,
        "ë¦¬ìłģ": 5449,
        "ê°Ģê°Ģ": 5450,
        "ê°Ģìĵ°": 5451,
        "ĠìĪĺì§ĳ": 5452,
        "ì§ĢìĭĿ": 5453,
        "ì§Ģë§ī": 5454,
        "¤ëł": 5455,
        "¤ë²Ħ": 5456,
        "int": 5457,
        "íķ´ì£¼ëĬĶ": 5458,
        "ë§¨": 5459,
        "Ġìłķëł¬": 5460,
        "Ġë°ĶìĿ´ì": 5461,
        "ìŀĲìĿ¸": 5462,
        "ìŀĲë¹": 5463,
        "ĪëĮ": 5464,
        "Īëįĺ": 5465,
        "Īë²ł": 5466,
        "ìĭľê°Ģ": 5467,
        "ìĭľìĿĺ": 5468,
        "ìĭľìłķ": 5469,
        "ìĭľì¼": 5470,
        "ìĿ´ì¹ĺ": 5471,
        "ìľ¼ë¡ľëıĦ": 5472,
        "Ġtun": 5473,
        "ê¸°ìĹĲ": 5474,
        "ê¸°ê´Ģ": 5475,
        "Ġì§ĢìĬ¤": 5476,
        "Ġì§Ģìłģ": 5477,
        "Ġì¢Į": 5478,
        "Ġê·¸ë¦¬": 5479,
        "Ġê·¸ëŁ°": 5480,
        "ë¶Ģì": 5481,
        "ĠíķĺìĽĲìĿĺìĽĲ": 5482,
        "one": 5483,
        "only": 5484,
        "ĠìķĮë°Ķ": 5485,
        "ìĿ¼ë¦¬": 5486,
        "ìĿ¼ìĬ¤": 5487,
        "Ġê°Ģê¹": 5488,
        "ëĿ¼ìļ°ëĵľ": 5489,
        "arge": 5490,
        "ards": 5491,
        "íķľëĭ¤ê³ł": 5492,
        "Ġê¸ī": 5493,
        "ĠìĿ´ëŁ¬": 5494,
        "Ġë³´ê¸°": 5495,
        "ĠìĹħ": 5496,
        "ĠìĹĶ": 5497,
        "ctur": 5498,
        "ĠìĤ¬ìĿ´": 5499,
        "ĠìĤ¬ê±´": 5500,
        "ìłķëĭµ": 5501,
        "ĠìĦ¤ëªħìĿ´ëŀĳ": 5502,
        "ĠìĦ¤ëªħíķ´ì£¼ëĬĶ": 5503,
        "Ġìļ¸íĬ¸": 5504,
        "Ġë°©ìĨ¡": 5505,
        "ìłģìĿĢ": 5506,
        "ìłľìķ½": 5507,
        "Ġìĭ±": 5508,
        "Ġìĭ«ìĸ´": 5509,
        "Ġê²¸": 5510,
        "ional": 5511,
        "ĠìķĦíĮĮ": 5512,
        "ĠìķĦëŀįìĸ´": 5513,
        "Ġì½ĶëĦ·": 5514,
        "Ġì½ĶìĬ¤ëª¨ìĬ¤": 5515,
        "ìĿ´íģ¬": 5516,
        "íģ´": 5517,
        "ĠëĮĢíĻĶìĹĲìĦľ": 5518,
        "Ġê¸°ëıĻ": 5519,
        "łìĨĮ": 5520,
        "Ġ15": 5521,
        "Ġíİ¸ìĿ´": 5522,
        "Ġë²Į": 5523,
        "ë¥´íģ¬": 5524,
        "ë¥´íĭ°": 5525,
        "ìĺ¬": 5526,
        "orge": 5527,
        "ĠìłĦíĪ¬": 5528,
        "ĠìłĦë¬¸": 5529,
        "ĠìłĦì§ģ": 5530,
        "ëĤł": 5531,
        "ĠìľĪ": 5532,
        "êµ¬ìĹĲìĦľ": 5533,
        "ense": 5534,
        "ëĭĪìĸ´": 5535,
        "ëĭĪì¹ĺ": 5536,
        "ĠëĤĺëĿ¼": 5537,
        "ĠëĤĺìĹ´": 5538,
        "Ġê´Ģì": 5539,
        "ĠìĿ¼ìĸ´": 5540,
        "ĠìĿ¼ê´Ģ": 5541,
        "Ġmult": 5542,
        "ìĦ±ìĿĦ": 5543,
        "ìĦ±ìĿĺ": 5544,
        "ìĦ±ê³¼": 5545,
        "Ġêµ¬ë¡ľ": 5546,
        "Ġêµ¬ìĹŃ": 5547,
        "Ġë¶Ģë¥´": 5548,
        "Ġë¶Ģë¥´ë©´": 5549,
        "ìĽĮìĦľ": 5550,
        "Ġëį°ìĿ´": 5551,
        "ĠìķĪëĤ´": 5552,
        "íĬ¸ë¥¼": 5553,
        "Ġíĺ¹ìĿĢ": 5554,
        "ĠìķĮëł¤ìł¸": 5555,
        "elf": 5556,
        "Ġê°ĢëĬ¥íķĺëĭ¤ê³ł": 5557,
        "ìľĦìĽĲ": 5558,
        "ì¹Ļ": 5559,
        "Ġëį°ìĿ´íĦ°ìħĭ": 5560,
        "ì§Īë¬¸": 5561,
        "Ġì£¼ë¡ľ": 5562,
        "ĠìłľìķĪë": 5563,
        "Ġëľ»íķľëĭ¤": 5564,
        "Ġë¹łìĨĮ": 5565,
        "ìĿĮìĿĦ": 5566,
        "Ġê³¼ìłľ": 5567,
        "ëĮĢì": 5568,
        "Ġì¹´ìļ": 5569,
        "ìĤ¬ë¥¼": 5570,
        "ìĤ¬ìļ°": 5571,
        "ĠëĬĺ": 5572,
        "ë¬´ìłģ": 5573,
        "Ġ24": 5574,
        "Ġê¶ģê¸Īíķ´": 5575,
        "Ġë¬¸ìĦľëĤĺ": 5576,
        "Ġpipel": 5577,
        "ĠìĿĺíļĮ": 5578,
        "ĠíķłíĤ¤ìĹĲë¦¬ìķĦ": 5579,
        "Ġë©ķìĭľ": 5580,
        "ë³´ë¥´": 5581,
        "ĠAA": 5582,
        "ìķĪìłķ": 5583,
        "ëĥĲ": 5584,
        "ĠìĿ¸ìļ©": 5585,
        "ĠìĿ¸íĶĦ": 5586,
        "ĠìĿ¸ê±´": 5587,
        "Ġë§Ĳíķ´ëıĦ": 5588,
        "Ġìĥģíĺ¸": 5589,
        "ëĮĢìłĦ": 5590,
        "ëĮĢíķĻêµĲ": 5591,
        "Ġì¡°ìĦł": 5592,
        "ìļ°ë¦¬": 5593,
        "ĠìķĦëĭĪë©´": 5594,
        "ìĽĶìĹĲ": 5595,
        "ĠCa": 5596,
        "ĠCount": 5597,
        "Ġìĭ¤íĮ¨": 5598,
        "Ġì¶ĶìĤ°": 5599,
        "tting": 5600,
        "ë¦°ëĭ¤": 5601,
        "ìļ´ëĵľ": 5602,
        "ëĦĮ": 5603,
        "Ġë³´ê³łìĦľ": 5604,
        "ë¬¼íķĻ": 5605,
        "Ġë©ĶìĿ´ìłĢ": 5606,
        "Ġë©ĶíĬ¸ë¦Ń": 5607,
        "Ġëĵ¤ìĸ´": 5608,
        "ĠíıŃ": 5609,
        "ì£¼ìĿ¸": 5610,
        "ìĿ´ì§Ģë©ĺ": 5611,
        "Ġê³łìĨį": 5612,
        "ĠìĿ´ìķ¼ê¸°íķ´ëıĦ": 5613,
        "ìłĦíŀĪ": 5614,
        "ĠìĬ¤íİĺìĿ¸": 5615,
        "ĠìĿ´ìĥģíķĺëĭ¤ê³ł": 5616,
        "Ġëįĺìł¸ì£¼ë©´": 5617,
        "rov": 5618,
        "ëª¨ëĭĪ": 5619,
        "ëª¨ëĭ¬": 5620,
        "ë²Īì§¸": 5621,
        "ĠìĹĲë²Ī": 5622,
        "ĠSe": 5623,
        "edding": 5624,
        "Ġlong": 5625,
        "Ġë¹Ħíĸī": 5626,
        "Ġë¹Ħë¡¯": 5627,
        "Ġê²ĥìĿĦ": 5628,
        "Ġê²ĥìľ¼ë¡ľ": 5629,
        "Ġê²ĥìĿ´ëĭ¤": 5630,
        "Ġì¤ĳìļĶíķĺëĭ¤": 5631,
        "Ġ2020": 5632,
        "ĠíħľíĶĮë¦¿": 5633,
        "ê°ľë¯¸": 5634,
        "ĠModel": 5635,
        "íĤ¤ìĬ¤íĥĦ": 5636,
        "ĠëķĮë¬¸": 5637,
        "ĠEst": 5638,
        "ëłĪìĬ¤": 5639,
        "´íĭ°": 5640,
        "íħĶ": 5641,
        "Ġê²½ê³Ħ": 5642,
        "Ġstage": 5643,
        "ĠìĿĮìķħê°Ģ": 5644,
        "ë¹ĦíŀĪ": 5645,
        "ĠëĶĶì½ĶëįĶ": 5646,
        "Ġê³µê²©": 5647,
        "íĸīìĦ±": 5648,
        "ìĨĮê¸°": 5649,
        "tereo": 5650,
        "ìĸ¸": 5651,
        "ì§ĪìĿĺ": 5652,
        "ì°½": 5653,
        "ì¦Ŀ": 5654,
        "ì¦Īë²ł": 5655,
        "Ġorgan": 5656,
        "ĠíĹĪë": 5657,
        "ĠíĹĮëĵľëłĪëĵľìĽ¨ìĿ´íĬ¸": 5658,
        "Ġíı¬ë¥´íĪ¬ê°Ī": 5659,
        "íĶĦë¡ľ": 5660,
        "ĠëıĻìķĪ": 5661,
        "ìĥĪ": 5662,
        "000": 5663,
        "ëĭ¨ìĿ¼": 5664,
        "ëŀĳìĬĪ": 5665,
        "êµ°ìĹĲ": 5666,
        "ĠìĹ°ê·": 5667,
        "ĠìĹ°ë°©": 5668,
        "Ġë°°ìļ°ê¸°": 5669,
        "Ġ32": 5670,
        "ë¯¼ì£¼ì£¼ìĿĺ": 5671,
        "ĠêµŃìĻķ": 5672,
        "ĠêµŃê²½ìĿĦ": 5673,
        "Ġê°ĲìĦ±": 5674,
        "ĠìĿ´ë¦ĦìĿĦ": 5675,
        "ĠíĸĪëĭ¤": 5676,
        "ĠìĪĺëıĦê¶Į": 5677,
        "ĠìĦłê±°": 5678,
        "Ġë¯¸êµŃìĹĲìĦľ": 5679,
        "ĠGQA": 5680,
        "Ġëĭ¨ìľĦê³Ħ": 5681,
        "ĠìĹŃìĤ¬": 5682,
        "ĠLongBench": 5683,
        "ì½ľ": 5684,
        "íĭ°ìĺ¤": 5685,
        "ĠìĨĮìĬ¤": 5686,
        "Ġê³Ħê¸ī": 5687,
        "ĠìĦłìĪĺìĿ´ìŀĲ": 5688,
        "Ġë§ĪìĿĦ": 5689,
        "ìľłëŁ½": 5690,
        "ìľłëĭīìĬ¤": 5691,
        "Ġ2018": 5692,
        "ë°Ķë¡ľ": 5693,
        "ë°ĶìĿ´ì§Ģë©ĺ": 5694,
        "ê´Ģê³Ħ": 5695,
        "Ġë¦´": 5696,
        "íĹ¤ë": 5697,
        "ëħ¸ë¥´ìĽ¨": 5698,
        "ëħ¸ìĤ¬ìļ°": 5699,
        "ety": 5700,
        "Ġíļ¨": 5701,
        "Ġë¹łë¥¸": 5702,
        "allu": 5703,
        "Ġready": 5704,
        "Ġreading": 5705,
        "ĠëıħìĦ±": 5706,
        "Ġìºĺë¦¬íı¬ëĭĪìķĦ": 5707,
        "Ġìķłë§¤": 5708,
        "ì²´ë¥¼": 5709,
        "ulti": 5710,
        "ĠêµĲë¥ĺ": 5711,
        "ĠêµĲìľ¡": 5712,
        "Ġì²´ê³Ħ": 5713,
        "Ġ1995": 5714,
        "íĶ¼ëħ¸ìĤ¬ìļ°": 5715,
        "Ġíģ¬ë¡ľìķĦíĭ°ìķĦ": 5716,
        "Ġíı¬íķ¨íķľ": 5717,
        "ĠíŀĪ": 5718,
        "ëłĪë¹Ħ": 5719,
        "Ġë²łìĿ´ìĬ¤": 5720,
        "Ġëħ¼": 5721,
        "rowS": 5722,
        "Ð°Ð½": 5723,
        "áĥĲ": 5724,
        "áĥĺ": 5725,
        "ĠìĿĮë°ĺìĿĢ": 5726,
        "ĠíĶĮ": 5727,
        "Ġ1940": 5728,
        "Ġ1945": 5729,
        "form": 5730,
        "ì¡Į": 5731,
        "ì¡Įëĭ¤": 5732,
        "ĠëŁ°": 5733,
        "Ġì¢ħë¥ĺ": 5734,
        "ìĺĪíĶĦ": 5735,
        "Ġ1989": 5736,
        "Ġê²½ë¡ľìĿ¸ì§Ģ": 5737,
        "ĠíĥľìĬ¤íģ¬": 5738,
        "ĠíĥľíĴ": 5739,
        "ĠëĨĴìĿ´ëĬĶ": 5740,
        "fulQA": 5741,
        "orean": 5742,
        "Ġìĭľìŀĳíķł": 5743,
        "ĠìĿ¸ìĤ¬ë¥¼": 5744,
        "ĠRoPE": 5745,
        "Ġìĺ¬ë¦¼íĶ½ìĹĲ": 5746,
        "Ĭ¤ëĭĪìķĦ": 5747,
        "Ġê¹Ĭê²Į": 5748,
        "ĠëĮĢì¤ĳ": 5749,
        "ĠìĺģíĻĶìĿ´ëĭ¤": 5750,
        "Ġë©Ģíĭ°ëª¨ëĭ¬": 5751,
        "ĠìĿ¸ìłķíķľëĭ¤": 5752,
        "ĠìĻķìĦ¸": 5753,
        "ë²łë¥´íģ¬": 5754,
        "íĿĲë¦Ħ": 5755,
        "Ġê°ģê°ģ": 5756,
        "ĠíķĦíĦ°ë§ģ": 5757,
        "ìĨĲ": 5758,
        "Ġë¸Įë£¨": 5759,
        "Ġëĭ¨ìĪľíĻĶ": 5760,
        "motions": 5761,
        "workers": 5762,
        "Ð¾Ð²": 5763,
        "Ġë§¡ìķĺ": 5764,
        "Ġë§¡ìķĺëĭ¤": 5765,
        "ĠíĪ¬ìĨĲ": 5766,
        "ê·ľëª¨": 5767,
        "ĠëĮĢíķľë¯¼êµŃìĿĺ": 5768,
        "ĠëŁ¬ìĭľìķĦìĿĺ": 5769,
        "oEmotions": 5770,
        "ĠíķŃê³µ": 5771,
        "Ġì²łëıĦìĹŃìĿ´ëĭ¤": 5772,
        "Ġì¹´ìĦ¸íĬ¸": 5773,
        "Ġì¶©ëıĮ": 5774,
        "ĠìĻ¸êµĲ": 5775,
        "RealToxicityPrompts": 5776,
        "afety": 5777,
        "íĭĢëŀľëĵľ": 5778,
        "Ġë°±ë³¸": 5779,
        "ë¦¬ì¹´ëħ¸": 5780,
        "Ġì¼Ģ": 5781,
        "Ġì¤Ģë¹Ħë¥¼": 5782,
        "Ġë²¤ì¹ĺë§Īíģ¬": 5783,
        "Ġ1895": 5784,
        "ìĿ´íĥĪë¦¬ìķĦìĸ´": 5785,
        "ject": 5786,
        "mbedding": 5787,
        "ëĨĢ": 5788,
        "ĠìĬĪ": 5789,
        "Ġìĵ´ë§Ľ": 5790,
        "ìķĮë²łë¥´": 5791,
        "ê¸¸ìĿ´": 5792,
        "Ġê°ĴìĿĢ": 5793,
        "ë¦¬ê·¸ìĿĺ": 5794,
        "ĠìĿ´ìľłë¥¼": 5795,
        "ĠìĤ¬ìĭ¤ìĦ±": 5796,
        "ëŀŃíĤ¹": 5797,
        "ë¥´ëª¨ëŀĳìĬĪ": 5798,
        "ĠServ": 5799,
        "ĠëģĮëł¤": 5800,
        "ĠëłĪì½ĶëĵľìĹĲ": 5801,
        "ĠíĶĦëłĪìŀĦìĽĮíģ¬": 5802,
        "ĠìĤ¬ìļ°ëĶĶìķĦëĿ¼ë¹ĦìķĦìĿĺ": 5803,
        "LiBi": 5804,
        "judge": 5805,
        "ëĺĲëĬĶ": 5806,
        "ĳìĹŃìĭľ": 5807,
        "Ġì¡´ìŀ¬": 5808,
        "Ġì§§ìķĦìĦľ": 5809,
        "ĠìķĦë©Ķë¦¬ì¹´ëħ¸": 5810,
        "ruthfulQA": 5811,
        "Ġìī¬ìĽĮìĦľ": 5812,
        "ì²Ńë¶ģëıĦ": 5813,
        "ëŁ¬ìĭľìķĦìĸ´": 5814,
        "ĠëĮĢë¶Ģë¶Ħ": 5815,
        "ĠíħĶëłĪë¹Ħ": 5816,
        "Ġì±ĦíĥĿ": 5817,
        "Ð¸Ñĩ": 5818,
        "ĠíĬľëĭĿ": 5819,
        "Ġidea": 5820,
        "LUE": 5821,
        "LAIF": 5822,
        "ULER": 5823,
        "ìĩĦ": 5824,
        "Ġgetting": 5825,
        "Ĺìĭľêµ¬": 5826,
        "Ġëħķë³Ģ": 5827,
        "ìĹĲëĵľìĽĮëĵľ": 5828,
        "ê°Ģìĵ°ë§Ī": 5829,
        "Ġtuning": 5830,
        "Ġê·¸ëŁ°ì§Ģ": 5831,
        "ĠìķĮë°ĶëĭĪìķĦ": 5832,
        "Ġê°Ģê¹Ŀëĭ¤": 5833,
        "ĠìĿ´ëŁ¬íķľ": 5834,
        "Ġìļ¸íĬ¸ëĿ¼": 5835,
        "Ġì¹´ìļ´íĭ°": 5836,
        "Ġpipeline": 5837,
        "Ġë©ķìĭľì½Ķ": 5838,
        "ĠìĿ¸ê±´ë¹Ħ": 5839,
        "ĠCounty": 5840,
        "Ġì¶ĶìĤ°ìľ¼ë¡ľ": 5841,
        "tereoSet": 5842,
        "Ġorganize": 5843,
        "ĠìĹ°ê·¹": 5844,
        "ë¯¼ì£¼ì£¼ìĿĺìĿ¸ë¯¼ê³µ": 5845,
        "Ġìķłë§¤íĸĪëĬĶì§Ģ": 5846,
        "íĶ¼ëħ¸ìĤ¬ìļ°ë£¨ìĬ¤": 5847,
        "ĠíĥľíĴį": 5848,
        "ĠíħĶëłĪë¹ĦìłĦ": 5849,
        "\"(": 5850,
        "/<": 5851,
        "07": 5852,
        "26": 5853,
        "29": 5854,
        "32": 5855,
        "34": 5856,
        "35": 5857,
        "36": 5858,
        "45": 5859,
        "68": 5860,
        "75": 5861,
        "80": 5862,
        "84": 5863,
        ":|---": 5864,
        ">/": 5865,
        "AN": 5866,
        "AS": 5867,
        "CE": 5868,
        "Con": 5869,
        "Chat": 5870,
        "EL": 5871,
        "FlashAttention": 5872,
        "Hat": 5873,
        "II": 5874,
        "Jo": 5875,
        "Low": 5876,
        "Mar": 5877,
        "RA": 5878,
        "Ro": 5879,
        "TB": 5880,
        "TruthfulQA": 5881,
        "ae": 5882,
        "apt": 5883,
        "aEval": 5884,
        "bot": 5885,
        "build": 5886,
        "cin": 5887,
        "eorge": 5888,
        "gr": 5889,
        "gist": 5890,
        "hun": 5891,
        "ie": 5892,
        "ks": 5893,
        "large": 5894,
        "ml": 5895,
        "mm": 5896,
        "man": 5897,
        "mon": 5898,
        "ner": 5899,
        "ock": 5900,
        "ove": 5901,
        "oRA": 5902,
        "pr": 5903,
        "pot": 5904,
        "pac": 5905,
        "rod": 5906,
        "sc": 5907,
        "sour": 5908,
        "tag": 5909,
        "tend": 5910,
        "uk": 5911,
        "wn": 5912,
        "xlarge": 5913,
        "¢°": 5914,
        "£®": 5915,
        "¦Į": 5916,
        "¨ë¦Ń": 5917,
        "©Ľ": 5918,
        "¬ëŀĢ": 5919,
        "®Ĺ": 5920,
        "°£": 5921,
        "°ëłĪ": 5922,
        "°ìĿ´íģ¬": 5923,
        "·Ķ": 5924,
        "¸æ": 5925,
        "¸íĻĶ": 5926,
        "¸ìłĦ": 5927,
        "¹ìĿĦ": 5928,
        "¼ë¦¬": 5929,
        "½ì²ĺ": 5930,
        "¾¨í": 5931,
        "Ã¨": 5932,
        "ÃŁ": 5933,
        "Å¡": 5934,
        "ÉĽ": 5935,
        "ÊĬ": 5936,
        "ËĲ": 5937,
        "Ø¹": 5938,
        "ØŃ": 5939,
        "Ùī": 5940,
        "ÛĮ": 5941,
        "å·": 5942,
        "åĪ": 5943,
        "åı": 5944,
        "åĳ": 5945,
        "åŃ": 5946,
        "å®Ĺ": 5947,
        "æ¥": 5948,
        "æ°£": 5949,
        "çĤ": 5950,
        "çļ": 5951,
        "è¡": 5952,
        "è¶": 5953,
        "èŃ": 5954,
        "éĩ": 5955,
        "é©Ľ": 5956,
        "ëĪ": 5957,
        "ëĪĦ": 5958,
        "ë¢°": 5959,
        "ë·Ķ": 5960,
        "ì¢": 5961,
        "íĦ": 5962,
        "Ġ,": 5963,
        "ĠÃ": 5964,
        "Ġæ": 5965,
        "Ġè": 5966,
        "ĠËĪ": 5967,
        "ĢìĿ¼": 5968,
        "ĢëłĪìĬ¤": 5969,
        "ĥĢ": 5970,
        "ĥĲ": 5971,
        "Ħł": 5972,
        "Ĩ¡": 5973,
        "ĩê±°": 5974,
        "ĬĪë": 5975,
        "Įį": 5976,
        "Įíĥ": 5977,
        "įíķ´": 5978,
        "İłë¡ľ": 5979,
        "Ĳìĥī": 5980,
        "ĵì§Ģ": 5981,
        "ķĹìĭľêµ¬": 5982,
        "ĸ¸": 5983,
        "ĸĦ": 5984,
        "ĺ¬": 5985,
        "ĺìħ": 5986,
        "ĺíĽ": 5987,
        "ľëĭ¤": 5988,
        "ŀ¥": 5989,
        "Ńë°°": 5990,
        "Ġì·¨": 5991,
        "ĠëĩĮìĹ¼": 5992,
        "Ġê¼": 5993,
        "´ìĤ¬": 5994,
        "´ìĬ¤": 5995,
        "ane": 5996,
        "sto": 5997,
        "stit": 5998,
        "íķĺëıĦë¡Ŀ": 5999,
        "íķĺì²ł": 6000,
        "istri": 6001,
        "ĠíĦ°": 6002,
        "Ġíį¼": 6003,
        "ĠíĤ¤": 6004,
        "ìĿ´ê°Ģ": 6005,
        "ìĿ´ë¯¸": 6006,
        "ìĿ´ëĮĢ": 6007,
        "ìĿ´ë¸Į": 6008,
        "ë¡ľëĵľ": 6009,
        "ë¡ľê·¸": 6010,
        "ë¡ľë¹Ħ": 6011,
        "ìķł": 6012,
        "ìķĮíĶĦ": 6013,
        "ê³łíĨµ": 6014,
        "ê³łìĨį": 6015,
        "Ġë§Ĳíķĺê²łëĭ¤ê³ł": 6016,
        "ìĦ¯": 6017,
        "ë¥´ìĹ": 6018,
        "íķľêµŃìĸ´": 6019,
        "Ġìķ¤": 6020,
        "ĠìŀĪìĹĪëĭ¤": 6021,
        "ĠìŀĪìľ¼ëĤĺ": 6022,
        "ìĭŃ": 6023,
        "ëĭ¤ìĿĺ": 6024,
        "ëĭ¤ìļ´": 6025,
        "ëıĦêµ¬": 6026,
        "ë©´ìĹĲìĦľ": 6027,
        "ë©¸ìłĦ": 6028,
        "ìķĦìĿĺ": 6029,
        "ìķĦëĭĪ": 6030,
        "ìķĦìĻĢ": 6031,
        "ìķĦíĶĦ": 6032,
        "ìķĦì¦Ī": 6033,
        "ìķĦëŀįìĸ´": 6034,
        "ìľ¤": 6035,
        "ìĹĲë¦¬íĬ¸ëłĪìķĦ": 6036,
        "ë¦¬ê°Ģ": 6037,
        "ë¦¬ë¹Ħ": 6038,
        "ê°Ģì§Ģ": 6039,
        "ê°Ģë¥¼": 6040,
        "ê°ĢìĺĢëĭ¤": 6041,
        "ĠìĪĺë¡Ŀ": 6042,
        "ĠìĪĺìĥģ": 6043,
        "ĠìĪĺë¹Ħ": 6044,
        "ì§ĢìĹĲ": 6045,
        "ì§ĢìĿĺ": 6046,
        "¤ëŁ": 6047,
        "íķ´ì§Ģ": 6048,
        "ë§¹": 6049,
        "ë§ģíģ¬": 6050,
        "ĢíĻĶ": 6051,
        "ĢíĥĢ": 6052,
        "Ģíİłë¡ľ": 6053,
        "Ġìłķìĭł": 6054,
        "Ġìłķê·ľ": 6055,
        "Ġì§Ī": 6056,
        "ĠìĺĪë": 6057,
        "ìŀĲëĬĶ": 6058,
        "ìŀĲë¡ľ": 6059,
        "ìŀĲíķ´": 6060,
        "ìŀĲìĻĢ": 6061,
        "ìŀĲëĵ¤": 6062,
        "ìŀĲë²łë¥´": 6063,
        "ĠìĿ´ì¹ĺ": 6064,
        "ĠìĿ´ì§ĳ": 6065,
        "íķłìķĦë²Ħì§ĢëĬĶ": 6066,
        "ëĤĺëĿ¼": 6067,
        "ëĤĺë¯¸": 6068,
        "ê¸Īì§Ģ": 6069,
        "Ġë³Ģíĺķ": 6070,
        "ìĭľëıĦ": 6071,
        "ìĭľìĹĲ": 6072,
        "ìĭľë³´ëĵľ": 6073,
        "ìĭľìĬ¤ì½Ķ": 6074,
        "ìĿ´ìĻĢ": 6075,
        "led": 6076,
        "len": 6077,
        "lean": 6078,
        "ìľ¼ë¡ľìĦľ": 6079,
        "ê¸°ìĥģ": 6080,
        "ê¸°ìłĲ": 6081,
        "Ġì§ĢëıĦ": 6082,
        "Ġì§ĢìĽĲ": 6083,
        "Ġì§Ģë°©": 6084,
        "Ġì§Ģë¦¬ìłģ": 6085,
        "Ġì§Ģíķĺì²ł": 6086,
        "Ġëĭ¤ì¤ĳ": 6087,
        "Ġëĭ¤ìĿ´ìĸ´": 6088,
        "ìĿĺìłķ": 6089,
        "Ġë¶Ģí": 6090,
        "ĠìĦ¬": 6091,
        "ĠìĦĿ": 6092,
        "Ġê³°": 6093,
        "ë¶Ī": 6094,
        "ë¶Ģíĺ": 6095,
        "Ġíķĺëĭ¤": 6096,
        "ĠíķĺìĺĢëĭ¤": 6097,
        "ëĵĿ": 6098,
        "ìĿ¸ê°Ģ": 6099,
        "atic": 6100,
        "ĠìķĮìŀĲë²łë¥´": 6101,
        "ĠBro": 6102,
        "ĠBack": 6103,
        "ĠBuild": 6104,
        "ĠìŀĲíĻĶ": 6105,
        "ìĿ¼ì¹ĺ": 6106,
        "ĻĶëĭ¤": 6107,
        "ê³¼ì¹´": 6108,
        "Ġê°Ģë¦¬": 6109,
        "Ġê°ĢìĪĺ": 6110,
        "Ġê°Ģê²©": 6111,
        "ëĭĮ": 6112,
        "ĠëĦĲë¦¬": 6113,
        "ëĿ¼ìĬ¤": 6114,
        "ì²´ìĹĲìĦľ": 6115,
        "ars": 6116,
        "ëĵľë°±": 6117,
        "Ģì¹´": 6118,
        "ĠíĮ¨": 6119,
        "ĠíĮĿ": 6120,
        "íĸĪëįĺ": 6121,
        "ingual": 6122,
        "ĠëĮĢíĺĳê³¡": 6123,
        "ĠìĿ´ëĬĶ": 6124,
        "ĠìĿ´ë¥¼": 6125,
        "ĠìĿ´ë£¨": 6126,
        "Ġë³´ëĤ´": 6127,
        "ĠìĹĦ": 6128,
        "ĠìĤ¬ìĹħ": 6129,
        "ĠìĤ¬ìłĪ": 6130,
        "ìłķìľ¼ë¡ľ": 6131,
        "ìłķìĿĺ": 6132,
        "ìĬ¤ìĹĲ": 6133,
        "ìĬ¤ìĹĲìĦľ": 6134,
        "ìĬ¤ìĻĢ": 6135,
        "ìĬ¤ì¹´": 6136,
        "ëŀĻ": 6137,
        "Ġë°ĺìĨ¡": 6138,
        "Ġë°©ìĸ´": 6139,
        "ìłģìĿĦ": 6140,
        "ìłľìĭľ": 6141,
        "sen": 6142,
        "Ġìĭľì": 6143,
        "Ġê²Ĳ": 6144,
        "rena": 6145,
        "ĠìķĦíģ¬": 6146,
        "ĠìķĦìĭľìķĦ": 6147,
        "ĠìķĦê°Ģìĵ°ë§Ī": 6148,
        "Ġì½Ķì¹ĺ": 6149,
        "ìĿ´íģ´": 6150,
        "íģĲ": 6151,
        "ĠëıĦë¡ľ": 6152,
        "ĠëıĦë©ĶìĿ¸": 6153,
        "Ġê¸°êµ¬": 6154,
        "Ġê¸°ìĦ¼": 6155,
        "Ġë¶Ħê¸°ìłĲ": 6156,
        "łì´ī": 6157,
        "Ġì§Īë¬¸ìĿ´ëĭ¤": 6158,
        "Ġíİ¸íĸ¥": 6159,
        "ĲĺìĹĪ": 6160,
        "Ġë²ķ": 6161,
        "ìĺ¥": 6162,
        "ìĺ¹": 6163,
        "ëĬ¥ìĿĦ": 6164,
        "ord": 6165,
        "orQuAD": 6166,
        "ĠìłĦìŀĲ": 6167,
        "ĠìłĦìĪł": 6168,
        "ĠìłĦì²´": 6169,
        "ĠìłĦì²ł": 6170,
        "ìŀ¥ìĿ´": 6171,
        "ìŀ¥ìľ¼ë¡ľ": 6172,
        "êµ¬ìĻĢ": 6173,
        "íģ¬ë¡ľìķĦíĭ°ìķĦ": 6174,
        "ëĭĪíģ¬": 6175,
        "Ġman": 6176,
        "ĠIP": 6177,
        "ìĸ´ìĬ¤": 6178,
        "ìĸ´ìł¸": 6179,
        "ìĸ´ìĹĲ": 6180,
        "ĠìļĶìĨĮ": 6181,
        "ìĦ±ìĿ´": 6182,
        "ìĦ±ëĬ¥": 6183,
        "Ġêµ¬ìĻĢ": 6184,
        "Ġêµ¬íħĲ": 6185,
        "ĠìĺģìĹŃ": 6186,
        "Ġëª¨ëĵł": 6187,
        "ĠíķĺëĤĺë¡ľ": 6188,
        "ĠìĥĮíĶĦ": 6189,
        "ĠìĥĮíĥ": 6190,
        "Ġëį°ë²Ħ": 6191,
        "ĠëĦ¤ì½Ķ": 6192,
        "íĬ¸ë¹ĦíŀĪ": 6193,
        "alk": 6194,
        "Ġreal": 6195,
        "ĠëĲĺìĸ´": 6196,
        "ĠëĲĺë¬": 6197,
        "Ġëį°ìĿ´íĦ°ë¡ľ": 6198,
        "Ġì£¼ëĬĶ": 6199,
        "Ġì£¼ëıĦ": 6200,
        "ë¯¸ëĶĶ": 6201,
        "ìłĢëĭĿ": 6202,
        "ĠìłľêµŃ": 6203,
        "ĠíĨłì": 6204,
        "ìĿĮë°ĺ": 6205,
        "ĶĦë¥´ìĹ": 6206,
        "Ġì¹ľ": 6207,
        "ìĤ¬ê²°": 6208,
        "ìĤ¬ìłĦíķĻìĬµ": 6209,
        "ë¬´ì": 6210,
        "ĠìĭľëıĦ": 6211,
        "ĠìĭľëĮĢ": 6212,
        "Ġìĭľê°ģ": 6213,
        "ĠìĭľíĮĶ": 6214,
        "Ġë¬¸ìĦľíĻĶ": 6215,
        "Ġpanel": 6216,
        "Ġpublic": 6217,
        "Ġë§İëĭ¤": 6218,
        "ĠìĿĺìŀ¥": 6219,
        "Ġë©ĺ": 6220,
        "Ġëĵł": 6221,
        "íĸĪê³ł": 6222,
        "íĸĪìľ¼ë©°": 6223,
        "Ġê°ķíķľ": 6224,
        "Ġê°ķíĻĶ": 6225,
        "Ġê°ķëł¥": 6226,
        "ĠAW": 6227,
        "ĠAn": 6228,
        "ĠAct": 6229,
        "ĠALiBi": 6230,
        "ĠArena": 6231,
        "ĠíķĻìĬµìĭľíĤ¤ëĬĶ": 6232,
        "ĠíķĦìļĶíķĺëĭ¤": 6233,
        "ĠìĿ¸íķ´": 6234,
        "ĠìĿ¸ê·¼": 6235,
        "Ġë¡Ŀ": 6236,
        "Ġìļ°ì¦Īë²ł": 6237,
        "ëŁ¬ìĭ¼": 6238,
        "Ġad": 6239,
        "Ġadd": 6240,
        "Ġamericano": 6241,
        "íĻĶë¥¼": 6242,
        "Ġbrowser": 6243,
        "ĠìĥģëĮĢ": 6244,
        "ĠìĥģìĹħ": 6245,
        "Ġìĥģê´Ģ": 6246,
        "ëĮĢíķĻ": 6247,
        "Ġì¡°ëĭĪ": 6248,
        "ĠëĦĪë¹Ħ": 6249,
        "ĠìľłëıĦ": 6250,
        "Ġìľłë¦¬": 6251,
        "Ġìľłìļ©": 6252,
        "ĠìľłìĿ¼": 6253,
        "ĠìľłìĹĶ": 6254,
        "ìļ°ìĿ´ëĭ¤": 6255,
        "ìļ°ì£¼": 6256,
        "Ġê°ľë´ī": 6257,
        "ĠíĻĺ": 6258,
        "ĠíĻįíķ´": 6259,
        "ìĽĶë¶ĢíĦ°": 6260,
        "ìĿ´íĬ¸ë³´ëĵľ": 6261,
        "**(": 6262,
        "ĠCo": 6263,
        "ĠCon": 6264,
        "ĠCards": 6265,
        "ĠCrowS": 6266,
        "ĠëĮĢê¸°": 6267,
        "ĠëĮĢì²´": 6268,
        "ĠëĮĢìĭľë³´ëĵľ": 6269,
        "Ġì¶Ķê³Ħ": 6270,
        "ê³µìĽĲ": 6271,
        "ê³µíķŃ": 6272,
        "lyDialog": 6273,
        "ĠìĺĪìĤ°": 6274,
        "Ġê³łëł¤": 6275,
        "ìļ´ëª¨": 6276,
        "ĠíĶĦë¡¬": 6277,
        "ĠëĶ±ëĶ±íķľ": 6278,
        "ĠìķĮìķĦíĿĲ": 6279,
        "ëĶĶíĬ¸": 6280,
        "ëĶĶë§¨": 6281,
        "ë¬¼ìĿĺ": 6282,
        "Ġë©ĶíħĮ": 6283,
        "ado": 6284,
        "ĠëĤ´ëł¤": 6285,
        "ìĺģë¬¸": 6286,
        "Ġê´Ģíķł": 6287,
        "otpot": 6288,
        "´ìļķ": 6289,
        "ĠíıĲì§Ģ": 6290,
        "Ġthing": 6291,
        "Ġìŀ¬ì§ģ": 6292,
        "Ġìŀ¬ì¦Ī": 6293,
        "Ġìŀ¬ìŀĦ": 6294,
        "Ġëªĩ": 6295,
        "Ġëª¬ìĬ¤íĦ°": 6296,
        "ìłĦëŀµ": 6297,
        "Ġë²Ķìļ©": 6298,
        "Ġë²Ķì£¼": 6299,
        "usal": 6300,
        "ĠìĬ¤ì½§": 6301,
        "ĠìĿ´ìĥģìĿĺ": 6302,
        "ëıĻìľ¼ë¡ľ": 6303,
        "ëıĻìĿĺ": 6304,
        "ĠìĹ¬ì£¼ìĿ¸": 6305,
        "ĠìĹ¬ìłĦíŀĪ": 6306,
        "ëª¨ìŀ¥": 6307,
        "ìĬ¤íĬ¸ëłĪ": 6308,
        "ìĬ¤íĬ¸íĮĶ": 6309,
        "Ġíĺķìłľ": 6310,
        "Ġlocal": 6311,
        "ĠìĹĲíĶ¼": 6312,
        "ĠìĹĲëĦĪ": 6313,
        "ĠìĹĲíĭ°ìĺ¤": 6314,
        "ĠSh": 6315,
        "ĠSë°ĺ": 6316,
        "ĠSelf": 6317,
        "ĠStereoSet": 6318,
        "ìĺ¤íĶĪ": 6319,
        "ë³¸ë¶Ģ": 6320,
        "Ġêµ¬ì¡°íĻĶ": 6321,
        "ìĹħì²´": 6322,
        "ìĦłíĥĿ": 6323,
        "Ġë²ĪìĿĺ": 6324,
        "íĨµìĿ¼": 6325,
        "Ġê²ĥì²ĺëŁ¼": 6326,
        "ë°ĺëıĦ": 6327,
        "ë°ĺëª¨ì§Ģ": 6328,
        "ê°ľë°ľ": 6329,
        "ê°ľê³¨": 6330,
        "ĠíĶĦë¡ľìĦ¸": 6331,
        "ĠíĶĦë¡ľíĨłì": 6332,
        "ĠML": 6333,
        "ĠMT": 6334,
        "ĠMEL": 6335,
        "ĠëķĮê¹Įì§Ģ": 6336,
        "Ġë¡ľê·¸ëıĦ": 6337,
        "ĠìłķíĻķíŀĪ": 6338,
        "Ġê²½ìĦ±": 6339,
        "Ġê·¹": 6340,
        "ë¹Ħê°Ģ": 6341,
        "Ġë³´ìĬ¤ëĭĪìķĦ": 6342,
        "Ġê³µìĹ°": 6343,
        "Ġê³µíķŃ": 6344,
        "ĠìĭĿë³Ħ": 6345,
        "ĠHollow": 6346,
        "ĠHub": 6347,
        "unch": 6348,
        "ĠWAS": 6349,
        "ì¼ĵ": 6350,
        "Ġíģ¼": 6351,
        "ìĸ¸ìĸ´": 6352,
        "ì°¬": 6353,
        "İĺëĭĪíģ¬": 6354,
        "íĺ¸ëĬĶ": 6355,
        "ëĦ¤ê°Ī": 6356,
        "Ġë°Ľìķĺëĭ¤": 6357,
        "ĠëĶ°ëĿ¼ìĦľ": 6358,
        "ë¬¸íĻĶ": 6359,
        "Ġìĵ°ìĿ¸ëĭ¤": 6360,
        "ĠíĹ¤ë": 6361,
        "ĠíĹ¨ë¦Ń": 6362,
        "ĠìłģìĿĢ": 6363,
        "íĶĦëłĪ": 6364,
        "place": 6365,
        "ë§ĪíĺĦ": 6366,
        "ë§Īë¦¬íĬ¸": 6367,
        "ë§Īì´Į": 6368,
        "ĠëıĻê³Ħ": 6369,
        "ì§ģìĿĺ": 6370,
        "ĠíĴĢìĸ´ì£¼ëĬĶ": 6371,
        "ë£¨ì¦Ī": 6372,
        "Ġë¶Īë¦°ëĭ¤": 6373,
        "Ġë¶ĪìĿ¼ì¹ĺ": 6374,
        "Ġìłĳíķľëĭ¤": 6375,
        "Ġìłĳì°©ìłľ": 6376,
        "ĠìĹ°ì£¼": 6377,
        "ĠìĹ°ìĤ°": 6378,
        "ĠìĹ°ë§¹": 6379,
        "ì¼Ģìļ°": 6380,
        "ë§ĪëĭĪìķĦ": 6381,
        "Ġêµ°ìĤ¬": 6382,
        "Ġdiag": 6383,
        "ĠPi": 6384,
        "ĠPar": 6385,
        "ĠPro": 6386,
        "ĠPII": 6387,
        "ĠDe": 6388,
        "ĠDai": 6389,
        "ĠDense": 6390,
        "ì¤ĳìĿ´ëĭ¤": 6391,
        "ì¤ĳìłĦ": 6392,
        "ì¤ĳêµŃìĸ´": 6393,
        "Ġë§Įëĵ¤ìĸ´": 6394,
        "ì½Ķë¥´ëª¨ëŀĳìĬĪ": 6395,
        "íı´": 6396,
        "Ġê²°íĺ¼": 6397,
        "Ġonly": 6398,
        "ĠìĤ¬ìļ©ëĲľëĭ¤": 6399,
        "ĠìĨįíķľëĭ¤": 6400,
        "ĠìłĲìĪĺ": 6401,
        "íĳľë¥¼": 6402,
        "ĠìĦ¸ëĦ¤ê°Ī": 6403,
        "pub": 6404,
        "Ġëĵ±ìĿĦ": 6405,
        "ìħĢëŁ¬": 6406,
        "ĠGoEmotions": 6407,
        "´íĵ¨íĬ¸": 6408,
        "ĠìĹŃìŀĦ": 6409,
        "ë²Ħìĭľ": 6410,
        "ì°¨ë¥¼": 6411,
        "ì°¨ìĤ°": 6412,
        "ĠFlashAttention": 6413,
        "ĠLM": 6414,
        "ĠíĴĪì§ĪìĿĢ": 6415,
        "ĠíĴĪì§Īê³¼": 6416,
        "ì½ĺ": 6417,
        "ĠìĨĮìŀ¬": 6418,
        "ĠìĨĮê°ľ": 6419,
        "ĠìĨĮë°©": 6420,
        "ĠìĨĮíĸīìĦ±": 6421,
        "Ġê³Ħê³¡": 6422,
        "Ġê³¼ìłķìĹĲìĦľ": 6423,
        "Ġë§Īì§Ģë§ī": 6424,
        "ìľłíĤ¤": 6425,
        "ëıĮíĶĦ": 6426,
        "ĠíķĺìĿ´ë¸Įë¦¬": 6427,
        "Ġì»´íĵ¨íĮħ": 6428,
        "2012": 6429,
        "illa": 6430,
        "Ġ2017": 6431,
        "ĠëĤ¨ìª½ìľ¼ë¡ľ": 6432,
        "ë°ĶìĿ´": 6433,
        "ĠíıīíĻĶ": 6434,
        "ĠìľĦì¹ĺíķľëĭ¤": 6435,
        "íĹĪ": 6436,
        "ĠëĿ¼ìĿ¸": 6437,
        "ĠëĿ¼ëĶĶìĺ¤": 6438,
        "ĠëĿ¼ìĿ´ë¸Į": 6439,
        "ë²łëĶ©": 6440,
        "ë²łë¥¼ë¦°": 6441,
        "íĨłìĭľ": 6442,
        "íĨłìķ¼ë§Ī": 6443,
        "Ġëª©íĳľë¡ľ": 6444,
        "ëª¬ìĬ¤íĦ°": 6445,
        "ëª°ëłĪ": 6446,
        "eneration": 6447,
        "Ġemotion": 6448,
        "Ġembedding": 6449,
        "ìĬ¤íħĮ": 6450,
        "Ġëª»íķĺëĬĶ": 6451,
        "Ġíļį": 6452,
        "ëĳ¥": 6453,
        "Ġ60": 6454,
        "ìĿĳëĭµ": 6455,
        "ĠëıĦìĭľìĿ´ëĭ¤": 6456,
        "Ġë¸ĮëĿ¼ì§ĪìĿĺ": 6457,
        "ëıħìĿĺ": 6458,
        "ëĿłì´ī": 6459,
        "Ġëªħëªħ": 6460,
        "ĠëªħíĻķ": 6461,
        "Ġê¸°ë°ĺìľ¼ë¡ľ": 6462,
        "Ġ185": 6463,
        "ê¶¤": 6464,
        "Ġíĺ¸íĻĺ": 6465,
        "Ġíĺ¸íĤ¨": 6466,
        "Ġíĺ¸íħĶ": 6467,
        "ìĤ¼": 6468,
        "Ġìŀ¥íĻ©": 6469,
        "ĠíĬ¹íŀĪ": 6470,
        "ĠíĬ¹ìĪĺ": 6471,
        "ë¥´ìķĹìĭľêµ¬": 6472,
        "Ġìĺ¨ëĶĶë§¨": 6473,
        "Ġ1990": 6474,
        "Ġ1992": 6475,
        "Ġ1993": 6476,
        "Ġ1994": 6477,
        "Ġ1999": 6478,
        "Ġíģ¬ëłĪìĭľëĭ¤": 6479,
        "Ġíı¬íķ¨íķĺëĬĶ": 6480,
        "ìĭ¤ìłľ": 6481,
        "ìĭ¤íĸī": 6482,
        "íķĺëĦ¤ìĬ¤": 6483,
        "íĮĮíĭ°": 6484,
        "ìĿ´ìĹĪ": 6485,
        "Ģì§ĳ": 6486,
        "Ġë²łë¥¼ë¦°": 6487,
        "ìĺ¨ë¦¬": 6488,
        "íĥĪë¦¬": 6489,
        "versions": 6490,
        "ifest": 6491,
        "ëŀĢìĭľìĬ¤ì½Ķ": 6492,
        "Ġ2002": 6493,
        "Ġ2007": 6494,
        "ê¶Įìŀ¥": 6495,
        "áĥł": 6496,
        "ĠKorean": 6497,
        "Ġì§Ħìķķ": 6498,
        "Ġì§Ħìŀħ": 6499,
        "Ġë³ĳíĸī": 6500,
        "Ġë³ĳëł¬": 6501,
        "ĠìĦ±ê³µ": 6502,
        "Ġì²ŃìĨĮê¸°": 6503,
        "Ġìµľìĥģ": 6504,
        "Ġoff": 6505,
        "ĠJSON": 6506,
        "Ġíķ©ë³ĳ": 6507,
        "Ġ1973": 6508,
        "Ġëĸ¨ìĸ´ì§Ħ": 6509,
        "ĠØ³": 6510,
        "ëª¨ëį¸ìĿ´": 6511,
        "ĠëĳĲê³ł": 6512,
        "ĠëıħìĿ¼ìĹĲìĦľ": 6513,
        "aseline": 6514,
        "ĠíĶ½ì²ĺ": 6515,
        "Ġsuite": 6516,
        "Ġ1948": 6517,
        "ĠëłĪìĿ´": 6518,
        "Ġë³´ìĹ¬ì£¼": 6519,
        "ĠUn": 6520,
        "ĠìŀĦë¬´": 6521,
        "ĠìŀĦë²łëĶ©": 6522,
        "Ġì§ĢëĥĪëĭ¤": 6523,
        "Ġì¢ħíķ©": 6524,
        "Ġ1984": 6525,
        "ĠíĥľíĶ¼": 6526,
        "ì»´íĵ¨íĬ¸": 6527,
        "Ġê¸Īì²ľ": 6528,
        "Ġë¯¼ì£¼": 6529,
        "ĠìºĲëĤĺ": 6530,
        "£¨ëª¨ë¦¬": 6531,
        "ë¨¸": 6532,
        "Ġì¸µ": 6533,
        "ĠëĮĢìĤ¬": 6534,
        "Ġë©Ģíĭ°íĦ´": 6535,
        "Ġë©Ģíĭ°íĥľìĬ¤íģ¬": 6536,
        "Ġì»¤íĶ¼": 6537,
        "Ġíģ´ëĿ½": 6538,
        "Ġíģ´ëĿ¼ìļ°ëĵľ": 6539,
        "Ġëª©ë¡ĿìĿĦ": 6540,
        "rieval": 6541,
        "ëŃĩê±°": 6542,
        "ëĿ¼ìĿ¸ëĵľ": 6543,
        "ìĽ¨ìĸ´": 6544,
        "ìĽ¨ìĿ¼ìĬ¤": 6545,
        "Ġë¹Ħìļ©ìĿ´": 6546,
        "Ġë¹Ħìļ©ìĿĦ": 6547,
        "ì¸łë°ĶìĿ´ì§Ģë©ĺ": 6548,
        "Ð¸Ð¼": 6549,
        ")**,": 6550,
        "[*])": 6551,
        "ÑģÑĤ": 6552,
        "Ġì½ĺ": 6553,
        "Ġê³³ìĹĲ": 6554,
        "train": 6555,
        "ìĹĪëįĺ": 6556,
        "Ġë¨¸ëŃĩê±°": 6557,
        "Ġêµ¬ìĦ±ëĲĺìĸ´": 6558,
        "Ġ1962": 6559,
        "Ġ2021": 6560,
        "Ġ2024": 6561,
        "ëĮĢíĻĶíĺķ": 6562,
        "Ġëħ¸ë¥´íĬ¸": 6563,
        "Ġëħ¸ë¥´ìĽ¨": 6564,
        "ĠëĽ°ìĸ´ëĤľ": 6565,
        "|---|---|---|---": 6566,
        "ÙħØ¯": 6567,
        "ĠìļĶêµ¬ê°Ģ": 6568,
        "Ġêµ¬ê°ĦìĿ´ê³ł": 6569,
        "Ġì¹´ë©Ķ": 6570,
        "Ġê°ĲëıħìĿĢ": 6571,
        "Ġcompany": 6572,
        "ĠíĶ¼ëĵľë°±": 6573,
        "Ġì¸¡ë©´ìĹĲìĦľ": 6574,
        "topic": 6575,
        "tokenizer": 6576,
        "ä¸Ģ": 6577,
        "ä¸ī": 6578,
        "ä¸Ń": 6579,
        "å¤§": 6580,
        "å¤©": 6581,
        "ì¿łìłł": 6582,
        "Ġë°ľìĤ¬": 6583,
        "ĠìĿ¼ë°ĺìłģìľ¼ë¡ľ": 6584,
        "Ġë¡ľìĸĦ": 6585,
        "íĮ©íĬ¸": 6586,
        "ĠìĦľìļ¸íĬ¹": 6587,
        "ëłĪëĵľíĮĢ": 6588,
        "Ġìłķì¹ĺìĿ¸ìľ¼ë¡ľ": 6589,
        "Ð»Ðµ": 6590,
        "ĠíĬĢë¥´íĤ¤": 6591,
        "ĠìĽĮëĦĪ": 6592,
        "ë°±ë§Į": 6593,
        "ĠìŀĳíĴĪìĿ´ëĭ¤": 6594,
        "Ġë§Įëĵłëĭ¤": 6595,
        "ĠíĥĢìĽĮëĬĶ": 6596,
        "ĠíĻľëıĻíķĺê³ł": 6597,
        "ĠìµľìĨĮíĻĶ": 6598,
        "ĠìĿ´íĥĪë¦¬ìķĦìĸ´": 6599,
        "ĠìĿ´íĥĪë¦¬ìķĦìĿĺ": 6600,
        "íĭ´": 6601,
        "íİł": 6602,
        "Ġë£¨íĬ¸ë¹ĦíŀĪ": 6603,
        "ĠíĬ¸ëŀĻ": 6604,
        "ìľ¨ìĿĦ": 6605,
        "ëĿ¼ìĿ´ë²Ħìĭľ": 6606,
        "jsonl": 6607,
        "MLB": 6608,
        "ilingual": 6609,
        "äºĮ": 6610,
        "Ġì¼Ī": 6611,
        "ê²ĢìĪĺ": 6612,
        "ê²Ģìĥī": 6613,
        "Ġë¬¸íĻĶìĸ´": 6614,
        "InstructGPT": 6615,
        "ëĲĺìĹĪìľ¼ë©°": 6616,
        "Ġê´Ģë¦¬íķľëĭ¤": 6617,
        "ì°¸ëª¨ìŀ¥": 6618,
        "ĠêµŃìłľê³µíķŃ": 6619,
        "ĠìľłìĤ¬íķľ": 6620,
        "Presto": 6621,
        "acher": 6622,
        "latform": 6623,
        "æľ¬": 6624,
        "éĥ¡": 6625,
        "Ġëī´ìļķ": 6626,
        "ĠìĪĺì¤ĢìĿĺ": 6627,
        "Ġìĺģíĸ¥ìĿĦ": 6628,
        "Ġëª¨ëĵľë¡ľ": 6629,
        "ìļ°ìĬ¤ìĽ¨ìĿ¼ìĬ¤": 6630,
        "Ġê°ľìĿ¸ìĪ": 6631,
        "ìĦłíĺ¸íķĻìĬµ": 6632,
        "ãĢī,": 6633,
        "ë¸ĮëĿ¼ì§Ī": 6634,
        "Ġëªħì¹ŃìĿĢ": 6635,
        "ÙĬØª": 6636,
        "Ġëĭ´íĻĶê´Ģê³Ħ": 6637,
        "åºľ": 6638,
        "çĶ°": 6639,
        "Ġíľ´ë¨¼": 6640,
        "ëıĦìĭľëħ¸": 6641,
        "Ģíģ¬ë£¨ì¦Ī": 6642,
        "ĠìĦľìª½": 6643,
        "ĠìķĮìĤ¬ë°Ķ": 6644,
        "ë°ķì¥Ĳ": 6645,
        "ìľĦëĮĢêµ°": 6646,
        "Ġë¬´íķ¨ë§Īëĵľ": 6647,
        "Ġìľłëªħíķľ": 6648,
        "Ġíķ´ëĭ¹íķĺë©°": 6649,
        "Ġì°¨ì§ĢíĸĪëĭ¤": 6650,
        "ĠìĬ¤ì¼ĢìĿ´íĬ¸ë³´ëĵľ": 6651,
        "ĠìĬ¤ì½ĶíĭĢëŀľëĵľ": 6652,
        "ĠìĻĦíĻĶ": 6653,
        "Ġë¹ĦìĬ·íķľ": 6654,
        "Ġë³´ìľĦëĬĶ": 6655,
        "ĠëĳĺëŁ¬ìĭ¼": 6656,
        "Ġ531": 6657,
        "Ġë°ľë§¤ëĲľ": 6658,
        "ĠÐ¨Ð°": 6659,
        "Ġë²łìĿ´ìĬ¤ë³¼": 6660,
        "Ġëħ¹ìĿĮ": 6661,
        "ĠíļĮìĤ¬ëĬĶ": 6662,
        "ĠìĬ¹ê°ķìŀ¥ìĿ´ëĭ¤": 6663,
        "WOZ": 6664,
        "coder": 6665,
        "nivers": 6666,
        "type": 6667,
        "æĸĩ": 6668,
        "è±Ĭ": 6669,
        "ë®¬ëŀĢ": 6670,
        "ëĤ¬ëĭ¤": 6671,
        "istillation": 6672,
        "ìĭ¯ëĿłì´ī": 6673,
        "¤ëłĪ": 6674,
        "ìŀĲë¹Ī": 6675,
        "ĪëĮĢíĺķ": 6676,
        "Ġì§ĢìĬ¤ë¥´ìķĹìĭľêµ¬": 6677,
        "Ġìĭ«ìĸ´íķľëĭ¤ê³ł": 6678,
        "ĠëĤĺìĹ´íķĺì§Ģ": 6679,
        "Ġmultilingual": 6680,
        "Ġë¶Ģë¥´ê¸°ëıĦ": 6681,
        "ĠAAëĬĶ": 6682,
        "ĠìĿ¸íĶĦëĿ¼": 6683,
        "Ġì¡°ìĦłë¯¼ì£¼ì£¼ìĿĺìĿ¸ë¯¼ê³µ": 6684,
        "ëĦĮíĬ¸": 6685,
        "Ġê³łìĨįëıĦë¡ľ": 6686,
        "ĠìĬ¤íİĺìĿ¸ìĿĺ": 6687,
        "ĠìĹĲë²ĪìĬ¤": 6688,
        "Ġë¹Ħë¡¯íķľ": 6689,
        "ĠëķĮë¬¸ìĹĲ": 6690,
        "Ġê²½ê³Ħë¡ľ": 6691,
        "Ġstaged": 6692,
        "Ġíı¬ë¥´íĪ¬ê°Īìĸ´": 6693,
        "íĶĦë¡ľëįķìħĺ": 6694,
        "allucin": 6695,
        "ultiWOZ": 6696,
        "Ġëħ¼íĺĦ": 6697,
        "ĠëŁ°ëįĺ": 6698,
        "ĠìĻķìĦ¸ìŀĲë¹Ī": 6699,
        "Ð¾Ð²Ð¸Ñĩ": 6700,
        "Ġë§¡ìķĺê³ł": 6701,
        "Hatful": 6702,
        "gistry": 6703,
        "pacaEval": 6704,
        "source": 6705,
        "¾¨íİĺëĭĪíģ¬": 6706,
        "ØŃÙħØ¯": 6707,
        "çļĩ": 6708,
        "éĩĳ": 6709,
        "ĬĪëĥĲ": 6710,
        "ĺìħ°ìĿ´íģ¬": 6711,
        "ĺíĽĪ": 6712,
        "´ìĤ¬ìļ°ìĬ¤ìĽ¨ìĿ¼ìĬ¤": 6713,
        "ìĿ´ëĮĢê³µìĽĲ": 6714,
        "ê³łìĨįëıĦë¡ľ": 6715,
        "ë¦¬ë¹ĦëĭĪ": 6716,
        "ĠìĿ´ì§ĳíĬ¸": 6717,
        "ë¶Ģíĺ¸íĻĶ": 6718,
        "ĠìŀĲíĻĶìĥģ": 6719,
        "Ġë³´ëĤ´ë©´": 6720,
        "Ġìĭľì¦Į": 6721,
        "ìĸ´ìĹĲìĦľ": 6722,
        "Ġêµ¬íħĲë²łë¥´íģ¬": 6723,
        "ĠìĥĮíĶĦëŀĢìĭľìĬ¤ì½Ķ": 6724,
        "ĠìĥĮíĥĢíģ¬ë£¨ì¦Ī": 6725,
        "ĠëĲĺë¬»": 6726,
        "ĶĦë¥´ìĹĺìħ°ìĿ´íģ¬": 6727,
        "ìĤ¬ê²°ìłķ": 6728,
        "ĠìĭľíĮĶë¦¬ë¹ĦëĭĪ": 6729,
        "Ġê°ķëł¥íķľ": 6730,
        "ĠìĿ¸ê·¼ìĹĲ": 6731,
        "Ġìļ°ì¦Īë²łíĤ¤ìĬ¤íĥĦ": 6732,
        "ĠíĶĦë¡¬íĶĦíĬ¸": 6733,
        "ĠìķĮìķĦíĿĲë§Īëĵľ": 6734,
        "Ġë©ĶíħĮë§Īë¦¬íĬ¸": 6735,
        "otpotQA": 6736,
        "ĠìĹ¬ì£¼ìĿ¸ê³µ": 6737,
        "ìĬ¤íĬ¸íĮĶëłĮ": 6738,
        "ĠìĹĲíĶ¼ìĨĮ": 6739,
        "ĠìĹĲíĭ°ìĺ¤íĶ¼": 6740,
        "ĠíĶĦë¡ľíĨłì½ľ": 6741,
        "ĠMELD": 6742,
        "ĠWASSA": 6743,
        "ĠíĹ¨ë¦ŃìĦ¼": 6744,
        "Ġdiagram": 6745,
        "ĠDailyDialog": 6746,
        "ĠìĨĮë°©ë³¸ë¶Ģ": 6747,
        "ĠíķĺìĿ´ë¸Įë¦¬ëĵľ": 6748,
        "Ġíĺ¸íĤ¨ìĬ¤": 6749,
        "ĠíĶ½ì²ĺìĬ¤": 6750,
        "Ġëħ¸ë¥´íĬ¸ëĿ¼ìĿ¸": 6751,
        "ĠìĦľìļ¸íĬ¹ë³Ħ": 6752,
        "ĠíĬĢë¥´íĤ¤ìĺĪ": 6753,
        "Ġê°ľìĿ¸ìĪŃë°°": 6754,
        "'(": 6755,
        ")'": 6756,
        ")âĨĴ": 6757,
        ".\"": 6758,
        "22": 6759,
        "40": 6760,
        "53": 6761,
        "55": 6762,
        "66": 6763,
        "71": 6764,
        "72": 6765,
        "76": 6766,
        "78": 6767,
        "92": 6768,
        "94": 6769,
        "95": 6770,
        "96": 6771,
        "Ad": 6772,
        "Al": 6773,
        "Add": 6774,
        "Americ": 6775,
        "Americano": 6776,
        "BF": 6777,
        "BLE": 6778,
        "Bê¸ī": 6779,
        "Bahn": 6780,
        "Ch": 6781,
        "DPO": 6782,
        "DST": 6783,
        "ELM": 6784,
        "FA": 6785,
        "For": 6786,
        "GI": 6787,
        "HR": 6788,
        "IG": 6789,
        "IX": 6790,
        "IST": 6791,
        "KV": 6792,
        "KìĹĲìĦľ": 6793,
        "Kill": 6794,
        "KLUE": 6795,
        "LI": 6796,
        "Long": 6797,
        "LongBench": 6798,
        "LAN": 6799,
        "MA": 6800,
        "MF": 6801,
        "MR": 6802,
        "MTV": 6803,
        "NIX": 6804,
        "OU": 6805,
        "PT": 6806,
        "Pi": 6807,
        "PPO": 6808,
        "Run": 6809,
        "RHF": 6810,
        "RST": 6811,
        "RLAIF": 6812,
        "RULER": 6813,
        "SS": 6814,
        "Sp": 6815,
        "Së°ĺ": 6816,
        "Sum": 6817,
        "Suggest": 6818,
        "Univers": 6819,
        "VC": 6820,
        "XSum": 6821,
        "YY": 6822,
        "],": 6823,
        "az": 6824,
        "ass": 6825,
        "aur": 6826,
        "ape": 6827,
        "ache": 6828,
        "aËĲ": 6829,
        "aunch": 6830,
        "bs": 6831,
        "bw": 6832,
        "by": 6833,
        "ban": 6834,
        "bab": 6835,
        "bench": 6836,
        "bject": 6837,
        "cm": 6838,
        "cking": 6839,
        "cent": 6840,
        "dw": 6841,
        "ded": 6842,
        "dam": 6843,
        "eter": 6844,
        "ever": 6845,
        "eth": 6846,
        "emotion": 6847,
        "egr": 6848,
        "ears": 6849,
        "ff": 6850,
        "fi": 6851,
        "fl": 6852,
        "fo": 6853,
        "fle": 6854,
        "fix": 6855,
        "fusal": 6856,
        "gus": 6857,
        "ht": 6858,
        "kg": 6859,
        "kin": 6860,
        "lan": 6861,
        "lue": 6862,
        "lim": 6863,
        "lues": 6864,
        "language": 6865,
        "model": 6866,
        "mpl": 6867,
        "mai": 6868,
        "nes": 6869,
        "not": 6870,
        "nell": 6871,
        "nix": 6872,
        "nia": 6873,
        "ott": 6874,
        "oft": 6875,
        "opic": 6876,
        "oid": 6877,
        "ohn": 6878,
        "pi": 6879,
        "pairs": 6880,
        "pact": 6881,
        "prov": 6882,
        "ran": 6883,
        "ree": 6884,
        "rat": 6885,
        "ral": 6886,
        "rik": 6887,
        "sëĬĶ": 6888,
        "sft": 6889,
        "sfle": 6890,
        "soft": 6891,
        "tan": 6892,
        "tit": 6893,
        "tbahn": 6894,
        "uction": 6895,
        "uac": 6896,
        "ven": 6897,
        "xper": 6898,
        "zure": 6899,
        "¡ìĪĺ": 6900,
        "¡íĦ°": 6901,
        "£æ": 6902,
        "¤ë¡ľ": 6903,
        "¤ìł": 6904,
        "¤ìĬ¤": 6905,
        "¤ì§ģ": 6906,
        "¤ìĿ¼ë¦¬": 6907,
        "¤íĮ©íĬ¸": 6908,
        "¥Ø±": 6909,
        "¦ī": 6910,
        "¦çĤ": 6911,
        "§ä": 6912,
        "§ħ": 6913,
        "§ķ": 6914,
        "§Īë": 6915,
        "§ë°Ķë¡ľ": 6916,
        "¨¸": 6917,
        "¨¼": 6918,
        "¨ÙĨ": 6919,
        "©ëĭĪëĭ¤": 6920,
        "©ì²Ńë¶ģëıĦ": 6921,
        "«ĺ": 6922,
        "«ëĭ¤": 6923,
        "«íı": 6924,
        "¬¬": 6925,
        "¬å": 6926,
        "¬ë¦¬": 6927,
        "¬ë¥´ì": 6928,
        "¬§ä": 6929,
        "®¤ì§ģ": 6930,
        "¯Ģ": 6931,
        "°°": 6932,
        "°´": 6933,
        "°ìķĦ": 6934,
        "°ë¥´ê¸°": 6935,
        "±íĶ¼": 6936,
        "±Ð»": 6937,
        "²¨": 6938,
        "´ĩ": 6939,
        "´ê³ł": 6940,
        "´íķľ": 6941,
        "´íķĦ": 6942,
        "´ĳìĹŃìĭľ": 6943,
        "µæ": 6944,
        "µëĭ¤": 6945,
        "µìĬ¤": 6946,
        "µľì": 6947,
        "µìħĺ": 6948,
        "µÐ²": 6949,
        "µáĪ": 6950,
        "¸¡": 6951,
        "¸Ķ": 6952,
        "¸ëĭ¤": 6953,
        "¸ëĤĺ": 6954,
        "¸ëłĮ": 6955,
        "¹Ĥ": 6956,
        "¹ìĬ¤": 6957,
        "¹Ð¼": 6958,
        "¼ìª½": 6959,
        "½¿": 6960,
        "½ç": 6961,
        "½ÑĤ": 6962,
        "¾¸": 6963,
        "¾Ð": 6964,
        "¿å·": 6965,
        "Ã´": 6966,
        "Ã¼": 6967,
        "ÃŃ": 6968,
        "Êĥ": 6969,
        "Ìł": 6970,
        "Îº": 6971,
        "Ð¹Ð¼": 6972,
        "ÑĨ": 6973,
        "ÑĪ": 6974,
        "ÑĮ": 6975,
        "ÓĻ": 6976,
        "Øª": 6977,
        "Ø¬": 6978,
        "Ø´": 6979,
        "à¹Ĥ": 6980,
        "áī": 6981,
        "áĬ¤": 6982,
        "å¯": 6983,
        "å¸": 6984,
        "åħ": 6985,
        "åĬ": 6986,
        "åĭ": 6987,
        "åĮ": 6988,
        "æĪ": 6989,
        "æĬ": 6990,
        "æİ": 6991,
        "æ·¸": 6992,
        "çµ": 6993,
        "çĮ": 6994,
        "çĹ": 6995,
        "ç¯Ģ": 6996,
        "èĢ": 6997,
        "èĤ": 6998,
        "èħ": 6999,
        "èĭ": 7000,
        "éĸ": 7001,
        "éļ": 7002,
        "éŁ": 7003,
        "é§ħ": 7004,
        "é«ĺ": 7005,
        "ê¾¸": 7006,
        "ëĲł": 7007,
        "ëĩĮìĹ¼": 7008,
        "ë´ĩ": 7009,
        "ìģ": 7010,
        "ìī": 7011,
        "ìĤ¬ìļ©": 7012,
        "ì´ī": 7013,
        "ìĵ´": 7014,
        "ìµľì": 7015,
        "íĤ¬": 7016,
        "Ġ=": 7017,
        "Ġz": 7018,
        "Ġé": 7019,
        "Ġes": 7020,
        "Ġà¸": 7021,
        "ĠÃĹ": 7022,
        "ĠInstructGPT": 7023,
        "ĠXSum": 7024,
        "ĠÎº": 7025,
        "ĠáĬ¤": 7026,
        "ĢëĬĶ": 7027,
        "ĢìĦľ": 7028,
        "ĢëĿ¼": 7029,
        "Ģìľ¼ë©°": 7030,
        "Ĥ¹": 7031,
        "ĥĦ": 7032,
        "ĥìĿĢ": 7033,
        "ĥåĽ½": 7034,
        "Ħ±": 7035,
        "ĦĲ": 7036,
        "Ħë©°": 7037,
        "Ħë¸Įë¦¬": 7038,
        "ĨĲ": 7039,
        "ĩ´ìłģ": 7040,
        "īľëĭ¤": 7041,
        "ĬìĿĢ": 7042,
        "ĭ¨": 7043,
        "ĭŃ": 7044,
        "ĭ¹ìĿĦ": 7045,
        "ĮìĿ´ëĭ¤": 7046,
        "ĮíĤ¤": 7047,
        "Įë²ķ": 7048,
        "Įì¢ħ": 7049,
        "įì§Ī": 7050,
        "İë°ķì¥Ĳ": 7051,
        "Ĳìĺ¤": 7052,
        "Ĳ©ëĭĪëĭ¤": 7053,
        "ĳìļ´ëª¨": 7054,
        "Ĵáĥĺ": 7055,
        "Ķ¼": 7056,
        "Ķëĵľ": 7057,
        "ķĪ": 7058,
        "ķë³Ģ": 7059,
        "ķëĬĶëĭ¤": 7060,
        "ĸìĹĲ": 7061,
        "ĸåı": 7062,
        "ĺķ": 7063,
        "Ļ¸": 7064,
        "ĻĦ": 7065,
        "Ļĺ": 7066,
        "Ļìĸ´": 7067,
        "ĻìĦł": 7068,
        "ĽĮíĤ¤": 7069,
        "ľëŀľëĵľ": 7070,
        "Ŀì°¸ëª¨ìŀ¥": 7071,
        "ŀŃ": 7072,
        "ł¡": 7073,
        "łģìľ¼ë¡ľ": 7074,
        "ŃëĮĢ": 7075,
        "Ńáī": 7076,
        "ĠìĨ": 7077,
        "ĠìĬ¤ë": 7078,
        "Ġì¾¨íİĺëĭĪíģ¬": 7079,
        "Ġì¦ī": 7080,
        "Ġë¥": 7081,
        "Ġëª½": 7082,
        "Ġë®¤ì§ģ": 7083,
        "ĠëĥĦ": 7084,
        "ĠëĲ©ëĭĪëĭ¤": 7085,
        "ĠëŀŃ": 7086,
        "íķ¸": 7087,
        "íķĳ": 7088,
        "íķĢëĵ": 7089,
        "´ìĸ´": 7090,
        "ê²Ķ": 7091,
        "ana": 7092,
        "ani": 7093,
        "anhat": 7094,
        "ster": 7095,
        "stra": 7096,
        "stand": 7097,
        "static": 7098,
        "ern": 7099,
        "íķĺíĬ¸": 7100,
        "íķĺìľĦ": 7101,
        "íķĺë£¨": 7102,
        "íķĺë¦¬ìķĦ": 7103,
        "íķĺë£¬": 7104,
        "íķĺíĨłìķ¼ë§Ī": 7105,
        "ê³µìĭĿ": 7106,
        "ê³±íĶ¼": 7107,
        "ë¡¤": 7108,
        "ë¡±": 7109,
        "Ġìŀł": 7110,
        "ĠìĿĢí": 7111,
        "istil": 7112,
        "server": 7113,
        "Ġíĩ´ìłģ": 7114,
        "ìĿ´ëĵľ": 7115,
        "ìĿ´ê·Ģ": 7116,
        "ë¡ľë¶ĢíĦ°": 7117,
        "ìĹĺ": 7118,
        "ìĹĺë¦¬": 7119,
        "ìķłë¡ľ": 7120,
        "ìķ¤ìł": 7121,
        "ìĸ´ëĨ": 7122,
        "Ġë°Ŀ": 7123,
        "§Ģì²´": 7124,
        "ê³łë¡ľ": 7125,
        "ê³łê°Ģ": 7126,
        "ê³łì§Ģ": 7127,
        "ê³łêµŃ": 7128,
        "ê³łìĸĳ": 7129,
        "ê³łìĬ¬": 7130,
        "Ġë§ĲíĸĪëĭ¤": 7131,
        "íķľìĿ¼": 7132,
        "ĠìłĪë": 7133,
        "ĠìłĬìĿĢ": 7134,
        "ĠìŀĪìĿĮìĿĦ": 7135,
        "ëĭ¤ëĭĲ": 7136,
        "ìŀĪ": 7137,
        "ìŀĪëĭ¤": 7138,
        "ìŀİë°ķì¥Ĳ": 7139,
        "ìĿĢë´ī": 7140,
        "ëıĦìļ°": 7141,
        "ëıĦíĺ¸": 7142,
        "ëıĦëĭĪìķĦ": 7143,
        "ëıĦë¥´íĬ¸": 7144,
        "ëıĦë©ĶìĿ¸": 7145,
        "ìķĦìĸ´": 7146,
        "ìķĦìĭľ": 7147,
        "ìķĦê¸°": 7148,
        "ìķĦë¯¸": 7149,
        "ìķĦë©Ķ": 7150,
        "ìķĦíĮĮ": 7151,
        "ìķĦë¸ĮëĿ¼": 7152,
        "ìķĦì°¨ìĤ°": 7153,
        "ìľµ": 7154,
        "ìľĮ": 7155,
        "ìĹĲìĸ´": 7156,
        "ìĹĲë§Į": 7157,
        "ìĹĲëĶĶíĬ¸": 7158,
        "ë¦¬ë¡ľ": 7159,
        "ë¦¬ìĹĲ": 7160,
        "ë¦¬ìķ¼": 7161,
        "ë¦¬ìĺ¤": 7162,
        "ë¦¬ìĤ°": 7163,
        "ë¦¬íķĻ": 7164,
        "ë¦¬ë°į": 7165,
        "ë¦¬ë¯¸íĦ°": 7166,
        "ë¦¬ìĬ¤íģ¬": 7167,
        "ë¦¬ì¹¸": 7168,
        "ë¦¬ìĨĮìĬ¤": 7169,
        "ë¦¬ìĥ¤": 7170,
        "ë¦¬ì¿łìłł": 7171,
        "ê°ĢìĻ": 7172,
        "ê°ĢëĿ½": 7173,
        "ĠìĪĺë¥¼": 7174,
        "ĠìĪĺìļ©": 7175,
        "ĠìĪĺìĻĢ": 7176,
        "ĠìĪĺíķĻ": 7177,
        "ĠìĪĺëĭ¨": 7178,
        "ĠìĪĺìĪł": 7179,
        "ĠìĪĺë¦½": 7180,
        "ĠìĪĺìĭŃ": 7181,
        "ì§Ģê°Ģ": 7182,
        "ì§ĢëĤĺ": 7183,
        "ì§ĢëĮĢ": 7184,
        "ì§ĢìĹŃ": 7185,
        "ì§Ģì¶ķ": 7186,
        "ì§ĢëĭĪìĸ´": 7187,
        "¤ë£¨": 7188,
        "ë©´ìĿĢ": 7189,
        "ìĬ¹": 7190,
        "ino": 7191,
        "inch": 7192,
        "instru": 7193,
        "ë³´ìĹĲ": 7194,
        "íķ´ìłĢ": 7195,
        "Ġëį¸": 7196,
        "ë§·": 7197,
        "ë§¨íķ´íĬ¼": 7198,
        "ìĦľê¸°": 7199,
        "ìĦľëį": 7200,
        "ìĦľìļ´": 7201,
        "ìĦľìĹ¼": 7202,
        "ìĦľëĮĢìłĦ": 7203,
        "urrent": 7204,
        "ĢíĻĺ": 7205,
        "ĠìłķìĿ´ëĭ¤": 7206,
        "Ġìłķëĭµ": 7207,
        "Ġìłķë¶ĢëĬĶ": 7208,
        "Ġë°ĶìĿ´íĬ¸": 7209,
        "Ġë°ĶëŀĮ": 7210,
        "Ġë°Ķíĭ°": 7211,
        "Ġë°Ķë¦¬ëħ¸": 7212,
        "Ġìĺµìħĺ": 7213,
        "ìŀĲìĿĺ": 7214,
        "ĪëŁ": 7215,
        "ĪëĿ¼": 7216,
        "ĠìĿ´ì¡°": 7217,
        "íķłíĤ¤ìĹĲë¦¬ìķĦ": 7218,
        "ëĤĺìĭľ": 7219,
        "ëĤĺìĬ¤": 7220,
        "ê¸Īì²ľ": 7221,
        "Ġë³ĢíĻĶ": 7222,
        "ìĭľë¥¼": 7223,
        "ìĭľìĻĢ": 7224,
        "ìĭľë©Ķ": 7225,
        "ìĭľíĶ¼": 7226,
        "ìĿ´ì½": 7227,
        "ìĿ´ì¹´": 7228,
        "ìĿ´ìĺ¤ë": 7229,
        "ìĿ´ìĸ¸": 7230,
        "ìĿ´ìĭŃ": 7231,
        "lect": 7232,
        "ëł´": 7233,
        "ëłµëĭ¤": 7234,
        "Ġtmc": 7235,
        "ê¸°ë¡ľ": 7236,
        "ê¸°ë¡Ŀ": 7237,
        "ê¸°ìĺ¤": 7238,
        "ê¸°ë³¸": 7239,
        "ê¸°ëĬĶì§Ģ": 7240,
        "ê¸°íĥĢ": 7241,
        "ê¸°ìĺ¨": 7242,
        "ê¸°ìĬ¤íĥĢ": 7243,
        "ê¸°ëĬ¥ìĿĦ": 7244,
        "Ġì§ĢëĮĢ": 7245,
        "Ġì§ĢìĨį": 7246,
        "Ġì§Ģì¹Ń": 7247,
        "Ġì§Ģë°°": 7248,
        "Ġëĭ¤ìŀĲ": 7249,
        "Ġëĭ¤ë§Į": 7250,
        "Ġëĭ¤ë¥´": 7251,
        "Ġëĭ¤ìĪĺ": 7252,
        "Ġëĭ¤ìĵ°": 7253,
        "Ġëĭµë§Į": 7254,
        "ìĿĺë£Į": 7255,
        "Ġë¶Īëł¸": 7256,
        "Ġê³¡": 7257,
        "Ġê³§ë°Ķë¡ľ": 7258,
        "£¼ìĹĲ": 7259,
        "Ġê·¸ëħ": 7260,
        "Ġê·¸ëŁ¬": 7261,
        "Ġê·¸ë¦°": 7262,
        "ë¶Ģì¡±": 7263,
        "eep": 7264,
        "ĠíķĺìĿ¼": 7265,
        "Ġíķĺë¶Ģ": 7266,
        "ĠíķĺëĬĶì§Ģ": 7267,
        "Ġíķĺë©´ìĦľ": 7268,
        "ë§ĮìĿĦ": 7269,
        "ë§Įìľ¼ë¡ľ": 7270,
        "ond": 7271,
        "ëĵĢìĦľ": 7272,
        "ĠìĽĶëĵľ": 7273,
        "ìĿ¸ëĵľ": 7274,
        "ìĿ¸ìłķ": 7275,
        "ìĿ¸ìĬ¤": 7276,
        "ìĿ¸ìłķë³´": 7277,
        "hed": 7278,
        "ats": 7279,
        "ator": 7280,
        "ates": 7281,
        "ĠìķĮì½Ķ": 7282,
        "ĠìķĮë²łë¥´": 7283,
        "ĠìķĮëłī": 7284,
        "ĠBo": 7285,
        "ĠBare": 7286,
        "ĠBears": 7287,
        "ĠBlues": 7288,
        "ĠìŀĲìĭł": 7289,
        "ĠìŀĲë°Ķ": 7290,
        "ĠìŀĲê¾¸": 7291,
        "Ġcar": 7292,
        "Ġcor": 7293,
        "Ġchun": 7294,
        "ìĿ¼ìĹĲìĦľ": 7295,
        "ìĿ¼ê´Ģ": 7296,
        "ìļĶíķĺëĦ¤ìĬ¤": 7297,
        "ê³¼ëĬĶ": 7298,
        "ê³¼ìĿĺ": 7299,
        "ìķ¼ë§Īë": 7300,
        "ìķ¼íķĺê¸°": 7301,
        "Ġê°Ģìłķ": 7302,
        "Ġê°ĢìĻ": 7303,
        "Ġê°Ģìĺ": 7304,
        "Ġê°ĢìĤ¬": 7305,
        "Ġê°Ģì§Ħ": 7306,
        "Ġê°Ģì¤ĳ": 7307,
        "Ġê°Ģì¦Ī": 7308,
        "Ġê°Ģì¡±": 7309,
        "Ġê°Ģì¡Į": 7310,
        "Ġê°Ģíķĺë¦¬ìķĦ": 7311,
        "ëĭŃ": 7312,
        "ĠëĦĺ": 7313,
        "ĠëĦĵìĿĢ": 7314,
        "ëĿ¼ìĿ´íĦ°": 7315,
        "ëĿ¼ìĦ¸": 7316,
        "ëĿ¼ë¹": 7317,
        "ëĿ¼ìĿ´ìĬ¤": 7318,
        "ëĿ¼ëĶĶìĺ¤": 7319,
        "ì²ľê": 7320,
        "ì²ĺìĿĮ": 7321,
        "Ġìłķë¦¬ëĲľ": 7322,
        "ì¶©ì²Ńë¶ģëıĦ": 7323,
        "arne": 7324,
        "arles": 7325,
        "arner": 7326,
        "ĠìĽĲìķĪ": 7327,
        "ĠìĽĲëŀĺ": 7328,
        "ĠìĽĲì¹Ļ": 7329,
        "ëĵľìĿĺ": 7330,
        "ëĵľëĭĪ": 7331,
        "ëĵľë¯¸": 7332,
        "ëĵľë¡Ŀ": 7333,
        "ĢìĪĺ": 7334,
        "Ģì¸ł": 7335,
        "ĠíĮĶ": 7336,
        "ìĹ°ìľ¼ë¡ľ": 7337,
        "ĠëĮĢíĺķ": 7338,
        "ĠìĿ´ë¥´": 7339,
        "ĠìĿ´ëŀĺ": 7340,
        "ĠìĿ´ê¸Ģ": 7341,
        "ĠìĿ´ê±´": 7342,
        "ĠìĿ´ë¡ł": 7343,
        "ĠìĿ´ë¦¬íĬ¸": 7344,
        "ĠìĿ´ëĵ¤ìĿĢ": 7345,
        "Ġë³´ê°ķ": 7346,
        "ĠìĤ¬ìĿ´ìĿĺ": 7347,
        "ĠìĤ¬ìĿ´ìĸ´": 7348,
        "ĠìĤ¬ë¡Ģ": 7349,
        "ĠìĤ¬ìļ´ëĵľ": 7350,
        "ĠìĤ¬ë¬´ì": 7351,
        "ìłķìĹĲ": 7352,
        "ìłķíķĺëĬĶ": 7353,
        "ìłķìĿ´ëĭ¤": 7354,
        "ìłķìłģìĿ¸": 7355,
        "ìłķìĺĪ": 7356,
        "ìłķì±ħ": 7357,
        "ìłķëł¬": 7358,
        "ĠìĦ¤ëªħìĿ´": 7359,
        "ìĬ¤íĤ¤": 7360,
        "ìĬ¤íĶ": 7361,
        "ìĬ¤íĥĿ": 7362,
        "ìĬ¤ì»": 7363,
        "ìĬ¤íĤ¹": 7364,
        "ìĬ¤ìłł": 7365,
        "ìĬ¤ì½§": 7366,
        "ìĬ¤íĶ¼ëħ¸ìĤ¬ìļ°ë£¨ìĬ¤": 7367,
        "ìĬ¤íĶĦëłĪ": 7368,
        "ëĶ°ë¥´ê¸°": 7369,
        "ëŀ«íı": 7370,
        "ëŀĢì¸ł": 7371,
        "Ġë°ĺë©´": 7372,
        "Ġë°©ìĸ´ì": 7373,
        "Ġë°©ìĺģ": 7374,
        "ìłģìĿĺ": 7375,
        "ìłģìłĪ": 7376,
        "ìĬ¤ëį": 7377,
        "ìłľíķľ": 7378,
        "ìłľë¥´": 7379,
        "ìłľìķĪ": 7380,
        "ìłľëĮĢë¡ľ": 7381,
        "ìłľê°ķ": 7382,
        "ìłľê³±íĶ¼": 7383,
        "seQA": 7384,
        "rea": 7385,
        "reat": 7386,
        "report": 7387,
        "ĠìķĦë¥´": 7388,
        "ĠìķĦëŀĺ": 7389,
        "ĠìķĦì£¼": 7390,
        "ĠìķĦíĶĦ": 7391,
        "ĠìķĦëĬĶì§Ģ": 7392,
        "ĠìķĦì¹´": 7393,
        "ĠìķĦìĿ´ìĬ¤ë": 7394,
        "ĠìķĦë¶Ģì": 7395,
        "ìĻĢì": 7396,
        "ìĻĢíİłë¡ľ": 7397,
        "chnell": 7398,
        "ĠíĮĮìĿ¸": 7399,
        "ĠíĮĮìķħ": 7400,
        "ĠíĮĮìļ´ëĵľ": 7401,
        "µìĭł": 7402,
        "Ġíķľë°ĺëıĦ": 7403,
        "Ġêµ´ì§Ģ": 7404,
        "ĠëıķëĬĶëĭ¤": 7405,
        "Ġì¤ĳêµ¬": 7406,
        "Ġì¤ĳë¶Ģ": 7407,
        "Ġì¤ĳëıħ": 7408,
        "ĠëĮĢíĻĶìĹŃê¹Įì§Ģ": 7409,
        "ĠëĤ«ëĭ¤": 7410,
        "ĠëıĦìĽĢ": 7411,
        "ĠëıĦìŀħ": 7412,
        "ĠëıĦì¿": 7413,
        "Ġê¸°ìĥģ": 7414,
        "Ġê¸°ê°Ħ": 7415,
        "Ġê¸°ë²ķ": 7416,
        "Ġê¸°íĽĦ": 7417,
        "Ġê¸°íį¼": 7418,
        "Ġë¶Ħíķ´": 7419,
        "Ġë¶ĦìĤ°": 7420,
        "ëį±": 7421,
        "ëį¤ìĬ¤": 7422,
        "ìĹĲìĦľëıĦ": 7423,
        "ìĹĲìĦľìĿĺ": 7424,
        "ê±°ë¦¬": 7425,
        "itor": 7426,
        "itis": 7427,
        "ª¨ëį¸": 7428,
        "ª¨íĨł": 7429,
        "Ġflat": 7430,
        "ëħķë³Ģ": 7431,
        "Ġ120": 7432,
        "Ġíİ¸ë§Ī": 7433,
        "ĲĺìĹĪëĭ¤": 7434,
        "Ġë²łìĸ´ì": 7435,
        "Ġë²¡íĦ°": 7436,
        "Ġê±°ì£¼": 7437,
        "ruz": 7438,
        "runt": 7439,
        "¡°íķĻìĬµ": 7440,
        "Ġsafety": 7441,
        "ough": 7442,
        "ë¥´ë¹Ħ": 7443,
        "ë¯Ģë¥´": 7444,
        "íĺĲìĺ¤": 7445,
        "ìĺĪìĸ´": 7446,
        "Ġdu": 7447,
        "Ġdistillation": 7448,
        "Ġìĺ¤ê¸Ī": 7449,
        "Ġìĺ¤ìĤ¬": 7450,
        "Ġìĺ¤ë¦¬ì§Ģ": 7451,
        "orts": 7452,
        "ĠìłĦìĿ´": 7453,
        "ĠìłĦê°ľ": 7454,
        "ĠìłĦíĮĮ": 7455,
        "ĠìłĦëĭ¬": 7456,
        "ĠìłĦì²ĺë¦¬": 7457,
        "ë²Į": 7458,
        "ìŀ¥ìĹĲìĦľ": 7459,
        "ĠìľĻìĸ´": 7460,
        "êµ¬ìĿ¸": 7461,
        "êµ¬ìĹ°": 7462,
        "êµ¬ë£¨": 7463,
        "íģ¬ìĿ¸": 7464,
        "íģ¬íĶĮ": 7465,
        "íģ¬ëłĪìĭľëĭ¤": 7466,
        "local": 7467,
        "íĥī": 7468,
        "íĥĢì": 7469,
        "íĥľê·¸": 7470,
        "íĥĢë¡ľ": 7471,
        "íĥĢíĬ¸": 7472,
        "eni": 7473,
        "ensfle": 7474,
        "ëĭĪìĬ¤íĥĦ": 7475,
        "ëĭĪìĸ¼": 7476,
        "ĠëĤĺìĺ¨": 7477,
        "ĠëĶ´": 7478,
        "Ġê´ĳ": 7479,
        "ĠìĿ¼ìľ¼": 7480,
        "ĠìĿ¼ìłķ": 7481,
        "ĠìĿ¼ìĤ°": 7482,
        "ĠìĿ¼ì»": 7483,
        "ĠìĿ¼ëłī": 7484,
        "ĠìĿ¼ìłľê°ķ": 7485,
        "ĠId": 7486,
        "ìĸ´ìĨ¡": 7487,
        "ìĸ´ìĺ¬": 7488,
        "ìĦ±ìĹĲ": 7489,
        "ìĦ±ìľ¼ë¡ľ": 7490,
        "íĸ¥ìĹĲ": 7491,
        "Ġêµ¬ë¦Ħ": 7492,
        "Ġêµ¬íĺĦ": 7493,
        "Ġêµ¬ë³Ħ": 7494,
        "Ġêµ¬ì¶ķ": 7495,
        "Ġìĺģë¯¸": 7496,
        "ĠìĺģìĿĺìłķ": 7497,
        "Ġìĺģìĸ´ìĹĲìĦľ": 7498,
        "Ġëª¨ë¦¬": 7499,
        "Ġëª¨ìĸĳ": 7500,
        "Ġëª¨ëłĪë": 7501,
        "Ġëª¨ìĿ´ëĦĪ": 7502,
        "Ġë¶Ģìŀ¬": 7503,
        "Ġë¶ĢìĹ¬": 7504,
        "Ġë¶Ģëª¨": 7505,
        "Ġë¶Ģê°Ģê°Ģ": 7506,
        "ìĽĮëĦĪ": 7507,
        "ìĽĮì»¤": 7508,
        "Ġë°©íĸ¥ìľ¼ë¡ľëĬĶ": 7509,
        "Ġëį°ëĦ": 7510,
        "Ġëį°ë·Ķ": 7511,
        "Ġìĸ´ëłµëĭ¤": 7512,
        "íŀĪë": 7513,
        "íĬ¸ë¦¬": 7514,
        "íĬ¸ìĹŃ": 7515,
        "íĬ¸ëłĪë": 7516,
        "íĬ¸ëĿ¼ìĦ¸": 7517,
        "ë¶Ħë¥ĺ": 7518,
        "ë¶ĦíģĲ": 7519,
        "ë¶Ħê³łêµŃ": 7520,
        "ê³ĦìĦ¤": 7521,
        "isr": 7522,
        "isch": 7523,
        "alitis": 7524,
        "Ġê°ĢëĬ¥íķĺê²Į": 7525,
        "Ġê°ĢëĬ¥íķ©": 7526,
        "ĠíĿ¬": 7527,
        "ĠíĿ¡ìĪĺ": 7528,
        "ĠíĿĳìļ´ëª¨": 7529,
        "Ġregress": 7530,
        "Ġrefusal": 7531,
        "omain": 7532,
        "ì¹´ìĹĲ": 7533,
        "Ġì²ł": 7534,
        "ĠëĲĺìĹĪ": 7535,
        "ì§ĵ": 7536,
        "ì§ģìĿ´": 7537,
        "Ġì£¼ìļĶ": 7538,
        "Ġì£¼ìĹĲìĦľ": 7539,
        "Ġì£¼ë¦½": 7540,
        "Ġì£¼ëª©": 7541,
        "Ġì£¼ìŀħ": 7542,
        "ë¯¸ë¯¸": 7543,
        "ë¯¸ì¼": 7544,
        "ë¯¸ìĥ": 7545,
        "ë¯¸ì½Ķ": 7546,
        "ë¯¸íĨł": 7547,
        "Ġìĺģìĸ´ê¶Į": 7548,
        "ĠìłľìĻ¸": 7549,
        "Ġëľ»íķĺëĬĶ": 7550,
        "ë£¨í": 7551,
        "Ġì¹¼": 7552,
        "Ġì¹¸ëĤĺ": 7553,
        "Ġê±´ì": 7554,
        "ìĤ¬ë¡ľ": 7555,
        "ìĤ¬ê¸°": 7556,
        "ìĤ¬ìĿ¸": 7557,
        "ìĤ¬ìĿ´ëĭ¤": 7558,
        "ìĤ¬ëŀĮ": 7559,
        "ìĤ¬ë¬´": 7560,
        "ìĤ¬ìĿ´ìŀĲ": 7561,
        "Ġìĭľê¸°": 7562,
        "Ġìĭľíĸī": 7563,
        "ĠìĭľíĿ": 7564,
        "Ġìĭľë¨¼": 7565,
        "Ġìĭľíĺ¸ëĬĶ": 7566,
        "Ġplatform": 7567,
        "Ġëĭ¨ê°Ģ": 7568,
        "Ġëĭ¨ì²´": 7569,
        "Ġëĭ¨ì¸µ": 7570,
        "Ġyet": 7571,
        "ĠìĿĺë£Į": 7572,
        "ĠìĿĺì¡´": 7573,
        "ĠìĿĺìĤ¬ê²°ìłķ": 7574,
        "Ġìĺ¤ëĵľ": 7575,
        "ì²ŃìĿ´": 7576,
        "Ġë©¸": 7577,
        "Ġë©´ìł": 7578,
        "Ġë©ĢëŁ¬": 7579,
        "Ġë©¤ë²Ħ": 7580,
        "ĠëĵĢíģ¬": 7581,
        "íĸĪìľ¼ë©´": 7582,
        "íĸĪìľ¼ëĤĺ": 7583,
        "íĸĪëĬĶëį°": 7584,
        "ĠìĥĿë¬¼íķĻ": 7585,
        "ĠìĥĿê¸°ëĬĶì§Ģ": 7586,
        "âĢĻ": 7587,
        "âĢľ": 7588,
        "Ġê°ķëıĦ": 7589,
        "ë³´ë©´": 7590,
        "ë³´íģ¬": 7591,
        "ë³´ê°ķ": 7592,
        "ĠíĮĮìĿ¼ìĿĢ": 7593,
        "ĠAr": 7594,
        "ĠAdd": 7595,
        "ĠAir": 7596,
        "ĠAud": 7597,
        "Ġharne": 7598,
        "ĠìŀĳìĦ¼": 7599,
        "Ġìŀĳê³¡": 7600,
        "ìķĪìĿ´": 7601,
        "ìķĪëıĦ": 7602,
        "ìķĪì¹¸": 7603,
        "êµŃê°Ģ": 7604,
        "êµŃìłľ": 7605,
        "ìĪĺìĿ´ë©°": 7606,
        "ìĪĺë¦¬ìĤ°": 7607,
        "íĪ¬ëĿ¼": 7608,
        "ĠíĴį": 7609,
        "ĠìĿ¸ëıĦ": 7610,
        "ĠìĿ¸ì§Ģ": 7611,
        "ĠìĿ¸ëł¥": 7612,
        "ĠìĿ¸ì¹ĺ": 7613,
        "ĠìĿ¸ì§Ī": 7614,
        "ĠìĿ¸ìłĳ": 7615,
        "ĠìĿ¸ì²ľê": 7616,
        "ĠìĿ¸ëį±": 7617,
        "Ġë¡±": 7618,
        "Ġìļ°ìĥģ": 7619,
        "Ġìļ°ì£¼": 7620,
        "ĠìļĶì²ŃìĿ´": 7621,
        "ĠìļĶì²ŃìĿ´ëĭ¤": 7622,
        "ķĮë¡ľ": 7623,
        "Ġab": 7624,
        "Ġas": 7625,
        "íĻĶëĭ¹": 7626,
        "íĻĶêµŃìĿĺ": 7627,
        "íĻĶìĦ±ìĿĺ": 7628,
        "Ġbuild": 7629,
        "ption": 7630,
        "ptional": 7631,
        "ìĥģëĮĢ": 7632,
        "ìĥģëĭ´": 7633,
        "ĠìĥģìľĦ": 7634,
        "ĠìĥģìĭĿ": 7635,
        "ëĮĢëĭĪ": 7636,
        "ëĮĢëŀµ": 7637,
        "ëĮĢê·ľëª¨": 7638,
        "Ġì¡°íķ©": 7639,
        "Ġì¡°ê±´": 7640,
        "Ġì¡°ìĦłì": 7641,
        "Ġì¡°ìĦłìĿĺ": 7642,
        "Ġì¡°ì§ģìĿĺ": 7643,
        "Ġì¡°ì§ģìĿ´": 7644,
        "Ġìľłë¡ľ": 7645,
        "Ġìľłê¸°": 7646,
        "ĠìľłíĤ¤": 7647,
        "Ġìľłê¶Į": 7648,
        "Ġìľłê³łìĬ¬": 7649,
        "ìļ°ëĬĶ": 7650,
        "ìļ°ë¥´ì": 7651,
        "Ġê°ľíİ¸": 7652,
        "ëŀĺìĬ¤": 7653,
        "ĠìķĦëĭĪëĭ¤": 7654,
        "racking": 7655,
        "Ġê²ĢìĤ¬": 7656,
        "**,": 7657,
        "ĠìĿĮë³´íģ¬": 7658,
        "Ġê³µìĭĿìłģìľ¼ë¡ľ": 7659,
        "Ġìĸ´ë¸Ķ": 7660,
        "Ġë§ĮíĻĶ": 7661,
        "Ġë§Įì£¼": 7662,
        "ĠCole": 7663,
        "ĠClean": 7664,
        "ĠCurrent": 7665,
        "ĠCruz": 7666,
        "ĠëĮĢëĶĶ": 7667,
        "ĠëĮĢë¹Ħ": 7668,
        "ĠëĮĢëıĦìĭľ": 7669,
        "ĠëĮĢê·ľëª¨": 7670,
        "ëªħìĹĲ": 7671,
        "Ġìĭ¤ìļ©": 7672,
        "Ġìĭ¤ìĭľê°Ħ": 7673,
        "Ġìĭ¤ë¬´ìłģ": 7674,
        "ìłĲìľ¼ë¡ľ": 7675,
        "íĨ¤": 7676,
        "íĨ±": 7677,
        "ê³µë³´": 7678,
        "ê³µì¤ĳìłĦ": 7679,
        "ì¡°ìłķ": 7680,
        "ì¡°ìĦł": 7681,
        "ì¡°íķłìķĦë²Ħì§ĢëĬĶ": 7682,
        "ĠìŀĺíĸĪìľ¼ë©´": 7683,
        "Ġíķ´ìĦľ": 7684,
        "ĠìĺĪìĪł": 7685,
        "ĠìĺĪìłķìĿ´ëĭ¤": 7686,
        "Ġê³łëĮĢ": 7687,
        "Ġê³łìĦ±ëĬ¥": 7688,
        "ì¹ĺíĻĶ": 7689,
        "ì¹ĺì¹´": 7690,
        "ĠìĤ¬ëŀĮìĿĦ": 7691,
        "íĺķíĻĶ": 7692,
        "íĺķìĭĿ": 7693,
        "ĠìķĬëĬĶ": 7694,
        "Ġíķ´êµ°": 7695,
        "Ġ190": 7696,
        "Ġ1919": 7697,
        "ëĦ¤ë": 7698,
        "ëĦ¤ëįľëŀĢëĵľ": 7699,
        "ëĦĵìĿĢ": 7700,
        "Ġë°°íı¬": 7701,
        "entence": 7702,
        "ëĲĺë©°": 7703,
        "ëĲĺë©´ìĦľ": 7704,
        "ëĲĺê¸°ëıĦ": 7705,
        "ëĲĺìĹĪëįĺ": 7706,
        "Ġdown": 7707,
        "Ġë°Ķê¿Ķì¤Ģëĭ¤": 7708,
        "ìŀ¬íĺĦ": 7709,
        "ìŀ¬íĤ¤": 7710,
        "Ġë¶Ģë¶Ħìłģìľ¼ë¡ľ": 7711,
        "pec": 7712,
        "ëĶĶë²Ħê¹ħ": 7713,
        "ëĶĶìĺ¥": 7714,
        "ë¬¼ìĿ´ëĭ¤": 7715,
        "ë¬¼ê´Ģ": 7716,
        "adtbahn": 7717,
        "ĠëĤ´ìĿĺ": 7718,
        "ìĺģíĻĶ": 7719,
        "ìĺģìĥģ": 7720,
        "Ġê´ĢìĬµ": 7721,
        "Ġê´Ģê³Ħë¥¼": 7722,
        "Ġíı°": 7723,
        "ĠíıĲ": 7724,
        "ì£¼ìĭľ": 7725,
        "ì£¼ìĺ¤": 7726,
        "Ġìŀ¬ëĭ¨": 7727,
        "Ġìŀ¬ëŀŃíĤ¹": 7728,
        "Ġìŀ¬ìĭľëıĦ": 7729,
        "Ġì´ĪëĮĢíĺķ": 7730,
        "ìĹĪìľ¼ë©°": 7731,
        "ĠëĮĢíĳľë¥¼": 7732,
        "ĠìĿ´ìķ¼ê¸°íķĺê³ł": 7733,
        "Ġëª°ìķĦ": 7734,
        "ìłĦë¬¸": 7735,
        "ĠìĬ¤íĨł": 7736,
        "ĠìĬ¤íı¬": 7737,
        "ĠìĬ¤íİĺìĿ¸ìĸ´": 7738,
        "ĠìĬ¤íĶ¼ëħ¸ìĤ¬ìļ°ë£¨ìĬ¤": 7739,
        "Ġhead": 7740,
        "ëıĻê³¼": 7741,
        "ëıĻëıħìĿĺ": 7742,
        "ĠìĹ¬ìŀĲ": 7743,
        "ĠìĹ¬ìĦ±": 7744,
        "ĠìĹ¬ë¶Ģ": 7745,
        "ĠìĹ¬ìĭł": 7746,
        "ĠìĹ¬ê°Ŀ": 7747,
        "ĠìĹ¬ìĦ¯": 7748,
        "rovi": 7749,
        "ropic": 7750,
        "ëª¨ë¥´ë©´": 7751,
        "ëª¨ëĿ¼ë¹ĦìķĦ": 7752,
        "ëª¨íķ¨ë§Īëĵľ": 7753,
        "ê°ĲìĿĦ": 7754,
        "ĠíĺĦìĥģ": 7755,
        "ĠíĺĦìĭ¤": 7756,
        "ĠíĺĦìĥģìĿĦ": 7757,
        "ĠìĹĲìĸ´": 7758,
        "ĠìĹĲëıĦ": 7759,
        "ĠìĹĲë¥´íĬ¸": 7760,
        "ĠìĹĲë¦¬íĬ¸ëłĪìķĦ": 7761,
        "ĠìĹĲìĬ¤íĶĦëłĪ": 7762,
        "Ġë°ĺë³µìĿ´": 7763,
        "Ġë°ĺë³µëı": 7764,
        "Ġë²ĦìłĢëĭĿ": 7765,
        "ĠSo": 7766,
        "ĠSim": 7767,
        "ĠSQuAD": 7768,
        "ĠSentence": 7769,
        "Įë¦¬ìĬ¤": 7770,
        "ê°Ħëĭ¤": 7771,
        "ê°ĦìĿĺ": 7772,
        "Ġëĭ¬ìĦ±": 7773,
        "ĠíĻķìĿ¸íķľ": 7774,
        "ĠíĻķìĿ¸íķł": 7775,
        "Ġë²ĶìľĦìĿĺ": 7776,
        "ĠìłķìĿĺëĲľëĭ¤": 7777,
        "Ġlaunch": 7778,
        "ĠìĻ¼ìª½": 7779,
        "Ġêµ¬ì¡°ë¥¼": 7780,
        "Ġêµ¬ì¡°ìĻĢ": 7781,
        "íĻĺê³łìĨįëıĦë¡ľ": 7782,
        "Ġë¹Ħê³µìĭĿ": 7783,
        "ìĹħìķĪìłķ": 7784,
        "ìĦłë¬¸": 7785,
        "ĠíĨłíĶ½": 7786,
        "ìĹĶë¹Ħê°Ģ": 7787,
        "ë¶Ģìłľ": 7788,
        "ë¶ĢìĹĲìĦľ": 7789,
        "ë¶Ģë¥´íģ¬": 7790,
        "Ġë²Īíĺ¸": 7791,
        "ĠìĿ´ìĸ´ê°ĢëıĦë¡Ŀ": 7792,
        "íĨµê³µìĤ¬": 7793,
        "Ġê²ĥìĿ´ë©°": 7794,
        "Ġê²ĥìĿ¸ê°Ģ": 7795,
        "Ġ2000": 7796,
        "ĠíĺĦìŀ¬ëĬĶ": 7797,
        "ica": 7798,
        "icro": 7799,
        "ìĤ°ëĵľ": 7800,
        "ìĤ°íĥĢ": 7801,
        "ìĤ°ìĸĳ": 7802,
        "ĠíħĲ": 7803,
        "ìłģìľ¼ë¡ľëĬĶ": 7804,
        "ĠìľĦë°ĺ": 7805,
        "ĠìľĦíĤ¤": 7806,
        "ĠìľĦìĽĲ": 7807,
        "ĠìľĦíķĺìĹ¬": 7808,
        "ë°ĺìĺģ": 7809,
        "ê°ľëĬĶ": 7810,
        "ê°ľë¸Įë¦¬": 7811,
        "ê°ľìĿ¸ìłķë³´": 7812,
        "ĠíĶĦë¡ľëĵĢìĦľ": 7813,
        "ĠMb": 7814,
        "ĠMo": 7815,
        "ĠMÃ": 7816,
        "ĠMon": 7817,
        "ĠMus": 7818,
        "ĠMML": 7819,
        "ĠMach": 7820,
        "ĠMTV": 7821,
        "ĠMultiWOZ": 7822,
        "ĠManhat": 7823,
        "íĤ¤ìĭľ": 7824,
        "íĤ¤íĿĲ": 7825,
        "ĺë¦¬ìĸ¼": 7826,
        "ìķ½ìĿĦ": 7827,
        "ëĵ¤ìĿ´": 7828,
        "ëĵ¤ë¡ľ": 7829,
        "ëĵ¤ìĿĺ": 7830,
        "ëĵ¤ê³¼": 7831,
        "íģ°ëĳ¥": 7832,
        "íĻķìŀ¥": 7833,
        "ugging": 7834,
        "ĠEU": 7835,
        "ĠEn": 7836,
        "ĠErit": 7837,
        "ĠEHR": 7838,
        "ĠExper": 7839,
        "ĠElect": 7840,
        "Ġì§ģê´Ģ": 7841,
        "Ġì§ģì±ħ": 7842,
        "Ġì§ģìĦ¤": 7843,
        "ëĤ´ê¸°": 7844,
        "ëĤ´ìĿĺ": 7845,
        "Ġë¯¸ìĤ¬": 7846,
        "Ġë¯¸ëĭĪë": 7847,
        "Ġë¯¸ë¥´ëª¨": 7848,
        "Ġë¯¸ìľłíĤ¤": 7849,
        "Ġë¯¸ëĿ¼ë¹": 7850,
        "ëłĪë¦¬": 7851,
        "ëłĪë§Į": 7852,
        "ëłĪë¥´": 7853,
        "ëłĪíĬ¸": 7854,
        "ëłĪìĭľìķĦ": 7855,
        "ëłĪì£¼ìĿĺ": 7856,
        "ëłĪíĬ¸ë¥¼": 7857,
        "ëłĪê¸°ìĺ¨": 7858,
        "ëłĪìĬ¤ëį": 7859,
        "ĠíĳľëĬĶ": 7860,
        "ë³´ìĬĪëĥĲ": 7861,
        "ĠëĶ°ë¡ľ": 7862,
        "ĠëĶ°ë¥´ë©´": 7863,
        "ĠëĶ°ëĤ¸": 7864,
        "Ġë¡ľê·¸ëĬĶ": 7865,
        "ĠìłķíĻķëıĦ": 7866,
        "Ġê²½íĹĺ": 7867,
        "íĦ°ìĿĺ": 7868,
        "Ġstation": 7869,
        "Ġstill": 7870,
        "ĠìĤ¬ìĿ´íĬ¸ë¥¼": 7871,
        "ë¹Ħëĵľ": 7872,
        "ë¹Ħìĺ¤": 7873,
        "ë¹Ħìľł": 7874,
        "ë¹ĦëĶĶìĺ¤": 7875,
        "ë¹Ħíıī": 7876,
        "ŀĲíĿĲ": 7877,
        "ĠìĥĿìĦ±ëĲľëĭ¤": 7878,
        "íĮŁ": 7879,
        "Ġê³µë¦½": 7880,
        "Ġê³µíĻĶëĭ¹": 7881,
        "Ġë¡ľíĬ¸": 7882,
        "Ġë¡ľìĦ¼": 7883,
        "Ġë¡ľë´ĩ": 7884,
        "Ġë¡ľê³łê°Ģ": 7885,
        "ĠìĥģíĥľìĿ¼": 7886,
        "ĠHe": 7887,
        "ĠHotpotQA": 7888,
        "ĠRE": 7889,
        "ĠRet": 7890,
        "ĠRLAIF": 7891,
        "ĠRULER": 7892,
        "ĠRMF": 7893,
        "ĠRond": 7894,
        "Ġì»¤ë": 7895,
        "Ġì»´í": 7896,
        "Ġì»´íķĦ": 7897,
        "íķĻìĿĦ": 7898,
        "íķĻëªħ": 7899,
        "íķĻìŀĲìĿ´ëĭ¤": 7900,
        "íĸīëĲĺê³ł": 7901,
        "ì¼ĢíĬ¸": 7902,
        "ĠìĦ¤ê³Ħë¥¼": 7903,
        "ê·¼ì²łëıĦ": 7904,
        "ê·¼ìŀİë°ķì¥Ĳ": 7905,
        "íĺ¸ìĦłìĿĺ": 7906,
        "íĺ¸ìľĦëĮĢêµ°": 7907,
        "ëĦ¤ìĭľ": 7908,
        "íļ¨": 7909,
        "ĠThen": 7910,
        "ĠTopic": 7911,
        "ĠTracking": 7912,
        "Ġë°ĽìĿĢ": 7913,
        "Ġë°ĽëıĦë¡Ŀ": 7914,
        "ë¬¸ìĿĢ": 7915,
        "ë¬¸ìŀ¥": 7916,
        "ë¬¸íĬ¸": 7917,
        "Ġìĵ°ìĿ´ê¸°ëıĦ": 7918,
        "Ġë§īìĹ°íķĺê²Į": 7919,
        "Ġëª©íı¬": 7920,
        "ìª½ìĹĲ": 7921,
        "ìª½ìĿĺ": 7922,
        "Ġìłģíķ©": 7923,
        "ĠìłģìĿĳ": 7924,
        "ĠìłģìłĪ": 7925,
        "Ġìłģêµ°ìĿĺ": 7926,
        "Ġíı¬ë§·": 7927,
        "íĶĦëĿ¼ìĿ´ë²Ħìĭľ": 7928,
        "íĶĦëŀĢì¸ł": 7929,
        "Ġkg": 7930,
        "Ġkm": 7931,
        "êµĲìĿĺ": 7932,
        "êµĲíĨµê³µìĤ¬": 7933,
        "Ġìĭ¤ìłľë¡ľëĬĶ": 7934,
        "ë§Īìķ¼": 7935,
        "ë§Īë¥´ì": 7936,
        "ĠëıĻìª½ìľ¼ë¡ľ": 7937,
        "ĠëıĻìª½ìľ¼ë¡ľëĬĶ": 7938,
        "short": 7939,
        "Ġrand": 7940,
        "ĠëĳĶ": 7941,
        "Ġì²ľíĺ¸": 7942,
        "Ġì²ľë¬¸": 7943,
        "ë£¨ëĤĺ": 7944,
        "ë£¨ë§ĪëĭĪìķĦ": 7945,
        "ë£¨ë¹Ħìľł": 7946,
        "ëĭ¨ê³Ħ": 7947,
        "Ġìłĳíķ©": 7948,
        "êµ°ìĿĦ": 7949,
        "ĠìĹ°ê¸°": 7950,
        "ĠìĹ°íķ©": 7951,
        "ĠìĹ°ê´Ģ": 7952,
        "ĠìĹ°ìĨį": 7953,
        "´ìĹĲëĬĶ": 7954,
        "ization": 7955,
        "ë§ĪëĿ¼": 7956,
        "ë§Īë£¨ëª¨ë¦¬": 7957,
        "ë§Īëĭ¹ìĿĦ": 7958,
        "ìŀĳìļ©": 7959,
        "Ġ31": 7960,
        "ĠPres": 7961,
        "ĠPublic": 7962,
        "ìłĳì°©ìłľ": 7963,
        "ĠDub": 7964,
        "ĠDST": 7965,
        "ĠDistri": 7966,
        "ĠDVC": 7967,
        "ìĭłëĿ¼": 7968,
        "ì²ľìŀ¬": 7969,
        "ìĽĲìľ¼ë¡ľ": 7970,
        "ìĽĲê²½ìĿĦ": 7971,
        "Ġì¤ĳìĭ¬ì§Ģ": 7972,
        "ë¯¼íĭ°": 7973,
        "ĠìĥĪíĦ´": 7974,
        "ĠìĥĿê°ģíķĺì§Ģ": 7975,
        "ĠìĿ´ìłĦìĹĲëĬĶ": 7976,
        "ĠêµŃìłķ": 7977,
        "ĠêµŃíļĮ": 7978,
        "ĠêµŃê²½": 7979,
        "ì§Ħê³µ": 7980,
        "ì¤ĳìĭ¬": 7981,
        "ì¤ĳë³µ": 7982,
        "ì¤ĳë¦½": 7983,
        "1917": 7984,
        "1930": 7985,
        "1928": 7986,
        "1995": 7987,
        "ì½Ķë°Ķ": 7988,
        "ì½ĶìĬ¤ëª¨ìĬ¤": 7989,
        "íı°": 7990,
        "íıŃ": 7991,
        "ĠíĻĶíķ©": 7992,
        "ĠìĦľìļ´": 7993,
        "ĠíķľêµŃì²łëıĦ": 7994,
        "íĥĢë¯¼": 7995,
        "ĠëĤĺëīľëĭ¤": 7996,
        "ĠíĴĢìĿĦ": 7997,
        "Ġíĥľê·¸": 7998,
        "ĠíĥĲì§Ģ": 7999,
        "ĠíĥĲìĥī": 8000,
        "ĠíĥĢíĥĢ": 8001,
        "ĠìĤ¬ìļ©ëĲĺëĬĶ": 8002,
        "ĠìĨįìĹĲ": 8003,
        "ĠìłĲëł¹": 8004,
        "ë©Ķë¥´": 8005,
        "ë©Ķíĭ": 8006,
        "ë©ĶìĬ¤íĬ¸ëłĪ": 8007,
        "ë©ĶëĭĪìĬ¤íĥĦ": 8008,
        "ëįĶë¸Ķ": 8009,
        "íİĺë¥´": 8010,
        "íİĺìĿ´ìĬ¤": 8011,
        "íİĺëĨĢ": 8012,
        "íİĺíĥĢë¯¼": 8013,
        "ĠìĦ¸ìłľê³±íĶ¼": 8014,
        "olic": 8015,
        "íķ¨ìĿĦ": 8016,
        "íķ¨ë§ĪëĶĶ": 8017,
        "Ġíĸ¥": 8018,
        "Ġìĭ¬ì¸µ": 8019,
        "ĠìĿĺë¯¸ê°Ģ": 8020,
        "ĠìĿĺë¯¸ë¥¼": 8021,
        "ĠìĿĺë¯¸íķĺëĬĶ": 8022,
        "Ġëĵ±ìĹĲ": 8023,
        "ìħľ": 8024,
        "ĠGeorge": 8025,
        "ĠGlen": 8026,
        "ĠGeneration": 8027,
        "ĠGensfle": 8028,
        "ĠíĽĦìĹĲ": 8029,
        "ĠíĽĦê¸°": 8030,
        "ĠíĽĦì¿ł": 8031,
        "Ġëĭ¨ìľĦìĿ´ëĭ¤": 8032,
        "iment": 8033,
        "imation": 8034,
        "ê´ĳìĹŃìĭľ": 8035,
        "ĮëĿ¼ìĿ´ì": 8036,
        "Ġcassette": 8037,
        "ĠìĹŃìĿĦ": 8038,
        "ĠìĹŃìĿĢ": 8039,
        "ĠìĹŃìĬµ": 8040,
        "ĠìĹŃëŁī": 8041,
        "ĠìĹŃìĹĲë§Į": 8042,
        "ë²ĦëĶĶ": 8043,
        "ĠìµľëĮĢ": 8044,
        "ì°¨ë³Ħ": 8045,
        "ĠFire": 8046,
        "ĠFLAN": 8047,
        "ĠLoRA": 8048,
        "AISS": 8049,
        "agement": 8050,
        "ika": 8051,
        "ì½©ê³ł": 8052,
        "íĭ°ìĬ¤íĬ¸": 8053,
        "íĭ°ê·¸ë¦¬": 8054,
        "íĭ°ëĪ": 8055,
        "ĠvLLM": 8056,
        "ĠìĨĮìľł": 8057,
        "ĠìĨĮëŁī": 8058,
        "ĠìĨĮíĶĦíĬ¸": 8059,
        "Ġintegr": 8060,
        "Ġì»´íĵ¨íĬ¸": 8061,
        "Ġê·ľì¹Ļíĺķ": 8062,
        "Ġë§Īë¥´íĭ°": 8063,
        "Ġë§ĪìĿ´íģ´": 8064,
        "Ġë§Īì°¬": 8065,
        "ĠìķĪìĸĳ": 8066,
        "ìľłëĪĦ": 8067,
        "ë³Ħë¡ľ": 8068,
        "ë³ĦëıĦ": 8069,
        "ĠíĨµì¹Ń": 8070,
        "ĠìĬ¤íģ¬ë¦°ìĥ·ìĿ´ëŀĳ": 8071,
        "ê²½ìĦ±": 8072,
        "ê²½íķĦ": 8073,
        "ê²½ê³ĦìĦ¤": 8074,
        "ĠíķĺìĿ´ëĵľë¡Ŀ": 8075,
        "ĠìĿ´ìķ¼ê¸°íķĺìŀĲê³ł": 8076,
        "2020": 8077,
        "2015": 8078,
        "2016": 8079,
        "2014": 8080,
        "2024": 8081,
        "íķĺê¸°ëıĦ": 8082,
        "Ġ2012": 8083,
        "Ġ2016": 8084,
        "Ġìĭ¬ìĭ¬íķĺëĭ¤ê³ł": 8085,
        "Ġover": 8086,
        "Ġobject": 8087,
        "ĠëĤ¨ìĿ´": 8088,
        "ĠëĤ¨ìĦľ": 8089,
        "ĠëĤ¨ìŀĲ": 8090,
        "ĠëĤ¨ìª½ìľ¼ë¡ľëĬĶ": 8091,
        "ë°Ķíĭ°ìĬ¤íĬ¸": 8092,
        "ì¹´ë¥´": 8093,
        "Ġë§ĮëĤĺëĬĶ": 8094,
        "ìĪłëłĪë§Į": 8095,
        "Ġdataset": 8096,
        "ĠíıīìķĪëıĦ": 8097,
        "ĠìľĦì¹ĺë¶Ģíĺ¸íĻĶ": 8098,
        "ìĸĳêµ¬": 8099,
        "ê´ĢìĿĦ": 8100,
        "ê´Ģë¦¬": 8101,
        "ê´ĢìĿ´ëĭ¤": 8102,
        "Ġì´Ŀìŀ¬": 8103,
        "íĹ¨ë¦¬": 8104,
        "íĹĿê°Ģ": 8105,
        "íĹĮëĵľëłĪëĵľìĽ¨ìĿ´íĬ¸": 8106,
        "íĹ¤ìĿ¼ë¦¬": 8107,
        "ĠìĤ°íķĺ": 8108,
        "ĠìĤ°ìłķ": 8109,
        "ĠìĤ°ìķħ": 8110,
        "ĠìĤ°ì¶ľ": 8111,
        "ĠëĿ¼ìĿ¼": 8112,
        "ĠëĿ¼ìĿ´íĶĦ": 8113,
        "ĠëĿ¼íĭ": 8114,
        "ĠëĿ¼ìĿ¼ë¦¬": 8115,
        "Ġdete": 8116,
        "Ġdeplo": 8117,
        "ë²łë¦¬": 8118,
        "ë²łìĿ´ëĿ¼": 8119,
        "ë²łìĿ´ëĦĪ": 8120,
        "ë²łìĬ¤íĬ¸íĮĶëłĮ": 8121,
        "ĠëĤĺëĪłë³´ë©´": 8122,
        "¢ħëĭµ": 8123,
        "Ġë°ľìĿĮ": 8124,
        "Ġë°ľíĳľ": 8125,
        "Ġë°ľë§¤": 8126,
        "Ġë°ľíľĺ": 8127,
        "Ġë°ľíĨ±": 8128,
        "Ġë°ľëłĪì£¼ìĿĺ": 8129,
        "Ġìĭłìĭľ": 8130,
        "Ġìĭłì²´": 8131,
        "Ġìĭłë¢°": 8132,
        "ĠìĭłíĥĢë¡ľ": 8133,
        "Ġreport": 8134,
        "íĨłëĵľ": 8135,
        "íĨłëĭĪ": 8136,
        "ëħ¸íħĮ": 8137,
        "ĠìłķíĻķíķ´ì§ĳ": 8138,
        "Ġê¸¸ìĿ´ìĹĲ": 8139,
        "Ġê¸°ë³¸ìłģìĿ¸": 8140,
        "Ġìĸ´ëĶĶìĦľ": 8141,
        "Ġë¦¬ìĬ¤íĬ¸": 8142,
        "Ġë¦¬ìĬ¤íģ¬": 8143,
        "Ġë¦¬ìĨĮìĬ¤": 8144,
        "ê·Ħ": 8145,
        "ê·ł": 8146,
        "ëĳĺ": 8147,
        "Ġ62": 8148,
        "Ġ86": 8149,
        "Ġ89": 8150,
        "ĵľë°ĶìĿ´": 8151,
        "ĠëıĦìĭľë¡ľ": 8152,
        "ë¬´íķ¨ë§Īëĵľ": 8153,
        "ourse": 8154,
        "íĬĢë¥´íĤ¤": 8155,
        "Ġê¸°ë¡Ŀíķĺê³ł": 8156,
        "íı¬ìĬ¤ìłł": 8157,
        "íĴĪì§Ī": 8158,
        "Ġ1812": 8159,
        "Ġ1889": 8160,
        "Ġ1836": 8161,
        "Ġë¬´ìĥī": 8162,
        "Ġìº£": 8163,
        "ĠìºĦë¸Įë¦¬": 8164,
        "ĠìķłíĭĢ": 8165,
        "Ġìķłëį¤ìĬ¤": 8166,
        "ìĹĲê²ĮëĬĶ": 8167,
        "Ġëĭ¹ìĦł": 8168,
        "ì²´ë¡ľ": 8169,
        "ì²´ìĿĺ": 8170,
        "Ġíĺ¸ìĦ¸": 8171,
        "Ġíĺ¸íĶĮ": 8172,
        "Ġíĺ¸ëĤ¨": 8173,
        "Ġíĺ¸ëªħìĹĲ": 8174,
        "íħĮëĵľ": 8175,
        "íħĮìĬ¤íĬ¸": 8176,
        "Ġë¶ĻìĹ¬ì¡Įëĭ¤": 8177,
        "ìĤ´": 8178,
        "ĠÐĲ": 8179,
        "ĠÐĳ": 8180,
        "ĠÐ¾Ð": 8181,
        "ë¥´ì¡±": 8182,
        "ë¥´ìĭľ": 8183,
        "ĠêµĲìłķ": 8184,
        "Ġì²´ê³Ħë¥¼": 8185,
        "Ġprovi": 8186,
        "Ġprobab": 8187,
        "Ġ1998": 8188,
        "Ġíģ¬ê¸°": 8189,
        "Ġíģ¬ë£¨ìĬ¤": 8190,
        "Ġíı¬íķ¨íķł": 8191,
        "Ġìĺ¬ë¦¬ë²łìĿ´ëĿ¼": 8192,
        "ëī´ìĤ¬ìļ°ìĬ¤ìĽ¨ìĿ¼ìĬ¤": 8193,
        "ìĭ¤ë¬´ìłģ": 8194,
        "ëĮĢíĺĳê³¡": 8195,
        "Ġì¶ľìĹ°": 8196,
        "Ġì¶ľìłĦ": 8197,
        "íĮĮìĿ´íĶĦëĿ¼ìĿ¸": 8198,
        "íĮĮë¹Ħìĺ¤": 8199,
        "íĮĮì¼ĢíĬ¸": 8200,
        "ĠìĦ¤ê³Ħíķ´ìķ¼": 8201,
        "ìĭľìķĦìĿĺ": 8202,
        "ì¶ľì²ĺ": 8203,
        "ĠìĹ´ëĮĢ": 8204,
        "Ġë²łìĸ´": 8205,
        "Ġë²łëĦ¤": 8206,
        "íĥĪë¦¬ìĬ¤íĬ¸": 8207,
        "Ġíıīê°ĢìĹĲ": 8208,
        "ĠìĪĻ": 8209,
        "ĠëĪĦìĤ°íĥĢ": 8210,
        "Ġê°Ħì²´ì": 8211,
        "Ġ2003": 8212,
[...]
