{
  "version": 3,
  "type": "purple-bee-bytelevel-bpe",
  "vocab_size_limit": 32000,
  "backend": "huggingface-tokenizers",
  "special_tokens": {
    "<pad>": 0,
    "<bos>": 1,
    "<eos>": 2,
    "<unk>": 3
  },
  "hf_tokenizer_json": {
    "version": "1.0",
    "truncation": null,
    "padding": null,
    "added_tokens": [
      {
        "id": 0,
        "content": "<pad>",
        "single_word": false,
        "lstrip": false,
        "rstrip": false,
        "normalized": false,
        "special": true
      },
      {
        "id": 1,
        "content": "<bos>",
        "single_word": false,
        "lstrip": false,
        "rstrip": false,
        "normalized": false,
        "special": true
      },
      {
        "id": 2,
        "content": "<eos>",
        "single_word": false,
        "lstrip": false,
        "rstrip": false,
        "normalized": false,
        "special": true
      },
      {
        "id": 3,
        "content": "<unk>",
        "single_word": false,
        "lstrip": false,
        "rstrip": false,
        "normalized": false,
        "special": true
      }
    ],
    "normalizer": {
      "type": "Sequence",
      "normalizers": [
        {
          "type": "NFKC"
        }
      ]
    },
    "pre_tokenizer": {
      "type": "ByteLevel",
      "add_prefix_space": false,
      "trim_offsets": true,
      "use_regex": true
    },
    "post_processor": null,
    "decoder": {
      "type": "ByteLevel",
      "add_prefix_space": true,
      "trim_offsets": true,
      "use_regex": true
    },
    "model": {
      "type": "BPE",
      "dropout": null,
      "unk_token": "<unk>",
      "continuing_subword_prefix": null,
      "end_of_word_suffix": null,
      "fuse_unk": false,
      "byte_fallback": false,
      "ignore_merges": false,
      "vocab": {
        "<pad>": 0,
        "<bos>": 1,
        "<eos>": 2,
        "<unk>": 3,
        "!": 4,
        "\"": 5,
        "#": 6,
        "$": 7,
        "%": 8,
        "&": 9,
        "'": 10,
        "(": 11,
        ")": 12,
        "*": 13,
        "+": 14,
        ",": 15,
        "-": 16,
        ".": 17,
        "/": 18,
        "0": 19,
        "1": 20,
        "2": 21,
        "3": 22,
        "4": 23,
        "5": 24,
        "6": 25,
        "7": 26,
        "8": 27,
        "9": 28,
        ":": 29,
        ";": 30,
        "<": 31,
        "=": 32,
        ">": 33,
        "?": 34,
        "@": 35,
        "A": 36,
        "B": 37,
        "C": 38,
        "D": 39,
        "E": 40,
        "F": 41,
        "G": 42,
        "H": 43,
        "I": 44,
        "J": 45,
        "K": 46,
        "L": 47,
        "M": 48,
        "N": 49,
        "O": 50,
        "P": 51,
        "Q": 52,
        "R": 53,
        "S": 54,
        "T": 55,
        "U": 56,
        "V": 57,
        "W": 58,
        "X": 59,
        "Y": 60,
        "Z": 61,
        "[": 62,
        "\\": 63,
        "]": 64,
        "^": 65,
        "_": 66,
        "`": 67,
        "a": 68,
        "b": 69,
        "c": 70,
        "d": 71,
        "e": 72,
        "f": 73,
        "g": 74,
        "h": 75,
        "i": 76,
        "j": 77,
        "k": 78,
        "l": 79,
        "m": 80,
        "n": 81,
        "o": 82,
        "p": 83,
        "q": 84,
        "r": 85,
        "s": 86,
        "t": 87,
        "u": 88,
        "v": 89,
        "w": 90,
        "x": 91,
        "y": 92,
        "z": 93,
        "{": 94,
        "|": 95,
        "}": 96,
        "~": 97,
        "¡": 98,
        "¢": 99,
        "£": 100,
        "¤": 101,
        "¥": 102,
        "¦": 103,
        "§": 104,
        "¨": 105,
        "©": 106,
        "ª": 107,
        "«": 108,
        "¬": 109,
        "®": 110,
        "¯": 111,
        "°": 112,
        "±": 113,
        "²": 114,
        "³": 115,
        "´": 116,
        "µ": 117,
        "¶": 118,
        "·": 119,
        "¸": 120,
        "¹": 121,
        "º": 122,
        "»": 123,
        "¼": 124,
        "½": 125,
        "¾": 126,
        "¿": 127,
        "À": 128,
        "Á": 129,
        "Â": 130,
        "Ã": 131,
        "Ä": 132,
        "Å": 133,
        "Æ": 134,
        "Ç": 135,
        "È": 136,
        "É": 137,
        "Ê": 138,
        "Ë": 139,
        "Ì": 140,
        "Í": 141,
        "Î": 142,
        "Ï": 143,
        "Ð": 144,
        "Ñ": 145,
        "Ò": 146,
        "Ó": 147,
        "Ô": 148,
        "Õ": 149,
        "Ö": 150,
        "×": 151,
        "Ø": 152,
        "Ù": 153,
        "Ú": 154,
        "Û": 155,
        "Ü": 156,
        "Ý": 157,
        "Þ": 158,
        "ß": 159,
        "à": 160,
        "á": 161,
        "â": 162,
        "ã": 163,
        "ä": 164,
        "å": 165,
        "æ": 166,
        "ç": 167,
        "è": 168,
        "é": 169,
        "ê": 170,
        "ë": 171,
        "ì": 172,
        "í": 173,
        "î": 174,
        "ï": 175,
        "ð": 176,
        "ñ": 177,
        "ò": 178,
        "ó": 179,
        "ô": 180,
        "õ": 181,
        "ö": 182,
        "÷": 183,
        "ø": 184,
        "ù": 185,
        "ú": 186,
        "û": 187,
        "ü": 188,
        "ý": 189,
        "þ": 190,
        "ÿ": 191,
        "Ā": 192,
        "ā": 193,
        "Ă": 194,
        "ă": 195,
        "Ą": 196,
        "ą": 197,
        "Ć": 198,
        "ć": 199,
        "Ĉ": 200,
        "ĉ": 201,
        "Ċ": 202,
        "ċ": 203,
        "Č": 204,
        "č": 205,
        "Ď": 206,
        "ď": 207,
        "Đ": 208,
        "đ": 209,
        "Ē": 210,
        "ē": 211,
        "Ĕ": 212,
        "ĕ": 213,
        "Ė": 214,
        "ė": 215,
        "Ę": 216,
        "ę": 217,
        "Ě": 218,
        "ě": 219,
        "Ĝ": 220,
        "ĝ": 221,
        "Ğ": 222,
        "ğ": 223,
        "Ġ": 224,
        "ġ": 225,
        "Ģ": 226,
        "ģ": 227,
        "Ĥ": 228,
        "ĥ": 229,
        "Ħ": 230,
        "ħ": 231,
        "Ĩ": 232,
        "ĩ": 233,
        "Ī": 234,
        "ī": 235,
        "Ĭ": 236,
        "ĭ": 237,
        "Į": 238,
        "į": 239,
        "İ": 240,
        "ı": 241,
        "Ĳ": 242,
        "ĳ": 243,
        "Ĵ": 244,
        "ĵ": 245,
        "Ķ": 246,
        "ķ": 247,
        "ĸ": 248,
        "Ĺ": 249,
        "ĺ": 250,
        "Ļ": 251,
        "ļ": 252,
        "Ľ": 253,
        "ľ": 254,
        "Ŀ": 255,
        "ŀ": 256,
        "Ł": 257,
        "ł": 258,
        "Ń": 259,
        "Ġì": 260,
        "Ġë": 261,
        "íķ": 262,
        "ìĿ": 263,
        "Ġê": 264,
        "´ì": 265,
        "an": 266,
        "ê²": 267,
        "st": 268,
        "er": 269,
        "Ġë§": 270,
        "ant": 271,
        "ss": 272,
        "Ass": 273,
        "Us": 274,
        "ist": 275,
        "Assist": 276,
        "User": 277,
        "Assistant": 278,
        "ê²Į": 279,
        "íķĺ": 280,
        "´ë": 281,
        "ê³": 282,
        "ìĸ": 283,
        "§Ģ": 284,
        "¡ľ": 285,
        "ëĬ": 286,
        "ìķ": 287,
        "ĠìĿ": 288,
        "ê³ł": 289,
        "ê¸": 290,
        "Ġë§Ĳ": 291,
        "ë¡ľ": 292,
        "ìĿ´": 293,
        "Ġìŀ": 294,
        "Ġë°": 295,
        "Ġëĭ": 296,
        "ëĬĶ": 297,
        "Ġê°": 298,
        "ìĸ´": 299,
        "Ġí": 300,
        "ıĦ": 301,
        "Ġìķ": 302,
        "ìł": 303,
        "ì§Ģ": 304,
        "ìĹ": 305,
        "ê°": 306,
        "¤ë": 307,
        "Ġíķ": 308,
        "Ĥĺ": 309,
        "Ħľ": 310,
        "Ġìł": 311,
        "¤ĺ": 312,
        "ìķĦ": 313,
        "Ġë§Ĳíķ": 314,
        "ë¦": 315,
        "ìĿĢ": 316,
        "ê¸Ī": 317,
        "ëĭ": 318,
        "Ġëį": 319,
        "¬¸": 320,
        "·¸": 321,
        "ìĿĦ": 322,
        "ĠìŀĪ": 323,
        "ìĭ": 324,
        "Īë": 325,
        "©´": 326,
        "ë¦¬": 327,
        "Īĺ": 328,
        "ĠëŃ": 329,
        "Ġëĭµ": 330,
        "ê°Ģ": 331,
        "ë¥": 332,
        "Ġë°Ķ": 333,
        "Ġì§": 334,
        "ĠëŃĲ": 335,
        "Ġê°Ļ": 336,
        "ëıĦ": 337,
        "ĠìĿ´ì": 338,
        "ë©´": 339,
        "ê¸°": 340,
        "Ģí": 341,
        "Ġê·¸": 342,
        "ĠìĪĺ": 343,
        "Ġìłķ": 344,
        "Ġíķĺ": 345,
        "±°": 346,
        "´ì¤ĺ": 347,
        "Ġë°Ķë¡ľ": 348,
        "Ġìĺ": 349,
        "ľ¼": 350,
        "íķľ": 351,
        "ëĤĺ": 352,
        "ĠëĦ": 353,
        "ë§": 354,
        "Ġì¢": 355,
        "ĠëįĶ": 356,
        "ë³": 357,
        "ĠìĽ": 358,
        "¤Ħ": 359,
        "ìĦľ": 360,
        "ë¥¼": 361,
        "ìľ¼": 362,
        "ìķ¼": 363,
        "ìĹĲ": 364,
        "ĠìŀĪìĸ´": 365,
        "Ġì§Ģ": 366,
        "ĠìķĮ": 367,
        "ë¶": 368,
        "íķł": 369,
        "Ġë¬¸": 370,
        "Ķë": 371,
        "Ĥ¬": 372,
        "Ġë§ŀ": 373,
        "ìļ": 374,
        "ìĿ´ì": 375,
        "Ġë¶": 376,
        "ĠìĽĲ": 377,
        "Ġìĸ": 378,
        "£¼": 379,
        "Ġìłķë¦¬": 380,
        "Ġë°©": 381,
        "íķĺê²Į": 382,
        "ĠìŀĲ": 383,
        "Ġê°ĻìĿ´": 384,
        "Ġì¢ĭ": 385,
        "ìľ¼ë¡ľ": 386,
        "ìĬ": 387,
        "ĠìĤ¬": 388,
        "ìĿ¸": 389,
        "Ġì§Ģê¸Ī": 390,
        "Ħ°": 391,
        "ìĭľ": 392,
        "ëĭ¤": 393,
        "³¼": 394,
        "íĸ": 395,
        "Ġë§Ĳíķ´ì¤ĺ": 396,
        "ªħ": 397,
        "´ìĦľ": 398,
        "Ġëĭ¤": 399,
        "ĠìĿ´ìĸ": 400,
        "ķ¼": 401,
        "½Ķë": 402,
        "ĠíĮ": 403,
        "ìŀ": 404,
        "ê±°": 405,
        "Ġì½Ķë": 406,
        "ĠìĦ": 407,
        "in": 408,
        "´ëıĦ": 409,
        "ì¶": 410,
        "Ġê·¸ë": 411,
        "¤ëªħ": 412,
        "ê²ł": 413,
        "Ġì§§": 414,
        "Ġëı": 415,
        "ĠìķĦ": 416,
        "ĠìĦ¤ëªħ": 417,
        "Ġê°Ģ": 418,
        "ĠëĮ": 419,
        "Ġë§ŀì¶": 420,
        "ë§Į": 421,
        "ĠíĮĮ": 422,
        "ìłķ": 423,
        "ìĦ": 424,
        "Ġì¢ĭìķĦ": 425,
        "ëł": 426,
        "Ġëĭ¤ìĭľ": 427,
        "Ġíķľ": 428,
        "ĢíĦ°": 429,
        "ë¶ĢíĦ°": 430,
        "ìłģ": 431,
        "ĵľ": 432,
        "Ġë³": 433,
        "Īë¬¸": 434,
        "Ġì§Īë¬¸": 435,
        "ê²łìĸ´": 436,
        "Ĳĺ": 437,
        "ĠëĤ": 438,
        "íķĺëĬĶ": 439,
        "at": 440,
        "ĠìĹ": 441,
        "Ġëı¼": 442,
        "ëŀ": 443,
        "ĠìķĮê²łìĸ´": 444,
        "ª½": 445,
        "µìĭ": 446,
        "£¼ë©´": 447,
        "ĠëĮĢí": 448,
        "Ġw": 449,
        "ìĸ´ë": 450,
        "ê³¼": 451,
        "ĠëŃĲìķ¼": 452,
        "Ġê³": 453,
        "ĠëĲĺ": 454,
        "ì¤ĺ": 455,
        "Ġìĥ": 456,
        "Ġê±": 457,
        "ĻĶ": 458,
        "Ġì¤Ħ": 459,
        "ìĬ¤ë": 460,
        "½ê²Į": 461,
        "ì¤Ħ": 462,
        "ìĿ´ë": 463,
        "ĠëĲĺê³ł": 464,
        "Ġìª½": 465,
        "Ġíİ": 466,
        "ĠëĤĺ": 467,
        "Ġë°©íĸ": 468,
        "Ġë°©íĸ¥": 469,
        "Ġh": 470,
        "ģí": 471,
        "ìĹ°": 472,
        "Ġë¬": 473,
        "Ġìļ": 474,
        "ĠëıĦ": 475,
        "Ġê±°": 476,
        "´ë³¼": 477,
        "ĠìŀĲìĹ°": 478,
        "ìĬ¤ëŁ": 479,
        "ĠìŀĲìĹ°ìĬ¤ëŁ": 480,
        "on": 481,
        "íķ´": 482,
        "ĠëĦ¤": 483,
        "ĠìĿ´ìĸ´ìĦľ": 484,
        "hat": 485,
        "Ġê±¸": 486,
        "ìĻ": 487,
        "Ġíİ¸": 488,
        "ĠíķĺëĤĺ": 489,
        "ìĻĢ": 490,
        "ou": 491,
        "¡°": 492,
        "ľê": 493,
        "ĠëıĦìĻĢ": 494,
        "Ġìĭ": 495,
        "Ġê°ĻìĿĢ": 496,
        "íķ´ëıĦ": 497,
        "Ġë°ĺ": 498,
        "Ġì½Ķëĵľ": 499,
        "ìĿ¼": 500,
        "Ġì§§ê²Į": 501,
        "ëŁ": 502,
        "ìĿ´í": 503,
        "ê¹": 504,
        "you": 505,
        "Ġyou": 506,
        "¤ë¥": 507,
        "ëł¤": 508,
        "ìĿ´ìķ¼": 509,
        "ll": 510,
        "ëĭĪ": 511,
        "µ¬": 512,
        "Ġìĺģ": 513,
        "ìŀĲ": 514,
        "ĠìĿĳ": 515,
        "ct": 516,
        "·¼": 517,
        "Ġë§ŀì¶°": 518,
        "´ì£¼ë©´": 519,
        "Ġë§Ĳê³ł": 520,
        "ê¹Į": 521,
        "ĥ¥": 522,
        "ĶĶ": 523,
        "Ġê·¸ëĥ¥": 524,
        "ĠI": 525,
        "Ġë¨": 526,
        "ĠìŀĲìĹ°ìĬ¤ëŁ½ê²Į": 527,
        "ëĤ": 528,
        "íķĺë©´": 529,
        "ĠìķĪë": 530,
        "ì²": 531,
        "ģ¬": 532,
        "ion": 533,
        "¶ģ": 534,
        "ëĬ¥": 535,
        "ĠëŃĲíķł": 536,
        "Ġë¶Ģ": 537,
        "ìłģìĿ¸": 538,
        "ĠëıĦìĻĢì¤Ħ": 539,
        "Ġê¶ģ": 540,
        "Ġë¶Ħ": 541,
        "ĠëĮĢíĻĶ": 542,
        "Ġê¶ģê¸Ī": 543,
        "ĠìĿ½": 544,
        "ìĹĲìĦľ": 545,
        "Ġìĸ´ë": 546,
        "²Ī": 547,
        "į¬": 548,
        "ĠìĿ´ë": 549,
        "ìĿ´ìį¬": 550,
        "ĠíĮĮìĿ´ìį¬": 551,
        "Ġc": 552,
        "ĠëĦĪ": 553,
        "ìłľ": 554,
        "Ġëĭµíķł": 555,
        "ê±°ëĤĺ": 556,
        "ĠìķĦëĭĪ": 557,
        "ction": 558,
        "Ġê¶ģê¸Īíķľ": 559,
        "¹ľê": 560,
        "Ġd": 561,
        "Ġt": 562,
        "Ĭ¸": 563,
        "Ġì¹ľê": 564,
        "le": 565,
        "ĬĲ": 566,
        "Ķ±": 567,
        "ĠìĽĲíķĺëĬĶ": 568,
        "Ġì¹ľê·¼": 569,
        "Ġë§ģí": 570,
        "Ġíķµìĭ": 571,
        "ëŀĺ": 572,
        "Ġíİ¸íķĺê²Į": 573,
        "Ġë§ģíģ¬": 574,
        "Ġíķµìĭ¬": 575,
        "Ġìĺ¤": 576,
        "Ġë°©ê¸Ī": 577,
        "Ġì¤": 578,
        "ìķĪ": 579,
        "Ġìłľ": 580,
        "ë§Ĳ": 581,
        "re": 582,
        "´ë³¼ê²Į": 583,
        "In": 584,
        "ru": 585,
        "stru": 586,
        "Instru": 587,
        "Instruction": 588,
        "Ŀ¼": 589,
        "íķĺì§Ģ": 590,
        "om": 591,
        "ħķ": 592,
        "ĠìķĪëħķ": 593,
        "AI": 594,
        "Ķ©": 595,
        "ĠìĿ¸": 596,
        "ë¶Ħ": 597,
        "ĠìĥĿ": 598,
        "ĬĶ": 599,
        "ë¬": 600,
        "Ġan": 601,
        "ìĸ´ë¡ľ": 602,
        "íķĺê³ł": 603,
        "ĠìĤ¬ê³¼": 604,
        "ing": 605,
        "Ġë³´": 606,
        "íķľëĭ¤": 607,
        "Ġì½ĶëĶ©": 608,
        "Ġìĺģìĸ´ë¡ľ": 609,
        "ĠëĬĲ": 610,
        "´ëĬĶ": 611,
        "Ġê°ķ": 612,
        "ĠìĽĲìĿ¸": 613,
        "Ġì¹ľê·¼íķĺê²Į": 614,
        "ıĻ": 615,
        "ĠìĿ´ìĸ´": 616,
        "Ġìļ°": 617,
        "²ĪìĹ": 618,
        "ell": 619,
        "¼ê²Į": 620,
        "íŀ": 621,
        "Ħê": 622,
        "Ġë§Ĳíķł": 623,
        "ë³¼ê²Į": 624,
        "Ġë¬¸ìĦľ": 625,
        "ìķĦì§Ģ": 626,
        "ìļĶ": 627,
        "Ġê°ķìķĦì§Ģ": 628,
        "Ġìļ°ë¦¬": 629,
        "ur": 630,
        "Ġì¶": 631,
        "´Ĳ": 632,
        "ëĿ¼": 633,
        "Ġf": 634,
        "ĠëĦĪë": 635,
        "Ġì¤ĳ": 636,
        "ĥģ": 637,
        "Ġì¢Ģ": 638,
        "Ġë¬¸ìłľ": 639,
        "Ġto": 640,
        "Īê²Į": 641,
        "Ġëĭ¤ë¥": 642,
        "ìĬ¤": 643,
        "Ġë¬¼": 644,
        "ĠAI": 645,
        "Ġê¸": 646,
        "ëĬĺ": 647,
        "Ġíķ¨": 648,
        "Ġíķĺê³ł": 649,
        "íĸĪ": 650,
        "Ġê·¸ëŁ": 651,
        "ĠíĴ": 652,
        "ĠíĿ": 653,
        "ĠìķĮìķĦ": 654,
        "ĠP": 655,
        "Ġì¶Ķ": 656,
        "Ġê°ľ": 657,
        "ĠìĿ´ìĥģ": 658,
        "Ġíķĺì§Ģ": 659,
        "ë³į": 660,
        "Ġê°Ģë³į": 661,
        "ĠìĿ´ë²ĪìĹ": 662,
        "Ġë§Ĳíķłê²Į": 663,
        "ĠìĿ´ë²ĪìĹĶ": 664,
        "łì": 665,
        "ìĿĮ": 666,
        "ĠìĿ¼": 667,
        "ìļ©": 668,
        "Ġwant": 669,
        "ëŁ¬": 670,
        "ìĿ´íĬ¸": 671,
        "Ġê°Ģë³įê²Į": 672,
        "¬´": 673,
        "Ġë§İ": 674,
        "Ġìŀ¡": 675,
        "Ġëĭµë³": 676,
        "ĠìĪĺìłķ": 677,
        "Ġdo": 678,
        "ĠëĦĪë¬´": 679,
        "Ġëĭµë³Ģ": 680,
        "Ġìĺ¤ëĬĺ": 681,
        "íŀĪ": 682,
        "Ġê¸°": 683,
        "Th": 684,
        "king": 685,
        "Ġì¡°": 686,
        "ìłĢ": 687,
        "ĠìĿ´ìķ¼": 688,
        "ĠìĽ¹": 689,
        "ìľ¼ë©´": 690,
        "Ġì§Ģê¸ĪìĿĢ": 691,
        "inking": 692,
        "Ġë§ŀì¶ľ": 693,
        "ĠìĿ½ê¸°": 694,
        "Thinking": 695,
        "Be": 696,
        "ple": 697,
        "ĠBe": 698,
        "ĭ¤": 699,
        "ĺê¸°": 700,
        "ĠìĻ": 701,
        "Ġë¹": 702,
        "Ġíķł": 703,
        "Ġìĸĺê¸°": 704,
        "Ġê³ł": 705,
        "urple": 706,
        "ĠPurple": 707,
        "ĠBee": 708,
        "is": 709,
        "Īì": 710,
        "ĠìŀĲë": 711,
        "ìĿ´ëĤĺ": 712,
        "ĠëĤĺëĬĶ": 713,
        "ĠìĿ´ìĸ´ê°": 714,
        "Ġë§İìĿ´": 715,
        "Ġìī": 716,
        "Ġë§Ĳíķ´ë³¼ê²Į": 717,
        "ĠìķĮëł¤": 718,
        "ĠìĽĲíķĺë©´": 719,
        "Ġìª½ìľ¼ë¡ľ": 720,
        "Ġëĭµíķłê²Į": 721,
        "ĠíĴĢ": 722,
        "µì§Ģ": 723,
        "Ġì£¼": 724,
        "ê³µì§Ģ": 725,
        "ĠìĿ¸ê³µì§Ģ": 726,
        "Ġëĭ¤ë¥¸": 727,
        "ĠìĿ¸ê³µì§ĢëĬ¥": 728,
        "ìĪĺ": 729,
        "ĺìł": 730,
        "Ġëįĺìł": 731,
        "ĠìĤ¬ìļ©": 732,
        "ìĦ±": 733,
        "ìĦĿ": 734,
        "Ġë¶ĦìĦĿ": 735,
        "Ġëįĺìł¸": 736,
        "į¨": 737,
        "Ġìį¨": 738,
        "ìļ°": 739,
        "ĠìļĶ": 740,
        "Ġcan": 741,
        "íĪ": 742,
        "Ġë©": 743,
        "Ġë§ĲíĪ": 744,
        "Ġë§Ĳíķ´ì£¼ë©´": 745,
        "´ĲëıĦ": 746,
        "Ġë§ĲíĪ¬": 747,
        "tt": 748,
        "´ê°Ģ": 749,
        "Ĳë¦": 750,
        "íķ´ìĦľ": 751,
        "ĠëĤ´ê°Ģ": 752,
        "µìĭĿ": 753,
        "Ġê³µìĭĿ": 754,
        "Ġìĭ¶": 755,
        "ĠíĿĲë¦": 756,
        "ĠíĿĲë¦Ħ": 757,
        "°ìĿ´í": 758,
        "Ġm": 759,
        "ĥī": 760,
        "Ġì²": 761,
        "íķ´ì": 762,
        "ëĭ´": 763,
        "Ġëį°ìĿ´í": 764,
        "ĠíĮĮìĿ¼": 765,
        "ë¬¼": 766,
        "Ġëį°ìĿ´íĦ°": 767,
        "ê»": 768,
        "ĠëĶ±": 769,
        "´ëĭ¤": 770,
        "Ġê·¸ê±°": 771,
        "Ġë¶Ģë¶Ħ": 772,
        "ĠìĿ´ìĸ´ê°Īê²Į": 773,
        "..": 774,
        "gp": 775,
        "¼ìłĢ": 776,
        "Ġs": 777,
        "ĳľ": 778,
        "íķ´ì¤ĺ": 779,
        "Ġêµ¬": 780,
        "ê°ģ": 781,
        "Ġë¨¹": 782,
        "Ġë¨¼ìłĢ": 783,
        "ĠìłľìķĪ": 784,
        "Ġê³łìłķ": 785,
        "ĠìĤ¬ìļ©ìŀĲ": 786,
        "gpt": 787,
        "En": 788,
        "gl": 789,
        "ĠEn": 790,
        "ĸ¤": 791,
        "·¸ëŀĺ": 792,
        "Ġë§ŀìķĦ": 793,
        "ĠìĹĨ": 794,
        "Ġìĸ´ëĸ¤": 795,
        "Ġìŀ¡ëĭ´": 796,
        "ish": 797,
        "Ġê³łìłķìłģìĿ¸": 798,
        "glish": 799,
        "ĠEnglish": 800,
        "´ìĥī": 801,
        "ìķĦì¤ĺ": 802,
        "ë³´ëĭ¤": 803,
        "ìļ´": 804,
        "Ġìĸ´ìĥī": 805,
        "Ġë§ŀì¶ľê²Į": 806,
        "//": 807,
        "://": 808,
        "com": 809,
        "ps": 810,
        "Ġre": 811,
        "Ġíķ´": 812,
        "ĠìŀĪì§Ģ": 813,
        "ĠëŃĲíķ´": 814,
        "ttps": 815,
        "£Į": 816,
        "¤ëıĻ": 817,
        "ëł¤ëıĻ": 818,
        "ĠëĮĢíĳľ": 819,
        "ĠëĦ¤ê°Ģ": 820,
        "Ġë°ĺëł¤ëıĻ": 821,
        "ello": 822,
        "ĠëĮĢíĳľìłģìĿ¸": 823,
        "Ġë°ĺëł¤ëıĻë¬¼": 824,
        "Ġa": 825,
        "ĺëŁ": 826,
        "Ġë²": 827,
        "Ġëĵ": 828,
        "Ġê³¼": 829,
        "Ġhttps": 830,
        "Ġand": 831,
        "Ġì¡°ê¸Ī": 832,
        "ĠBeeìķ¼": 833,
        "ĺëŁ¼": 834,
        "ww": 835,
        "Įë¦¬": 836,
        "Ķ¨": 837,
        "Ġëģ": 838,
        "Ġëĭ¬": 839,
        "ĠìķĬ": 840,
        "Ġì§§ê³ł": 841,
        "ĠëŃĲíķłëŀĺ": 842,
        "łìĶ¨": 843,
        "ëĶ±": 844,
        "ìŀ¥": 845,
        "ĠëĶ±ëĶ±": 846,
        "ĠìĤ¬ìļ©ìŀĲê°Ģ": 847,
        "Ġìŀĳ": 848,
        "ëĬĶì§Ģ": 849,
        "Ġë§ŀì¶°ë³¼ê²Į": 850,
        "ì°": 851,
        "ìĤ": 852,
        "ĠC": 853,
        "Įê³¼": 854,
        "ĲëŁ¬": 855,
        "ĳê³ł": 856,
        "ìĿĺ": 857,
        "Ġíķ´ì¤ĺ": 858,
        "Ġìłĳê³ł": 859,
        "ĠëĭµìĿ´": 860,
        "ë³µ": 861,
        "ìĹĲëĬĶ": 862,
        "ĠìĤ¬ëŀ": 863,
        "ĠëĤłìĶ¨": 864,
        "ĠìĹ¬": 865,
        "ĠìĹĲëŁ¬": 866,
        "Ġì¤Ħë§Į": 867,
        "Ġë°ĺë³µ": 868,
        "ì²ĺëŁ¼": 869,
        "Ġìĭ¶ìĿĢ": 870,
        "ĠìĤ¬ëŀĮê³¼": 871,
        "ëĵľ": 872,
        "ere": 873,
        "Ġê°ĢëĬ¥": 874,
        "Ġwhat": 875,
        "ìĸ´ë´ĲëıĦ": 876,
        "es": 877,
        "ë°": 878,
        "ĨĮ": 879,
        "Ġë¶Ļ": 880,
        "Ġë°©íĸ¥ìĿĢ": 881,
        "ëĤĮ": 882,
        "ĠìĤ¬ê³¼ëĬĶ": 883,
        "ĠìĤ¬ê³¼ê°Ģ": 884,
        "ĠëĬĲëĤĮ": 885,
        "ĠìĹĨìĸ´": 886,
        "Ġìĸ´ìĥīíĸĪ": 887,
        "Ġê³¼ìĿ¼": 888,
        "²ķ": 889,
        "ë²ķ": 890,
        "Ķìĭľ": 891,
        "Ġêµ": 892,
        "ìĸ´ì": 893,
        "ĠìŀĪìľ¼ë©´": 894,
        "Ġë¬¸ë²ķ": 895,
        "ĠìĤ¬ìĿ´íĬ¸": 896,
        "ĠìķĦìĿ´ë": 897,
        "ĠìĥĿê°ģ": 898,
        "ĠìĿ¼ìĿĦ": 899,
        "Ġë©Ķìĭľ": 900,
        "ĠìķĦìĿ´ëĶĶ": 901,
        "Ġë©Ķìĭľì§Ģ": 902,
        "ob": 903,
        "¡Ŀ": 904,
        "ëĵ": 905,
        "Ġë§Ĳíķ´": 906,
        "Ġíķµìĭ¬ë§Į": 907,
        "it": 908,
        "or": 909,
        "°ìļ°": 910,
        "º¼": 911,
        "êµ¬": 912,
        "íĥ": 913,
        "Ļķ": 914,
        "Ġì°": 915,
        "Ġë§Į": 916,
        "ìĸ´ëıĦ": 917,
        "Ġë°°ìļ°": 918,
        "ê°ľ": 919,
        "ìĿ´ì§Ģ": 920,
        "Ġìĸ¸": 921,
        "Ġê±°ê¸°": 922,
        "ë§Ĳê³ł": 923,
        "Ġê°ķìķĦì§ĢëĬĶ": 924,
        "Ġë¬¼ìĸ´ë´ĲëıĦ": 925,
        "Ġíķ¨ê»": 926,
        "Ġê·¸ê±°ë§Ĳê³ł": 927,
        "Ġë¨¹ê±°ëĤĺ": 928,
        "ĨĮê°ľ": 929,
        "Ġíķ¨ê»ĺ": 930,
        "ìĤ¬": 931,
        "íĨ": 932,
        "Ġin": 933,
        "Ģë¡ľ": 934,
        "ĽìĿ´": 935,
        "ŀĺ": 936,
        "ŀìľ¼ë¡ľ": 937,
        "Ġê²": 938,
        "Ġìķŀìľ¼ë¡ľ": 939,
        "ìĹ¬": 940,
        "Ġë¬¸êµ¬": 941,
        "ìĦ¸": 942,
        "ĠëĮĢíĻĶíķ´ëıĦ": 943,
        "Ġë³´íĨ": 944,
        "Ġê·¸ëŁ¼": 945,
        "Ġê°ľë¥¼": 946,
        "ĠìŀĲë£Į": 947,
        "Ġëįĺìł¸ì¤ĺ": 948,
        "Ġìķŀìľ¼ë¡ľëĬĶ": 949,
        "Ġë³´íĨµ": 950,
        "pe": 951,
        "ì¡°": 952,
        "ĠW": 953,
        "ë¥ĺ": 954,
        "ë¶Ģ": 955,
        "Ġì¶Ķìłķ": 956,
        "Ġme": 957,
        "Ġêµ¬ì¡°": 958,
        "Įë¦¬ëĬĶ": 959,
        "ĠëģĮë¦¬ëĬĶ": 960,
        "ĠìķĦìĿ´ëĶĶìĸ´": 961,
        "´ľ": 962,
        "Ĩ¤": 963,
        "ļ©": 964,
        "Ġê´ľ": 965,
        "´ìļ©": 966,
        "ìĸ´ì£¼ë©´": 967,
        "ĠíĨ¤": 968,
        "¤ë©´": 969,
        "Ġì§Īë¬¸ìĿĦ": 970,
        "ĠëĤ´ìļ©": 971,
        "Ġë§ŀì¶°ìĦľ": 972,
        "Ġë¶Ģë¥": 973,
        "ĠAIìķ¼": 974,
        "Ġìŀ¡ëĭ´íķ´ëıĦ": 975,
        "ì°®": 976,
        "Ġê´ľì°®": 977,
        "de": 978,
        "ge": 979,
        "rom": 980,
        "´Ī": 981,
        "ìĽ": 982,
        "ì£¼ë©´": 983,
        "ķĮ": 984,
        "Ġì´Ī": 985,
        "ê¸Ģ": 986,
        "ĪëĶĶ": 987,
        "ë§ĪëĶĶ": 988,
        "Ġíķľë§ĪëĶĶ": 989,
        "Ġë³´ì": 990,
        "Ġì¤Ħë¡ľ": 991,
        "ê¹Įì§Ģ": 992,
        "Ħê·¸": 993,
        "Ġfrom": 994,
        "Ġíķ¨ìĪĺ": 995,
        "Ġë²Ħê·¸": 996,
        "Ġì´ĪìķĪ": 997,
        "lo": 998,
        "ly": 999,
        "¤ìĸ´": 1000,
        "¥¼": 1001,
        "ķìľ¼ë¡ľ": 1002,
        "ĠëĶĶ": 1003,
        "Ġêº¼": 1004,
        "ìłĢí": 1005,
        "Ġê°ĢìŀĲ": 1006,
        "ĠíĿĲë¦ĦìĹĲ": 1007,
        "ĠëĶĶìłĢí": 1008,
        "Ġêº¼ëĤ": 1009,
        "ĠëĶĶìłĢíĬ¸": 1010,
        "el": 1011,
        "§Ħ": 1012,
        "°ìĤ": 1013,
        "¼Ģ": 1014,
        "ì¼Ģ": 1015,
        "íķ´ë³¼ê²Į": 1016,
        "Ġë§ĲìĿ´ìķ¼": 1017,
        "Ġìłģ": 1018,
        "ëĭµ": 1019,
        "Ġì§ĢëĤ": 1020,
        "Ġhere": 1021,
        "Ġhel": 1022,
        "Ġë¬»": 1023,
        "ĠìĿ½ê³ł": 1024,
        "Ġíķµìĭ¬ë¶ĢíĦ°": 1025,
        "Ġìĺ¤ì¼Ģ": 1026,
        "ë§ĲìķĦì¤ĺ": 1027,
        "Ġê°ķìķĦì§Ģê°Ģ": 1028,
        "Ġíķĺì§Ģë§ĲìķĦì¤ĺ": 1029,
        "Ġëĭ¤ë¥¸ê±°": 1030,
        "Ġë¶Ģë¥´ëĬĶ": 1031,
        "°ìĤ°": 1032,
        "Ġhelp": 1033,
        "Ġìĺ¤ì¼ĢìĿ´": 1034,
        "Yes": 1035,
        "sw": 1036,
        "ĠT": 1037,
        "ĠYes": 1038,
        "Īìĸ´": 1039,
        "Ġëĭµíķľëĭ¤": 1040,
        "Ġë¬¸ìŀ¥": 1041,
        "Ġìª½ìĿĦ": 1042,
        "Ġë¶Ħë¥ĺ": 1043,
        "Ġansw": 1044,
        "Ġìĺģìĸ´ë¡ľëıĦ": 1045,
        "Ġfi": 1046,
        "ĠìŀĳìĦ±": 1047,
        "ĠCan": 1048,
        "Ġë¶ĻìĹ¬": 1049,
        "ìĽĮ": 1050,
        "Ġanswer": 1051,
        "½¤": 1052,
        "ë¹": 1053,
        "íķĺê±°ëĤĺ": 1054,
        "ĠëĭµìĿĦ": 1055,
        "Ġë°Ķíĥ": 1056,
        "Ġë§ŀê²Į": 1057,
        "£¼ëĬĶ": 1058,
        "Ġë³´ë": 1059,
        "ĠìĿ¸ê³µì§ĢëĬ¥ìĿ´": 1060,
        "ĠìĿ¸ê³µì§ĢëĬ¥ìĿĢ": 1061,
        "ĠìķĬê²Į": 1062,
        "Ġì°¨": 1063,
        "ĠWhat": 1064,
        "Ġë°Ķíĥķìľ¼ë¡ľ": 1065,
        "rob": 1066,
        "ĠH": 1067,
        "ĦìļĶ": 1068,
        "ľł": 1069,
        "ľíŀĪ": 1070,
        "Ġëĸ": 1071,
        "Ġë¡ľ": 1072,
        "Ġë³¼": 1073,
        "ê²°": 1074,
        "ĠìĿ´": 1075,
        "ĠíĶ": 1076,
        "¤Ħê²Į": 1077,
        "íķłê²Į": 1078,
        "ëĭ¤ê³ł": 1079,
        "ĠìĦ¤ëªħíķłê²Į": 1080,
        "´ë³¼ê¹Į": 1081,
        "Ġìĺģìĸ´": 1082,
        "ĠëıĦìĻĢì¤Ħê²Į": 1083,
        "Ġìĺ¤ëĬĺìĿĢ": 1084,
        "Ġê¸°ê¸°": 1085,
        "ĠìķĮëł¤ì¤ĺ": 1086,
        "Ġì£¼ìĬ¤": 1087,
        "'ll": 1088,
        "ode": 1089,
        "íħ": 1090,
        "íĻĶ": 1091,
        "ĺìĿ´ì§Ģ": 1092,
        "ľĦ": 1093,
        "Ġì¤ĺ": 1094,
        "íķĺìĦ¸": 1095,
        "Ġë§ĲìĿĦ": 1096,
        "Ġìĺ¤ë¥": 1097,
        "Ġìłķë¦¬íķĺê³ł": 1098,
        "Ġì§Ģê¸Īë¶ĢíĦ°": 1099,
        "Ġìĭľ": 1100,
        "ĠëŃĲíķłê¹Į": 1101,
        "Ġcode": 1102,
        "ĠìķĪëħķíķĺìĦ¸": 1103,
        "ĠìĽ¹ìĤ¬": 1104,
        "ìĸ´ìķ¼": 1105,
        "lox": 1106,
        "Ġìĺ¤ë¥ĺ": 1107,
        "ĠìķĪëħķíķĺìĦ¸ìļĶ": 1108,
        "ĠìĽ¹ìĤ¬ìĿ´íĬ¸": 1109,
        "chat": 1110,
        "Ġ?": 1111,
        "Ġgpt": 1112,
        "ľì²": 1113,
        "Ġìľ¼": 1114,
        "Ġëª": 1115,
        "´ì§Ģ": 1116,
        "ĠìĿĺ": 1117,
        "ë¡ľëıĦ": 1118,
        "ĠíĻķ": 1119,
        "ĠíķĦìļĶ": 1120,
        "ĠëĭµìĿĢ": 1121,
        "ĠìŀĲê¸°": 1122,
        "Ġëĭ¤ìĿĮ": 1123,
        "ì¤Ħê²Į": 1124,
        "ľê·¸ëŀĺ": 1125,
        "Ġìī½ê²Į": 1126,
        "Ġì²ľì²": 1127,
        "...": 1128,
        "Ġíķ´ê²°": 1129,
        "ĠìĤ¬ìĿ´íĬ¸ëĬĶ": 1130,
        "Ġë³´ì¡°": 1131,
        "chatgpt": 1132,
        "Ġìľ¼ìĿĮ": 1133,
        "ĠíĻķìĿ¸": 1134,
        "Ġì²ľì²ľíŀĪ": 1135,
        "½ê³ł": 1136,
        "ê·¸ëŀĺ": 1137,
        "ìĨĮê°ľ": 1138,
        "Ħë¡ľ": 1139,
        "ĮĢë¡ľ": 1140,
        "Ġëĭµíķ´ë³¼ê²Į": 1141,
        "ĠíķĺëĬĶ": 1142,
        "Ġìłķë¦¬íķ´ì": 1143,
        "ĠëĮĢ": 1144,
        "Ġìĥģí": 1145,
        "ì²Ń": 1146,
        "ĠíĮĮìĿ´ìį¬ìĿ´": 1147,
        "ĠíĮĮìĿ´ìį¬ìĿĢ": 1148,
        "ĠìłľìĿ¼": 1149,
        "ë§Ĳë¡ľ": 1150,
        "ĠìĥĿìĦ±": 1151,
        "ıĻíĻĶ": 1152,
        "ëĿ¼ê³ł": 1153,
        "ĠìĿ´ìĥģíķĺê²Į": 1154,
        "ĠìĻľê·¸ëŀĺ": 1155,
        "ĠìŀĲëıĻíĻĶ": 1156,
        "ĠìļĶì²Ń": 1157,
        "ĠëĶ±ëĶ±íķĺì§Ģ": 1158,
        "ë°į": 1159,
        "ĠëĬĲëĤĮìĿĦ": 1160,
        "Ġë¬¸ë²ķìĿ´": 1161,
        "Ġìĸ¸ìĸ´ìķ¼": 1162,
        "Ġê´ľì°®ìķĦ": 1163,
        "Ġë³´ëĤ": 1164,
        "ĠíĶĦë¡ľ": 1165,
        "Ġê¸°ê¸°ìĹĲìĦľ": 1166,
        "ĠìŀĲê¸°ìĨĮê°ľ": 1167,
        "ê·¸ëŀĺë°į": 1168,
        "ĠíĶĦë¡ľê·¸ëŀĺë°į": 1169,
        "¨í": 1170,
        "´ìĿĦ": 1171,
        "¸¡": 1172,
        "ëĦ": 1173,
        "Ħ´ìĿĦ": 1174,
        "ĪĦê": 1175,
        "ĠëĪĦê": 1176,
        "´ìĹ": 1177,
        "´ìŀ": 1178,
        "Ġë§ĽìĿ´": 1179,
        "íķĺìŀĲ": 1180,
        "Ġë§Ĳíķĺì§Ģ": 1181,
        "Ġíķ´ë³¼ê¹Į": 1182,
        "Ġë°Ķê": 1183,
        "ê¸°ë³´ëĭ¤": 1184,
        "ĠìĺĪì": 1185,
        "ĠíĮ¨í": 1186,
        "Ġhello": 1187,
        "µ¬ìķ¼": 1188,
        "Ġë³´ê³ł": 1189,
        "Ġê°ĢëĬ¥íķ´": 1190,
        "Ġë°°ìļ°ê³ł": 1191,
        "Ġíķľë§ĪëĶĶë§Į": 1192,
        "ĠTell": 1193,
        "ĠHello": 1194,
        "ĠëĪĦêµ¬ìķ¼": 1195,
        "ĠìĺĪì¸¡": 1196,
        "ĠíĮ¨íĦ´ìĿĦ": 1197,
        "¸Ķë": 1198,
        "ë¸Ķë": 1199,
        "Ġor": 1200,
        "Ġì§ģ": 1201,
        "ĠìĥĪì": 1202,
        "Ġìĸĺê¸°íķ´ëıĦ": 1203,
        "Ġìī¬": 1204,
        "www": 1205,
        "¡ĿìĬ¤": 1206,
        "ë¶Ģë¥¼": 1207,
        "Ġë¡ľë¸Ķë": 1208,
        "ĠìĥĪì½¤": 1209,
        "Ġë¡ľë¸Ķë¡ĿìĬ¤": 1210,
        "¦Ħ": 1211,
        "ľ»": 1212,
        "ĠìĤ": 1213,
        "Ġëľ»": 1214,
        "íķ´ë": 1215,
        "íķĺê¸°ë³´ëĭ¤": 1216,
        "Ġíĺ": 1217,
        "ê°Ĳ": 1218,
        "ëıĦìĹĲ": 1219,
        "Ġìłķíķ´ì": 1220,
        "ìŀĪìĸ´": 1221,
        "Ġì§Īë¬¸ëıĦ": 1222,
        "ĠëŃĲíķłìĪĺ": 1223,
        "ĠìĿ´ë¦Ħ": 1224,
        "ĠìķĦëĭĪì§Ģ": 1225,
        "ĠìĿ´ìĥģíĸĪ": 1226,
        "Ġë°ĺë³µíķĺê¸°ë³´ëĭ¤": 1227,
        "Ġë©Ķìĭľì§Ģë¥¼": 1228,
        "Ġì°¨ë¶Ħ": 1229,
        "ĠìĿĺëıĦìĹĲ": 1230,
        "ĠíĻķìĿ¸íķ´ìĦľ": 1231,
        "´ìŀĲ": 1232,
        "Ġìłķíķ´ì§Ħ": 1233,
        "ĠëŃĲíķłìĪĺìŀĪìĸ´": 1234,
        "ug": 1235,
        "¥ê¸Ģ": 1236,
        "¿Ķ": 1237,
        "íĺ": 1238,
        "Ġi": 1239,
        "Įëł¤": 1240,
        "ĳ¥ê¸Ģ": 1241,
        "Ġëĳ¥ê¸Ģ": 1242,
        "ìķ½": 1243,
        "¤ëŀĺ": 1244,
        "Ġìĺ¤ëŀĺ": 1245,
        "Ġë§ģíģ¬ëĬĶ": 1246,
        "Ġì¤Ģ": 1247,
        "ĠìĥĿìľ¼ë¡ľ": 1248,
        "Ġì¤ĳìĹĲìĦľ": 1249,
        "Ġë¬¸ìłľë¥¼": 1250,
        "ìĬ¤íħ": 1251,
        "Ġê·¸ëŁ´": 1252,
        "Ġì¶Ķìłģ": 1253,
        "Ġë¬»ëĬĶ": 1254,
        "ĠìĭľìĬ¤íħ": 1255,
        "Ġë³´ëĤ´ì£¼ë©´": 1256,
        "Ġë°Ķê¿Ķ": 1257,
        "ĠìĿ´ë¦ĦìĿ´ìķ¼": 1258,
        "Ġëĳ¥ê¸Ģê³ł": 1259,
        "ĠìĭľìĬ¤íħľ": 1260,
        "ak": 1261,
        "gh": 1262,
        "igh": 1263,
        "ply": 1264,
        "rst": 1265,
        "µĲ": 1266,
        "¸ë¡ľ": 1267,
        "ëªħ": 1268,
        "ĺë¦¬": 1269,
        "ĺ¤ë¥": 1270,
        "ľëĭ¤": 1271,
        "Ġë§ī": 1272,
        "Ġìŀĺ": 1273,
        "Ġë°Ľ": 1274,
        "ĠíĽ": 1275,
        "ìĹŃ": 1276,
        "Ġëĭµíķ´ì¤ĺ": 1277,
        "ê°ĢëıĦ": 1278,
        "Ġì§ĢìĹŃ": 1279,
        "Ġë°©íĸ¥ìĿĦ": 1280,
        "ĠíķĺëĤĺë§Į": 1281,
        "Ġìĸ´ëķĮ": 1282,
        "ĦêµĲ": 1283,
        "łìĺ¤ë¥": 1284,
        "Ġë¹ĦêµĲ": 1285,
        "ĠìļĶìķ½": 1286,
        "Ġì²ĺë¦¬": 1287,
        "Ġëį°ìĿ´íĦ°ë¥¼": 1288,
        "Ġspe": 1289,
        "Ġreply": 1290,
        "Ġëĭ¬ê±°ëĤĺ": 1291,
        "Ġê³¼ìĿ¼ìĿ´ìķ¼": 1292,
        "Ġë¬¸êµ¬ë¥¼": 1293,
        "Ġfirst": 1294,
        "Ġëĸłìĺ¤ë¥": 1295,
        "Ġì§ģìł": 1296,
        "ight": 1297,
        "Ġë¹ĦêµĲìłģ": 1298,
        "Ġspeak": 1299,
        "Ġëĸłìĺ¤ë¥´ëĬĶ": 1300,
        "ore": 1301,
        "Ġn": 1302,
        "Īľ": 1303,
        "łìĿĢ": 1304,
        "Ġë²Ī": 1305,
        "Ġê°Īê²Į": 1306,
        "ìĭ¬": 1307,
        "Īë¥¼": 1308,
        "ĠëŃĺ": 1309,
        "ĠëŃĲë¶ĢíĦ°": 1310,
        "ĠìĺĪë¥¼": 1311,
        "ìĦľë¶ĢíĦ°": 1312,
        "ĠëĤłìĿĢ": 1313,
        "Ġìª½ìĹĲìĦľ": 1314,
        "Ġíİ¸íķľ": 1315,
        "ĠíķĺëĤĺë¥¼": 1316,
        "Ġì§§ê²Įë§Į": 1317,
        "ëł¤ê³ł": 1318,
        "ĠìĿĳëĭµ": 1319,
        "ìłľë¥¼": 1320,
        "Ġë§ģíģ¬ëıĦ": 1321,
        "ĠìĿ¼ë¶Ģë¥¼": 1322,
        "ĠìĻ¸ë¡ľ": 1323,
        "ĠìķĮëł¤ì¤Ħê²Į": 1324,
        "ĠíĴĢìĸ´ëıĦ": 1325,
        "Ġmore": 1326,
        "Ġëĵ¤ë©´": 1327,
        "Ġë§Įëĵ": 1328,
        "Ġê±°ê¸°ìĹĲ": 1329,
        "Ġê±°ê¸°ìĦľë¶ĢíĦ°": 1330,
        "Ġìłģìĸ´ì£¼ë©´": 1331,
        "Ġìī¬ìļ´": 1332,
        "ĠìĭľìĬ¤íħľìĿĦ": 1333,
        "ĠìĿĳëĭµìĿ´": 1334,
        "ar": 1335,
        "ê±": 1336,
        "ìľĦ": 1337,
        "ĠìĪľ": 1338,
        "´ë¦": 1339,
        "Ġíķĺë©´": 1340,
        "ìĬµ": 1341,
        "Ġê°Ģì§Ģ": 1342,
        "ĠìĭĿ": 1343,
        "Ġìĸ´ëĬĲ": 1344,
        "Ġì¹ľê·¼íķľ": 1345,
        "ĠëĬĲëł¤": 1346,
        "Ġë¹¼": 1347,
        "Ġë§ĲíĪ¬ë¡ľ": 1348,
        "Ġë§ĲíĪ¬ê°Ģ": 1349,
        "Ġë¶Ģë¶ĦìĿ´": 1350,
        "Ġë¶Ģë¶Ħë¶ĢíĦ°": 1351,
        "Ġëĵ¤ìĸ´": 1352,
        "ĠìĹ¬ê¸°": 1353,
        "ĠìĹ¬ëŁ¬": 1354,
        "Ġêµ°ìĤ°": 1355,
        "Ġêº¼ëĤ´ë": 1356,
        "ĠìĥĪì½¤íķľ": 1357,
        "ê°ĲìĿ´": 1358,
        "ĠìĪľìĦľ": 1359,
        "un": 1360,
        "ĠR": 1361,
        "Ġp": 1362,
        "ĩ½": 1363,
        "ĲìĦľ": 1364,
        "ìĸĳ": 1365,
        "ìĸ´ì¤ĺ": 1366,
        "ìĸ´ìĦľ": 1367,
        "ĠìŀĪê³ł": 1368,
        "ĠíķĺìĿ´": 1369,
        "Ķëī": 1370,
        "Ġì¢ĭê³ł": 1371,
        "ìłģìľ¼ë¡ľ": 1372,
        "ĠëĤĺë¬": 1373,
        "ĠìķĪëĩ½": 1374,
        "ĠìĿ´ìķ¼ê¸°": 1375,
        "Ġë©Ķëī": 1376,
        "Ġìĸ´ìĥīíĸĪìĸ´": 1377,
        "Ġê²Į": 1378,
        "Ġì§ĢëĤ´ëĬĶ": 1379,
        "ë¹Ħ": 1380,
        "roblox": 1381,
        "´ìĹĲìĦľ": 1382,
        "ĠíĺĦ": 1383,
        "ĠìĪľìĦľë¡ľ": 1384,
        "ĠëĤĺë¬´ìĹĲìĦľ": 1385,
        "Ope": 1386,
        "nAI": 1387,
        "ra": 1388,
        "¨ëĿ¼": 1389,
        "¬ëĬĶ": 1390,
        "³´ìŀĲ": 1391,
        "Â·": 1392,
        "ë¡Ŀ": 1393,
        "ëĮĢë¡ľ": 1394,
        "íİ": 1395,
        "ĠOpe": 1396,
        "Ģë³¼ê²Į": 1397,
        "ĺĢë³¼ê²Į": 1398,
        "Ġë§ĲìķĦì¤ĺ": 1399,
        "ìĿ´ê¸°": 1400,
        "Ġíĸ": 1401,
        "Ġíŀĺ": 1402,
        "ëĭ¤ë©´": 1403,
        "ìĭĿ": 1404,
        "Ġê·¸ê²Į": 1405,
        "Ġê·¸ê±": 1406,
        "Ġì¢ģí": 1407,
        "Ġì¢ĭìĿĢ": 1408,
        "ê²łëĭ¤ê³ł": 1409,
        "Ġì§§ìĿĢ": 1410,
        "Ġì§Īë¬¸ìĹĲëĬĶ": 1411,
        "Ġwit": 1412,
        "Ġì¤Ħê²Į": 1413,
        "ĠëĤĺê³ł": 1414,
        "ĠìŀĲìĹ°ìĬ¤ëŁ½ê³ł": 1415,
        "ĠíķĺëĤĺìķ¼": 1416,
        "ĠíĮĮìĿ´ìį¬ëıĦ": 1417,
        "Ġë³´ê¸°": 1418,
        "ĠëĬĲê»": 1419,
        "ĠìĽĲìĿ¸ë¶ĢíĦ°": 1420,
        "ëĿ¼ëĬĶ": 1421,
        "ĠìĿ´ìĥģíķ´": 1422,
        "Ġê¸°ì": 1423,
        "ĠìĻľ": 1424,
        "Ġëįĺìł¸ëıĦ": 1425,
        "Ġë°ĺëł¤ëıĻë¬¼ìĿ´ê¸°": 1426,
        "Ġëĭ¬ëĿ¼ê³ł": 1427,
        "ĺìĿ´ì§ĢëĤĺ": 1428,
        "Ġìłķë¦¬íķ´ì¤Ħê²Į": 1429,
        "ëĦ¤": 1430,
        "íķ´ë³´ìŀĲ": 1431,
        "Ġì¤Ģë¹Ħ": 1432,
        "Ġì§ģìłĳ": 1433,
        "´ë¦¬ëĬĶ": 1434,
        "ĠOpenAI": 1435,
        "Ġíŀĺëĵ": 1436,
        "Ġì¢ģíĺĢë³¼ê²Į": 1437,
        "Ġwith": 1438,
        "Ġë°ĺëł¤ëıĻë¬¼ìĿ´ê¸°ëıĦ": 1439,
        "Ġì¤Ģë¹Ħë¥¼": 1440,
        "GP": 1441,
        "ch": 1442,
        "êµ": 1443,
        "ê·¼": 1444,
        "Ġon": 1445,
        "Ĩį": 1446,
        "ĶíŀĪ": 1447,
        "ĺ¨": 1448,
        "Ġíķ´ëıĦ": 1449,
        "ĠìĿ´ìľł": 1450,
        "ĠìĪĺëĭ¤": 1451,
        "Ġìłķë¦¬íķ´ëıĦ": 1452,
        "ìŀ¬": 1453,
        "ĠëıĮëł¤": 1454,
        "ĠìĦ¤ëªħíķľëĭ¤": 1455,
        "Ġwor": 1456,
        "Ġì¤ĦìĿ´": 1457,
        "hatGP": 1458,
        "ĠìłľëĮĢë¡ľ": 1459,
        "Ġìļ°ë¦¬ê°Ģ": 1460,
        "Ġtoo": 1461,
        "ĠíĿĶíŀĪ": 1462,
        "ĠBeeê³ł": 1463,
        "ĠíĿĲë¦ĦìĿĦ": 1464,
        "Ġë¨¹ëĬĶ": 1465,
        "ëĵľëĬĶ": 1466,
        "Ġë§ĮëĵľëĬĶ": 1467,
        "ĠíķĺëĬĶê±°": 1468,
        "Ġif": 1469,
        "ĠíĺĦìŀ¬": 1470,
        "Ġíŀĺëĵ¤ìĸ´": 1471,
        "Ġwork": 1472,
        "hatGPT": 1473,
        "ay": 1474,
        "right": 1475,
        "way": 1476,
        "ë©": 1477,
        "Ġ`": 1478,
        "Ġright": 1479,
        "Ħì": 1480,
        "Ġì¡": 1481,
        "ĠëķĮ": 1482,
        "íķ´ë³¼": 1483,
        "íķĺëł¤ê³ł": 1484,
        "Ġëĭ¨": 1485,
        "Ġë§Ĳíķľëĭ¤": 1486,
        "Ġëįľ": 1487,
        "³¼ê²Į": 1488,
        "ìĦł": 1489,
        "Ġê³µ": 1490,
        "Ġìª½ìĹĲ": 1491,
        "Ġë¶Ģëĵľ": 1492,
        "ĠìĿ¸ìłķ": 1493,
        "Ġê·¸ëŁ°": 1494,
        "ĠìķĮëł¤ì£¼ë©´": 1495,
        "Ġì£¼ìłľë¥¼": 1496,
        "Ġaway": 1497,
        "ĠëĶ±ëĶ±íķĺê²Į": 1498,
        "Ġë°°ìļ°ê¸°": 1499,
        "Ġë¶ĻìĹ¬ì£¼ë©´": 1500,
        "Ġêº¼ëĤ´ë´Ĳ": 1501,
        "êµ°ìĤ°": 1502,
        "Ġì¤ĦìĿ´ê³ł": 1503,
        "AP": 1504,
        "Go": 1505,
        "ad": 1506,
        "as": 1507,
        "all": 1508,
        "ire": 1509,
        "¦ĺ": 1510,
        "¨ì§Ģ": 1511,
        "ª¨ì§Ģ": 1512,
        "´ê²Į": 1513,
        "ìª½": 1514,
        "ì¦ĺ": 1515,
        "Ġit": 1516,
        "ĠAP": 1517,
        "ĠGo": 1518,
        "ĥľ": 1519,
        "Īł": 1520,
        "īíķĺëĬĶ": 1521,
        "Įĵ": 1522,
        "ĠìĨĮê°ľ": 1523,
        "´ëĮĵ": 1524,
        "ìķĺ": 1525,
        "Ġë§ĲíķĺëĬĶ": 1526,
        "ëĭ¨": 1527,
        "ìĿĦì§Ģ": 1528,
        "Īëł": 1529,
        "ĠëĭµíķĺëĬĶ": 1530,
        "ê°ĢìĽĮ": 1531,
        "Ġê·¸ìª½": 1532,
        "ĠìĪĺíĸ": 1533,
        "Ġìłķíķĺë©´": 1534,
        "Ġìłķíķ´ìĦľ": 1535,
        "ĠìłķíķĺìŀĲ": 1536,
        "Ġìĺ¨": 1537,
        "ìĹĲëıĦ": 1538,
        "Ġì¢ĭìĿĦì§Ģ": 1539,
        "ê²łìĬµ": 1540,
        "atur": 1541,
        "ĠíİĺìĿ´ì§ĢëĤĺ": 1542,
        "Ġë°ĺë§Ĳë¡ľ": 1543,
        "Ġë°ĺê°ĢìĽĮ": 1544,
        "ëĭĪëĭ¤": 1545,
        "ctly": 1546,
        "ĠìĿ´ëª¨ì§Ģ": 1547,
        "Ġdire": 1548,
        "ĠìĿ´ìĸ´ê°Ģ": 1549,
        "Ġëĭ¤ë¥´ê²Į": 1550,
        "ĠìļĶì¦ĺ": 1551,
        "Ġìĭ¶ìĸ´": 1552,
        "Ġêµ¬ê¸Ģ": 1553,
        "Ġread": 1554,
        "ĠChatGPT": 1555,
        "Ġë°ĺë³µë³´ëĭ¤": 1556,
        "ë¹ĽìĿ´": 1557,
        "Ġëª¨": 1558,
        "Ġìĥģíĥľ": 1559,
        "Ġì°¨ë¶Ħíķĺê²Į": 1560,
        "Ġë°Ķê¿Ķì¤ĺ": 1561,
        "Ġë§īíŀ": 1562,
        "Ġë°ĽìķĦ": 1563,
        "Ġì§ĢìĹŃëªħ": 1564,
        "Ġnatur": 1565,
        "Ġë§Įëĵ¤": 1566,
        "Ġê¸°ìĪł": 1567,
        "Ġì¡´ëĮĵ": 1568,
        "ally": 1569,
        "ĠAPI": 1570,
        "ĠGot": 1571,
        "ĠìĪĺíĸīíķĺëĬĶ": 1572,
        "ê²łìĬµëĭĪëĭ¤": 1573,
        "Ġdirectly": 1574,
        "Ġnaturally": 1575,
        "Ġì¡´ëĮĵë§Ĳë¡ľ": 1576,
        "iz": 1577,
        "og": 1578,
        "¬ë": 1579,
        "¯¸": 1580,
        "¶ìĿĮ": 1581,
        "¸Į": 1582,
        "ëį": 1583,
        "ë¬¸": 1584,
        "ì£¼ëĬĶ": 1585,
        "íĻķ": 1586,
        "Ġge": 1587,
        "ļìĸ´ì£¼ë©´": 1588,
        "ŀĳ": 1589,
        "Ńíķľ": 1590,
        "Ġë¸Į": 1591,
        "ê²¨": 1592,
        "Ġìŀ¬ë": 1593,
        "ĠíĻĶ": 1594,
        "ĠìŀĪëĬĶ": 1595,
        "ê°ĢìĦľ": 1596,
        "Ġì§ļìĸ´ì£¼ë©´": 1597,
        "ĠìłķìĿĺ": 1598,
        "Ġìłķë¦¬ë¥¼": 1599,
        "ĠìķĦìĤ": 1600,
        "Ġë³´ëĬĶ": 1601,
        "ìĿ´ëĿ¼": 1602,
        "Ġë¬¶ìĿĮ": 1603,
        "Ġë¶ĦìľĦ": 1604,
        "lem": 1605,
        "lear": 1606,
        "ëĿ¼ìļ°": 1607,
        "Ġë¬¼ìľ¼ë©´": 1608,
        "Ġê°ľìĦł": 1609,
        "ìłĢë¡ľ": 1610,
        "ĠìĽ¹íİ": 1611,
        "ĠíĮĮìĿ¼ìĿ´ëĤĺ": 1612,
        "£Įë¡ľëıĦ": 1613,
        "Ġìĸ¸ìĸ´": 1614,
        "ĠëĶĶìłĢíĬ¸ìĹĲëıĦ": 1615,
        "Ġë¶Ħë¥ĺíķĺê±°ëĤĺ": 1616,
        "roblem": 1617,
        "ĺìĿ´ì§ĢìĿĺ": 1618,
        "ĠìĽ¹ìĤ¬ìĿ´íĬ¸ëĬĶ": 1619,
        "ĠìĽ¹ìĤ¬ìĿ´íĬ¸ê°Ģ": 1620,
        "Ġëľ»íķ´": 1621,
        "ĠìĿ´ìĥģíĸĪëĬĶì§Ģ": 1622,
        "ĠìĭĿê°ĲìĿ´": 1623,
        "Ġëĵ¤ìĸ´ê°ĢìĦľ": 1624,
        "Ġproblem": 1625,
        "Ġì§ģìłĳìłģìľ¼ë¡ľ": 1626,
        "ë©´ìĦľ": 1627,
        "Ġë§īíŀĮ": 1628,
        "Ġì§ĢìĹŃëªħìĿĦ": 1629,
        "Ġê¸°ìĪłìĿĦ": 1630,
        "ize": 1631,
        "Ġë¸ĮëĿ¼ìļ°": 1632,
        "Ġìŀ¬ë£Įë¡ľëıĦ": 1633,
        "ĠìķĦìĤŃíķľ": 1634,
        "Ġë¬¶ìĿĮìĿ´ìķ¼": 1635,
        "Ġë¶ĦìľĦê¸°": 1636,
        "ĠìĽ¹íİĺìĿ´ì§ĢìĿĺ": 1637,
        "Ġë¸ĮëĿ¼ìļ°ìłĢë¡ľ": 1638,
        "'m": 1639,
        "10": 1640,
        "ain": 1641,
        "bug": 1642,
        "ce": 1643,
        "ex": 1644,
        "ft": 1645,
        "here": 1646,
        "lain": 1647,
        "ns": 1648,
        "plain": 1649,
        "ts": 1650,
        "ue": 1651,
        "xes": 1652,
        "¥ë": 1653,
        "¬ìĭ¬": 1654,
        "ëħ": 1655,
        "ì¹": 1656,
        "ì£¼": 1657,
        "íļ": 1658,
        "Ġ4": 1659,
        "Ġis": 1660,
        "Ġ10": 1661,
        "Ġex": 1662,
        "ĺìĸ´": 1663,
        "ł¤ë": 1664,
        "ŃëıĦ": 1665,
        "Ġë²ĪìĹ": 1666,
        "Ġë´ĲëıĦ": 1667,
        "Ġê°Ī": 1668,
        "ĠëĭµìĿĺ": 1669,
        "ĠëŃĲê°Ģ": 1670,
        "ĠëŃĲíķĺì§Ģ": 1671,
        "Ġê°ĻìķĦ": 1672,
        "ëĤĺëĬĶ": 1673,
        "ĠëĦĺìĸ´": 1674,
        "ĠìŀĲëĿ¼ëĬĶ": 1675,
        "ĠëıĮë¦¬": 1676,
        "ĠìĦ¤ëªħìĿĦ": 1677,
        "Ġê°ĢëıĦ": 1678,
        "ĠíĮĮëıĦ": 1679,
        "Ġíķľëĭ¤": 1680,
        "ë¶ĢíĦ°ëĬĶ": 1681,
        "ĠëıĦìĻĢì£¼ëĬĶ": 1682,
        "Ġìĭ¬ìĭ¬": 1683,
        "ctions": 1684,
        "Ġdra": 1685,
        "Ġthere": 1686,
        "ë¶ĦìĿ´": 1687,
        "Ġfun": 1688,
        "Ġì¤ĳìĿ´ìķ¼": 1689,
        "Ġë¬¼ìĿĢ": 1690,
        "Ġê°ľëħ": 1691,
        "Ġdog": 1692,
        "Ġê¸°ë¶ĦìĿ´": 1693,
        "Ġì¡°íļ": 1694,
        "Ġíķłì¤Ħ": 1695,
        "Ġê³łìĸĳ": 1696,
        "ĠíĴĢê³ł": 1697,
        "ĠíĴĢìĸ´ì": 1698,
        "Ġsug": 1699,
        "ĠìłľìķĪíķľëĭ¤": 1700,
        "Ġë°ĺëł¤ëıĻë¬¼ìĿ´ì§Ģ": 1701,
        "ĠìĹĲëŁ¬ê°Ģ": 1702,
        "Ġìĸ´ìĥīíĸĪìľ¼ë©´": 1703,
        "ĠìĥĿê°ģëĤĺëĬĶ": 1704,
        "oblox": 1705,
        "gest": 1706,
        "Ġfixes": 1707,
        "Ġë³¼ê¹Į": 1708,
        "ĠíķĦìļĶíķľ": 1709,
        "Ġë¹¼ë©´": 1710,
        "ĠRoblox": 1711,
        "ĠìĿ´ìķ¼ê¸°íķĺìŀĲ": 1712,
        "Ġë¶ĦìľĦê¸°ë§Į": 1713,
        "Ġexplain": 1714,
        "Ġë²ĪìĹŃëıĦ": 1715,
        "ĠëıĮë¦¬ì§Ģ": 1716,
        "Ġdraft": 1717,
        "Ġfunctions": 1718,
        "Ġê°ľëħĲ": 1719,
        "Ġì¡°íļĮ": 1720,
        "Ġsuggest": 1721,
        "wit": 1722,
        "¢ħ": 1723,
        "©ë¡Ŀ": 1724,
        "ì§Ħ": 1725,
        "Ĭ¨": 1726,
        "Ķìĸ´": 1727,
        "ĹëĤĺ": 1728,
        "Ļ©": 1729,
        "ľ¬": 1730,
        "ĠìľĦ": 1731,
        "ĠëĲ": 1732,
        "ĠëĶ": 1733,
        "´ìĬ¨": 1734,
        "Ġë§´ëıĦ": 1735,
        "íķĺëĭ¤ê³ł": 1736,
        "íķĺê²łëĭ¤ê³ł": 1737,
        "Ġíģ¬": 1738,
        "ìłĲ": 1739,
        "ê°Ķìĸ´": 1740,
        "¤ëľ¬": 1741,
        "ìĭł": 1742,
        "Ġëĭµëĭµ": 1743,
        "ĠìłķíĻķ": 1744,
        "ĠìĺĪ": 1745,
        "Ġìłķë¦¬ëĤĺ": 1746,
        "Ġìłķë¦¬íķł": 1747,
        "Ġìłķë¦¬íķ´ì¤ĺ": 1748,
        "Ġì¢ĭëĦ¤": 1749,
        "ìľ¼ë¡ľëıĦ": 1750,
        "ìĿ¸ì§Ģ": 1751,
        "ì¶ľ": 1752,
        "Ġê·¸ëĮĢë¡ľ": 1753,
        "ĠìķĦë¬": 1754,
        "ìĬ¤ëĤĺ": 1755,
        "Ġë°©íĸ¥ê¹Įì§Ģ": 1756,
        "Ġë¬´ìĬ¨": 1757,
        "ĠëıĦìĻĢì¤ĺ": 1758,
        "Ġë§ŀì¶°ì§Ħ": 1759,
        "Ġì½ĶëĶ©ëıĦ": 1760,
        "Ġë¬¸ìłľìłĲ": 1761,
        "ĠíĴĪì": 1762,
        "Ġì¶Ķì¶ľ": 1763,
        "Ġê°ľë°": 1764,
        "Ġë¹¨ëĿ¼": 1765,
        "Ġë¹ĹëĤĺ": 1766,
        "Ġìĸĺê¸°íķ´ë³´ìŀĲ": 1767,
        "Ġìī½ê³ł": 1768,
        "Ġì£¼ìĬ¤ëĤĺ": 1769,
        "Ġëį°ìĿ´íĦ°ìĹĲìĦľ": 1770,
        "Ġswit": 1771,
        "ĠìĹĨìĿ´": 1772,
        "Ġam": 1773,
        "Ġëĵ¤ëľ¬": 1774,
        "ĠìķĬê³ł": 1775,
        "ĠëĬĲëĤĮìĿ´ëĤĺ": 1776,
        "ĠìĥĿê°ģìĿ´": 1777,
        "Ġë©Ķìĭľì§ĢëĤĺ": 1778,
        "ë¶Ģíķł": 1779,
        "ĠíĨ¤ìĿ´ëĤĺ": 1780,
        "ĠíĨ¤ìľ¼ë¡ľëıĦ": 1781,
        "ĠëĤ´ìļ©ìĿ´ëĤĺ": 1782,
        "Ġê´ľì°®ëĭ¤ë©´": 1783,
        "Ġíķľë§ĪëĶĶëıĦ": 1784,
        "Ġêº¼ëĤ´ëıĦ": 1785,
        "ĠëĶĶìłĢíĬ¸ë¡ľëıĦ": 1786,
        "Ġì§ĢëĤ´": 1787,
        "Ġë¬»ê±°ëĤĺ": 1788,
        "ĠìŀĳìĦ±ê¹Įì§Ģ": 1789,
        "Ġëª©ë¡Ŀ": 1790,
        "´ì§Ģì§Ģ": 1791,
        "ĠíķĦìļĶíķĺë©´": 1792,
        "Ġíķ´ê²°íķĺëł¤ê³ł": 1793,
        "Ġìłķë¦¬íķ´ì£¼ëĬĶ": 1794,
        "ĠëĮĢìĭł": 1795,
        "ĠìŀĲê¸°ìĨĮê°ľíķ´ì¤ĺ": 1796,
        "Ġíķ´ë³¼ê¹ĮìļĶ": 1797,
        "ĠìĤ´ë¦¬ëĬĶ": 1798,
        "Ġì°¨ë¶Ħíķľ": 1799,
        "Ġë²ĪìĹĲ": 1800,
        "ĠìĻ¸ë¡ľìļ´": 1801,
        "ĠìĻ¸ë¡ľìĽĮ": 1802,
        "Ġê°Ģì§Ģë§Į": 1803,
        "Ġê·¸ê±¸": 1804,
        "Ġë³´ê¸°ë¡ľ": 1805,
        "ĠëĬĲê»´ì§Ģì§Ģ": 1806,
        "ĠìĿ´ìľłê°Ģ": 1807,
        "Ġê³µë¶Ģíķł": 1808,
        "Ġìĸ¸ìĸ´ìĿ¸ì§Ģ": 1809,
        "ĠëĦĺìĸ´ê°ĢëıĦ": 1810,
        "Ġë§´ëıĦëĬĶì§Ģ": 1811,
        "Ġíģ¬ê²Į": 1812,
        "Ġëĭµëĭµíķľ": 1813,
        "ĠìķĦë¬´": 1814,
        "ĠíĴĪì¢ħ": 1815,
        "Ġê°ľë°ľ": 1816,
        "Ġë¹ĹëĤĺê°Ķìĸ´": 1817,
        "Ġswitch": 1818,
        "¨ìĸ´ëıĦ": 1819,
        "ëĲĺ": 1820,
        "Ġ'": 1821,
        "ĻìķĦ": 1822,
        "Ġìľł": 1823,
        "ìĿĳ": 1824,
        "íķĺëĭ¤": 1825,
        "ĠìĿĮ": 1826,
        "Ġìķķ": 1827,
        "ê°ĻìķĦ": 1828,
        "Ġëĭµíķĺê³ł": 1829,
        "Ġìłķíķĺì§Ģ": 1830,
        "ë§¥": 1831,
        "Ġë¬¸ë§¥": 1832,
        "ĠìĽĲë¦¬": 1833,
        "ĠìŀĲìĦ¸": 1834,
        "ĠìķĦì¹": 1835,
        "Ġê±´ì§Ģ": 1836,
        "ìĿ´ëĭ¤": 1837,
        "ĠìŀĲìĹ°ìĬ¤ëŁ½": 1838,
        "Ġë§ģíģ¬ë¥¼": 1839,
        "ĠëĦĪëŀĳ": 1840,
        "Ġì¤ĳìĭ¬": 1841,
        "ĠíĿĲë¦Ħìľ¼ë¡ľ": 1842,
        "ĠêµĲ": 1843,
        "Ġì°¾": 1844,
        "Ġë¬¸êµ¬ì²ĺëŁ¼": 1845,
        "Ġëįĺìł¸ì¤ĺëıĦ": 1846,
        "ĠíĨ¤ìĿĦ": 1847,
        "Ġëĸ¨ìĸ´ëıĦ": 1848,
        "íĺ¸": 1849,
        "ĠíķĺëĬĶê±°ê°ĻìķĦ": 1850,
        "ĠìłķíĻķíķĺê²Į": 1851,
        "ĠìĺĪìĭľ": 1852,
        "ĠìŀĲìĦ¸íŀĪ": 1853,
        "ĠìķĦì¹¨": 1854,
        "Ġì¤ĳìĭ¬ìľ¼ë¡ľ": 1855,
        "¨ê·¼": 1856,
        "°ëį": 1857,
        "´ê²łìĸ´": 1858,
        "½ìĿĦ": 1859,
        "½ìļ°": 1860,
        "ĢìĿĦ": 1861,
        "Ħë¦¬": 1862,
        "Ĭ¹": 1863,
        "įĶ": 1864,
        "ķíķ´ìĦľ": 1865,
        "Ĺ¬": 1866,
        "ł¤": 1867,
        "Ġì£¼ë©´": 1868,
        "Ġë§¥ë": 1869,
        "´ë¥¼": 1870,
        "Ġë§ĲìĹĲëĬĶ": 1871,
        "Ġíĭ": 1872,
        "ĠíĬ¹": 1873,
        "ëĭĪë": 1874,
        "ë¥¸": 1875,
        "ë¥´ê²łìĸ´": 1876,
        "ĠìĿ´ìł": 1877,
        "ĶëįĶ": 1878,
        "ìļ¸": 1879,
        "ĠìĦł": 1880,
        "ì¶ķíķ´ìĦľ": 1881,
        "ĠìķĦëĭĪë": 1882,
        "ĠìĦ¤ëªħíķ´ì¤ĺ": 1883,
        "ëŀĢ": 1884,
        "ìĸ´ë³¼ê²Į": 1885,
        "Ġê±´": 1886,
        "Ġë°©íĸ¥ìľ¼ë¡ľ": 1887,
        "ĠëıĦìļ¸": 1888,
        "ëŁ½ê²Į": 1889,
        "ĠìĿ¸ìĤ¬": 1890,
        "Ġì¤ĳìļĶ": 1891,
        "íŀĪëĬĶ": 1892,
        "ĠìĿ´ìĸ´ê°Ī": 1893,
        "ĠíĴĢìĸ´ë³¼ê²Į": 1894,
        "Ġë¶Ģë¶ĦìĿĦ": 1895,
        "Ġë²Ħë¦¬": 1896,
        "ĠìŀĳìĿĢ": 1897,
        "ì°¨ê·¼": 1898,
        "Ġë°ĺë³µíķĺì§Ģ": 1899,
        "Ġêµ°ëį": 1900,
        "ĠìĥĿê°ģíķ´ë³¼": 1901,
        "Ġê²ĥ": 1902,
        "Ġê²½ìļ°": 1903,
        "Ġë¬¸êµ¬ëĤĺ": 1904,
        "Ġë³´ìĹ¬": 1905,
        "Ġë¬¸ìŀ¥ìľ¼ë¡ľ": 1906,
        "Ġë¶ĻìĹ¬ì¤Ħê²Į": 1907,
        "Ġì°¨ê·¼": 1908,
        "ĠìļĶì²ŃìĹĲëĬĶ": 1909,
        "Ġë§īíŀĪëĬĶ": 1910,
        "ĠíĽĦì": 1911,
        "Ġì§ĢìĹŃìĿĦ": 1912,
        "Ġëĭ¨ìĸ´": 1913,
        "Ġë¶ĢëĵľëŁ½ê²Į": 1914,
        "Ġëª¨ë¥´ê²łìĸ´": 1915,
        "Ġë§Įëĵ¤ìĸ´ì¤ĺ": 1916,
        "ĠìłķìĿĺë¥¼": 1917,
        "ì£¼ë¡ľ": 1918,
        "ĠíĴĢìĸ´ì¤Ħê²Į": 1919,
        "ĠìľĦì£¼ë¡ľ": 1920,
        "Ġìķķì¶ķíķ´ìĦľ": 1921,
        "Ġë§¥ëĿ": 1922,
        "ĶëįĶê¸°": 1923,
        "Ġë²Ħë¦¬ê³ł": 1924,
        "Ġêµ°ëįĶëįĶê¸°": 1925,
        "Ġì°¨ê·¼ì°¨ê·¼": 1926,
        "ĠíĽĦìĨį": 1927,
        "Su": 1928,
        "age": 1929,
        "clear": 1930,
        "ew": 1931,
        "go": 1932,
        "gan": 1933,
        "hou": 1934,
        "iew": 1935,
        "ld": 1936,
        "lv": 1937,
        "ow": 1938,
        "olv": 1939,
        "sk": 1940,
        "view": 1941,
        "¡Į": 1942,
        "¨ê³¼": 1943,
        "ª»": 1944,
        "°ì§Ģ": 1945,
        "°ìĸ´ë": 1946,
        "°ëŀĢ": 1947,
        "²Ħ": 1948,
        "³ìĹĲìĦľ": 1949,
        "·ê°": 1950,
        "¸ëĬĶì§Ģ": 1951,
        "¸ë¥¸": 1952,
        "¹Ĭ": 1953,
        "¹ê²¨": 1954,
        "¼íķľ": 1955,
        "ëª»": 1956,
        "ì½¤": 1957,
        "íĦ°": 1958,
        "Ġst": 1959,
        "Ġun": 1960,
        "ĠSu": 1961,
        "ģìľ¼ë¡ľ": 1962,
        "ģ¼íķľ": 1963,
        "Ħ¤": 1964,
        "Ħê°ģ": 1965,
        "ĩê²Į": 1966,
        "ĩë¹ĽìĿ´": 1967,
        "Ĳëĭ¨": 1968,
        "ĳíķł": 1969,
        "ĳ¸ë¥¸": 1970,
        "ĶìľĦ": 1971,
        "ķĦì": 1972,
        "Ĺê²Į": 1973,
        "Ĺ·ê°": 1974,
        "Ļë¬¼": 1975,
        "Ľ°ìĸ´ë": 1976,
        "ŀìĸ´ìĦľ": 1977,
        "łģìľ¼ë¡ľ": 1978,
        "łĩê²Į": 1979,
        "Ńíķł": 1980,
        "Ńê°ģ": 1981,
        "ĠëĬ": 1982,
        "Ġë¯¸": 1983,
        "ĠëĽ°ìĸ´ë": 1984,
        "Ġê¹Ĭ": 1985,
        "´ì¡Į": 1986,
        "´ìķĦì": 1987,
        "ssage": 1988,
        "Ġë§Ĳë¡ľ": 1989,
        "Ġë§ĲìĿ´": 1990,
        "ìĿ´ê²Į": 1991,
        "Ġëĭ¹ê²¨": 1992,
        "ëĬĶëĭ¤": 1993,
        "Ġíĳ¸ë¥¸": 1994,
        "ĠíĹ·ê°": 1995,
        "ìĹħ": 1996,
        "ìĹĪë": 1997,
        "Ĥĺê³ł": 1998,
        "ë¦°ì§Ģ": 1999,
        "ë¦¬ê²łìĬµëĭĪëĭ¤": 2000,
        "Ġëĭµíķĺë©´": 2001,
        "ëıĦë¡Ŀ": 2002,
        "ë©´ìĿĦ": 2003,
        "ê¸°ë¥¼": 2004,
        "ĠíķĺëĬĺ": 2005,
        "íķľíħ": 2006,
        "ëĤĺë©´ìĦľ": 2007,
        "ë³¸": 2008,
        "ë³´ìŀĲ": 2009,
        "Ġì§ĢëĤĺë©´ìĦľ": 2010,
        "ĠìķĮê²łìĬµëĭĪëĭ¤": 2011,
        "Ķëł¤ë": 2012,
        "Ķë²Ħ": 2013,
        "ĠìĽĲíķ´": 2014,
        "Ġë°©ìĭĿ": 2015,
        "Ġëĭ¤ìĸĳ": 2016,
        "ĠíĮĲëĭ¨": 2017,
        "ìŀĳíķł": 2018,
        "ĠìĦŀìĸ´ìĦľ": 2019,
        "Ġê·¸ëłĩê²Į": 2020,
        "ĠëıĻë¬¼": 2021,
        "ĠìķĦê¹Į": 2022,
        "ĠìĦ¤ëªħíķĺê³ł": 2023,
        "ĠìĦ¤ëªħíķ´ë³¼ê²Į": 2024,
        "ĠëĮĢë¡ľ": 2025,
        "ĠíĮĮëŀ": 2026,
        "ĠíĮĮìŀ¥": 2027,
        "Ġì§Īë¬¸ìĹĲ": 2028,
        "Ĳĺê²Į": 2029,
        "ĠìĹ´ë¦¬ëĬĶ": 2030,
        "ĠìĹŃíķł": 2031,
        "Ġwe": 2032,
        "Ġwas": 2033,
        "Ġê³¨ëĿ¼": 2034,
        "Ġê³³ìĹĲìĦľ": 2035,
        "Ġì¤ĦìĹ¬": 2036,
        "ìĿ´ë©´": 2037,
        "Ġìª½ìĿ´": 2038,
        "ĠëĤĺíķľíħ": 2039,
        "Ġë¬´ìĹ": 2040,
        "Ġê±°ìķ¼": 2041,
        "Ġíİ¸íķĺê³ł": 2042,
        "ê¹ħ": 2043,
        "Ġyour": 2044,
        "Ġë§ŀì¶°ìķ¼": 2045,
        "Ġìĸ´ëł¤": 2046,
        "Ġchat": 2047,
        "ĠëĦĪëĬĶ": 2048,
        "ĠìķĦëĭĪìķ¼": 2049,
        "ĠìķĦëĭĪìĹĪë": 2050,
        "leas": 2051,
        "ìķĪíķ´": 2052,
        "ĠìĿ¸íĦ°": 2053,
        "Ġë³´ìĿ´ê²Į": 2054,
        "ĠëĬĲë¦°ì§Ģ": 2055,
        "ĠìĽĲìĿ¸ìĿĦ": 2056,
        "Ġë¬¸ìĦľë¥¼": 2057,
        "Ġê°ķìķĦì§ĢìĹĲ": 2058,
        "Ġì¶Ķëł¤ë": 2059,
        "Ġë¬¼ìĸ´ìĦľ": 2060,
        "ĠPleas": 2061,
        "ëŁ¬ìļ´": 2062,
        "Ġìŀ¡ê³ł": 2063,
        "Ġìŀ¡ìķĺ": 2064,
        "Ġdoing": 2065,
        "Ġëĭµë³Ģëĵľ": 2066,
        "Ġê¸°ë³¸": 2067,
        "ĠìĤ¬ìļ©íķ´ì¤ĺ": 2068,
        "Ġëįĺìł¸ì£¼ë©´": 2069,
        "Ġë§ĲíĪ¬ëĤĺ": 2070,
        "tting": 2071,
        "Ġì²Ńê°ģ": 2072,
        "Ġë¶Ģë¶ĦìĿĢ": 2073,
        "Ġshou": 2074,
        "Ġsolv": 2075,
        "Ġìĸ´ìĥīíķł": 2076,
        "Ġreview": 2077,
        "Ġë°ĺëł¤ëıĻë¬¼ìĿ´ìķ¼": 2078,
        "Ġare": 2079,
        "Ġask": 2080,
        "Ġë²ĶìľĦ": 2081,
        "ĠëģĮëł¤": 2082,
        "Ġëĭ¬ì½¤": 2083,
        "ĠìķĬìķĺ": 2084,
        "ĠìŀĳìĹħ": 2085,
        "ĠëĬĲëĤĮìľ¼ë¡ľ": 2086,
        "Ġìĸ´ìĥīíĸĪì§Ģ": 2087,
        "Ġìĸ´ìĥīíĸĪìĿĦ": 2088,
        "ĠìŀĲë£Įë¥¼": 2089,
        "ĠWe": 2090,
        "Ġmessage": 2091,
        "ĠíĨ¤ìĿĢ": 2092,
        "ĠëĤ´ìļ©ìĿ´ëĿ¼": 2093,
        "dea": 2094,
        "Ġì¤Ħë¡ľë§Į": 2095,
        "ĠThat": 2096,
        "Ġë¶ĻìĹ¬ìĦľ": 2097,
        "ĠìĿ´ê²Į": 2098,
        "ĠìĿ´íķ´ë": 2099,
        "Ġìĭľìŀĳíķł": 2100,
        "Ġìĺ¤ë¥ĺê°Ģ": 2101,
        "ĠíķĦìļĶíķł": 2102,
        "Ġëĭ¤ìĿĮë¶ĢíĦ°ëĬĶ": 2103,
        "ĠëĮĢíķ´": 2104,
        "ĠëĮĢê¸°ë¥¼": 2105,
        "ĠìĥģíĻ©": 2106,
        "Ġìĥģíģ¼íķľ": 2107,
        "ĠìĥĿìĦ±íķĺê±°ëĤĺ": 2108,
        "ëĦ·": 2109,
        "Ġorgan": 2110,
        "ĠìĤ°ëŀĢ": 2111,
        "ĠìĤ´ìķĦì": 2112,
        "ĠìĿ´ìĥģíĸĪì§Ģ": 2113,
        "Ġidea": 2114,
        "Ġë°Ķê¿ĶìĦľ": 2115,
        "Ġìŀĺëª»": 2116,
        "ĠíĽĪëł": 2117,
        "ĠíĽĦê°ģ": 2118,
        "Ġnow": 2119,
        "Ġë§Įëĵł": 2120,
        "art": 2121,
        "Ġê°Ģì§Ģë¶ĢíĦ°": 2122,
        "ĠìĭĿìľ¼ë¡ľ": 2123,
        "Ġë¹¼ê³ł": 2124,
        "Ġëĵ¤ìĸ´ê°ĢëıĦ": 2125,
        "Ġêµ°ìĤ°ìĿ´ë©´": 2126,
        "ĠRight": 2127,
        "ĠìĿ´ìķ¼ê¸°íķ´ëıĦ": 2128,
        "Ġë©Ķëī´": 2129,
        "Ġíĸĩë¹ĽìĿ´": 2130,
        "Ġê·¸ê±´": 2131,
        "ĠëĬĲê»´ì¡Į": 2132,
        "ĠìĪĺëĭ¤ì²ĺëŁ¼": 2133,
        "ĠëķĮë¬¸": 2134,
        "Ġë¶ĢëĵľëŁ¬ìļ´": 2135,
        "ĠìĿ¸ìłķíķĺê³ł": 2136,
        "Īëł¸ëĬĶì§Ģ": 2137,
        "Ġê·¸ìª½ìĿĢ": 2138,
        "ĠìĿ´ëª¨ì§ĢëıĦ": 2139,
        "ĠìĿ´ëª¨ì§Ģë¥¼": 2140,
        "ĠìĿ´ìĸ´ê°Ģë©´": 2141,
        "Ġready": 2142,
        "Ġreading": 2143,
        "Ġë°ĺë³µë³´ëĭ¤ëĬĶ": 2144,
        "Ġì°¨ë¶Ħíķĺê²Įì²ĺëŁ¼": 2145,
        "Ġë°ĽìķĦë³¼ê²Į": 2146,
        "ogle": 2147,
        "Ġgetting": 2148,
        "ĠíĻĶë©´ìĿĦ": 2149,
        "ĠëĶĶë²Ħ": 2150,
        "ĠíĴĪì¢ħìĿ´": 2151,
        "ëĲĺê¸°": 2152,
        "ĠìŀĲìĹ°ìĬ¤ëŁ½ì§Ģ": 2153,
        "ĠêµĲê°ĲìĿ´": 2154,
        "ĠíĭĢìĿĦ": 2155,
        "Ġì¤ĳìļĶíķľ": 2156,
        "Ġê²½ìļ°ìĹĲëĬĶ": 2157,
        "Ġë§¥ëĿ½ìĿĦ": 2158,
        "google": 2159,
        "Ġstart": 2160,
        "Ġunclear": 2161,
        "ĠSure": 2162,
        "Ġë¯¸ìķĪíķ´": 2163,
        "ĠëĽ°ìĸ´ëĤĺê³ł": 2164,
        "Ġê¹Ĭê²Į": 2165,
        "Ġíĳ¸ë¥¸ë¹ĽìĿ´": 2166,
        "ĠíĹ·ê°Īëł¸ëĬĶì§Ģ": 2167,
        "ĠíķĺëĬĺìĿ´": 2168,
        "Ġëĭ¤ìĸĳíķĺê³ł": 2169,
        "ĠíĮĲëĭ¨íķĺëĬĶ": 2170,
        "ĠëıĻë¬¼ìĿ´ìķ¼": 2171,
        "ĠíĮĮëŀĹê²Į": 2172,
        "ĠíĮĮìŀ¥ìĿĺ": 2173,
        "Ġê³¨ëĿ¼ë³´ìŀĲ": 2174,
        "Ġì¤ĦìĹ¬ë³¼ê²Į": 2175,
        "ĠëĤĺíķľíħĮ": 2176,
        "Ġë¬´ìĹĩ": 2177,
        "Ġìĸ´ëł¤ìļ´": 2178,
        "ĠìķĦëĭĪìĹĪëĦ¤": 2179,
        "ĠìĿ¸íĦ°ëĦ·": 2180,
        "Ġì¶Ķëł¤ë³¼ê²Į": 2181,
        "ĠPlease": 2182,
        "Ġìŀ¡ìķĺëĦ¤": 2183,
        "Ġëĭµë³Ģëĵľë¦¬ê²łìĬµëĭĪëĭ¤": 2184,
        "Ġì²Ńê°ģìĿ´": 2185,
        "Ġshould": 2186,
        "Ġsolve": 2187,
        "Ġë²ĶìľĦë¥¼": 2188,
        "Ġëĭ¬ì½¤íķĺê±°ëĤĺ": 2189,
        "ĠìķĬìķĺì§Ģ": 2190,
        "ĠëĤ´ìļ©ìĿ´ëĿ¼ëıĦ": 2191,
        "ĠìĿ´íķ´ëĲĺê²Į": 2192,
        "ĠìĥģíĻ©ìĹĲìĦľ": 2193,
        "Ġorganize": 2194,
        "ĠìĤ°ëŀĢëĲĺê¸°": 2195,
        "ĠìĤ´ìķĦìĺ¨": 2196,
        "ĠíĽĪëł¨ê³¼": 2197,
        "ĠíĽĦê°ģê³¼": 2198,
        "ĠëĬĲê»´ì¡Įëĭ¤ë©´": 2199,
        "ĠëķĮë¬¸ìĿ´ìķ¼": 2200,
        "ĠëĶĶë²Ħê¹ħ": 2201,
        "al": 2202,
        "ci": 2203,
        "cog": 2204,
        "en": 2205,
        "ech": 2206,
        "ebug": 2207,
        "fi": 2208,
        "gy": 2209,
        "ige": 2210,
        "ifi": 2211,
        "lts": 2212,
        "no": 2213,
        "ner": 2214,
        "nize": 2215,
        "nce": 2216,
        "pon": 2217,
        "que": 2218,
        "rt": 2219,
        "su": 2220,
        "ter": 2221,
        "tin": 2222,
        "tell": 2223,
        "¡ìĭĿ": 2224,
        "£°": 2225,
        "§ķ": 2226,
        "©íķ´ìĦľ": 2227,
        "¬ì": 2228,
        "®ê²¨": 2229,
        "¯¼": 2230,
        "¯Ģë¡ľ": 2231,
        "´ê±°": 2232,
        "ê·¸": 2233,
        "êº¼": 2234,
        "ë²Ī": 2235,
        "ëıĻ": 2236,
        "ì¤": 2237,
        "ìĺ": 2238,
        "ì½Ķë": 2239,
        "ì§ķ": 2240,
        "Ġ6": 2241,
        "Ġlear": 2242,
        "Ġbug": 2243,
        "Ġque": 2244,
        "Ħìĸ´": 2245,
        "ħĶ": 2246,
        "īëıĻ": 2247,
        "ı¬ì": 2248,
        "ĻìĬµ": 2249,
        "ľ¡ìĭĿ": 2250,
        "Ŀì§Ģ": 2251,
        "Ġìľ¡ìĭĿ": 2252,
        "Ġë¯¼": 2253,
        "´ì¤Ħê²Į": 2254,
        "´ìĺ¨": 2255,
        "ans": 2256,
        "stion": 2257,
        "Ġë§Īì": 2258,
        "íķĺë©´ìĦľ": 2259,
        "´ë©´": 2260,
        "Ġë§ĲìĿ´ëĤĺ": 2261,
        "ìĿ´ê°Ģ": 2262,
        "Ġëĭ¤ë": 2263,
        "Ġíı¬ì": 2264,
        "ĠíķĻìĬµ": 2265,
        "Ġë§Ĳíķ´ì¤Ħê²Į": 2266,
        "ĠëŃĲíķĺëĬĶ": 2267,
        "ĠíķĺëıĦë¡Ŀ": 2268,
        "Ġìĺ®ê²¨": 2269,
        "ĠëĦĮ": 2270,
        "Ġë¬¸ëĭ¨": 2271,
        "Ġìłķë¦¬ëıĦ": 2272,
        "Ġìłķë¦¬íķ´ë³´ìŀĲ": 2273,
        "Ġì¢ĭëĭ¤": 2274,
        "ĠìĤ¬ëĬĶ": 2275,
        "ìĿ¸ëĭ¤": 2276,
        "Ġì§§ìķĦ": 2277,
        "ĠìĦ¤ëªħìĿ´ëĤĺ": 2278,
        "ĠìĦ¤ëªħë³´ëĭ¤": 2279,
        "ìĦ¤ëªħ": 2280,
        "Ġíķľêº¼": 2281,
        "Ġë³Ģ": 2282,
        "Ġì§Īë¬¸ìĿĢ": 2283,
        "ĠëĤ¨": 2284,
        "ata": 2285,
        "ate": 2286,
        "atter": 2287,
        "ĠìĥĪ": 2288,
        "ìĿ´ëĬĶ": 2289,
        "ìĿ´ë¯Ģë¡ľ": 2290,
        "ìĹ°íķĺê²Į": 2291,
        "Ġë¬´ê±°": 2292,
        "ontin": 2293,
        "Ġìĭ¤": 2294,
        "Ġìĭł": 2295,
        "Ġë°ĺìĿĳ": 2296,
        "Ġìĺģìĸ´ëıĦ": 2297,
        "ĠIf": 2298,
        "ĠIt": 2299,
        "ì²©íķ´ìĦľ": 2300,
        "ĠëĮĢíĻĶíķĺë©´ìĦľ": 2301,
        "Ġcom": 2302,
        "Ġcontin": 2303,
        "ìłľë¡ľ": 2304,
        "Ġdebug": 2305,
        "Ġdata": 2306,
        "Ġthat": 2307,
        "Ġtra": 2308,
        "Ġtech": 2309,
        "Ġê¸¸": 2310,
        "ìļ©íķĺê³ł": 2311,
        "Ġì¡°ìļ©íķĺê³ł": 2312,
        "Ġë¹Ħìĸ´": 2313,
        "Ġìĸĺê¸°ëĤĺ": 2314,
        "ĠíĴĢëł¤ê³ł": 2315,
        "ĠìłľìķĪìĿĦ": 2316,
        "ĠìłľìķĪê¹Įì§Ģ": 2317,
        "ĠìĤ¬ìļ©ìŀĲëĬĶ": 2318,
        "Ġrecog": 2319,
        "Ġresu": 2320,
        "Ġart": 2321,
        "ĠëĤłìĶ¨ì²ĺëŁ¼": 2322,
        "Ġê°ĢëĬ¥íķĺëĭ¤ê³ł": 2323,
        "íĥĿì§Ģ": 2324,
        "Ġintell": 2325,
        "ë¥ĺë¡ľ": 2326,
        "Ġmeans": 2327,
        "logy": 2328,
        "Ġìłģìĸ´ì¤ĺ": 2329,
        "Ġì§ĢëĤ´ìĺ¨": 2330,
        "Ġë¬¸ìŀ¥ìĿĦ": 2331,
        "Ġë¬¸ìŀ¥ìĿ´ëĤĺ": 2332,
        "ľłë¥ĺë¡ľ": 2333,
        "Ġë¡ľê·¸": 2334,
        "Ġì£¼ìĬ¤ë¡ľëıĦ": 2335,
        "Ġíķ´ê²°ìĿĦ": 2336,
        "Ġë³´ì¡°ë¥¼": 2337,
        "ĠìĺĪì¸¡íķĺê±°ëĤĺ": 2338,
        "ĠìĥĪì½¤íķĺê³ł": 2339,
        "Ġëľ»ìĿ´": 2340,
        "íĺķ": 2341,
        "Ġì¤Ģëĭ¤": 2342,
        "Ġpatter": 2343,
        "Ġë©Ķëī´ì": 2344,
        "ĠíĸīëıĻ": 2345,
        "ĠìĿ´ìľłë¥¼": 2346,
        "Ġëª¨ëĵľ": 2347,
        "ë¬¸ìĦľ": 2348,
        "Ġgener": 2349,
        "ĠíĻĶìłľë¥¼": 2350,
        "Ġproblems": 2351,
        "Ġìĭ¬ìĭ¬íķ´": 2352,
        "ĠdogëĬĶ": 2353,
        "Ġdogê°Ģ": 2354,
        "Ġê³łìĸĳìĿ´ê°Ģ": 2355,
        "Ġê³łìĸĳìĿ´ëĬĶ": 2356,
        "ĠëĲľëĭ¤": 2357,
        "ĠìľłìĹ°íķĺê²Į": 2358,
        "ĠíĬ¹ì§ķ": 2359,
        "ĠìĦłíĥĿì§Ģ": 2360,
        "Ġë¬´ìĹĩìĿĦ": 2361,
        "cial": 2362,
        "ents": 2363,
        "igence": 2364,
        "ificial": 2365,
        "nology": 2366,
        "ponents": 2367,
        "ë²ĪìĹĲ": 2368,
        "ì½ĶëĶ©": 2369,
        "Ġlearns": 2370,
        "Ġbugs": 2371,
        "Ġquestion": 2372,
        "Ġë¯¼ì²©íķ´ìĦľ": 2373,
        "Ġë§ĪìħĶ": 2374,
        "Ġëĭ¤ë£°": 2375,
        "Ġíı¬ìľłë¥ĺë¡ľ": 2376,
        "ĠíķĻìĬµíķ´ìĦľ": 2377,
        "Ġìĺ®ê²¨ë³¼ê²Į": 2378,
        "Ġë¬¸ëĭ¨ìĿĦ": 2379,
        "Ġíķľêº¼ë²ĪìĹĲ": 2380,
        "Ġë¬´ê±°ìļ´": 2381,
        "Ġcomponents": 2382,
        "Ġcontinue": 2383,
        "Ġtrace": 2384,
        "Ġtechnology": 2385,
        "Ġrecognize": 2386,
        "Ġresults": 2387,
        "Ġartificial": 2388,
        "Ġintelligence": 2389,
        "Ġìłģìĸ´ì¤ĺëıĦ": 2390,
        "Ġpatterns": 2391,
        "ĠíĸīëıĻìĿĦ": 2392,
        "Ġgenerate": 2393,
        "ĠíĬ¹ì§ķìĿ¸": 2394,
        "Ġquestions": 2395,
        "¡ê³ł": 2396,
        "¤íĸĪ": 2397,
        "¥ìĿĦ": 2398,
        "¥ëł": 2399,
        "¬ëĿ¼ê³ł": 2400,
        "¯ìĿ´": 2401,
        "²ĺëŁ¼": 2402,
        "¸ë¦": 2403,
        "¿ì": 2404,
        "ìĥģ": 2405,
        "ìĥī": 2406,
        "Ģëĭ¤": 2407,
        "Ģëĵ": 2408,
        "Ģìĥī": 2409,
        "ĨĢëĵ": 2410,
        "Īíİ": 2411,
        "ĭ¬ëĿ¼ê³ł": 2412,
        "Ķê°Ģ": 2413,
        "ķł": 2414,
        "ľë¶ĢíĦ°ëĬĶ": 2415,
        "Ŀê¹Įì§Ģ": 2416,
        "łë§": 2417,
        "Ġëªħ": 2418,
        "ĠëĨĢëĵ": 2419,
        "íķ´ë³¼ê¹Į": 2420,
        "´ìłģìľ¼ë¡ľ": 2421,
        "´ëł¤ë": 2422,
        "Ġë§ĲìĹĲ": 2423,
        "Ġë§Ĳíķĺë©´": 2424,
        "ë¡ľìļ´": 2425,
        "ìĸ´ê°Ģ": 2426,
        "Ġìķłë§": 2427,
        "ìłĪ": 2428,
        "ìĹĪìĸ´": 2429,
        "Ġë§Ĳíķľ": 2430,
        "Ġë§Ĳíķ´ëıĦ": 2431,
        "ĠìŀĪëĬĶì§Ģ": 2432,
        "ĠìŀĪìĸ´ìĦľ": 2433,
        "ĠëŃĶê°Ģ": 2434,
        "íķľëį": 2435,
        "ìŀ¡ê³ł": 2436,
        "ĠìĦ¤ëªħíķ´ì": 2437,
        "Ġê°Ģê¹Į": 2438,
        "ë§Įíķľ": 2439,
        "Ġì§Īë¬¸íķ´ëıĦ": 2440,
        "ìĸ´ë´Ĳ": 2441,
        "ìĸ´ë¥¼": 2442,
        "ì¤ĺëıĦ": 2443,
        "ĠëĤĺëıĦ": 2444,
        "Ġhi": 2445,
        "Ġê±°ëĤĺ": 2446,
        "Ġê±¸ë¡ľ": 2447,
        "Ġê±¸ìĸ´ì£¼ë©´": 2448,
        "Ġê±¸ìĸ´ì¤ĺ": 2449,
        "Ġíİ¸ìĿ´": 2450,
        "Ġì½ĶëĵľëĤĺ": 2451,
        "ĶĶê°Ģ": 2452,
        "Ġë¨¸ë¦": 2453,
        "ì²´ìłģìľ¼ë¡ľ": 2454,
        "ĠëĮĢíĻĶíķĺëĬĶ": 2455,
        "Ġê¶ģê¸Īíķ´": 2456,
        "ĠìĿ½ìĸ´ëıĦ": 2457,
        "ĠìĿ½ìĹĪìĸ´": 2458,
        "Ġìĸ´ëķł": 2459,
        "Ġìĸ´ëĶĶê°Ģ": 2460,
        "Ġíķµìĭ¬ìĿĦ": 2461,
        "ĠìĿ´ìĸ´ê°ĢëıĦ": 2462,
        "Ġë¬¸ìĦľëĤĺ": 2463,
        "Ġë¬¼ìĸ´ë´Ĳ": 2464,
        "íĸĪìĸ´": 2465,
        "Ġë§İìķĦ": 2466,
        "Ġëĭµë³ĢìĿĦ": 2467,
        "Ġíķłë§Įíķľ": 2468,
        "Ġìĸĺê¸°ë¶ĢíĦ°": 2469,
        "Ġìĸĺê¸°íķĺê³ł": 2470,
        "Ġìĸĺê¸°íķ´ë³¼ê¹Į": 2471,
        "ĠíĴĢìĸ´ë´ĲëıĦ": 2472,
        "ĠíĴĢìĸ´ê°Ģ": 2473,
        "Ġì£¼ìłľë¡ľ": 2474,
        "Ġë¶ĦìĦĿíķĺëł¤ê³ł": 2475,
        "Ġêµ¬ì²´ìłģìľ¼ë¡ľ": 2476,
        "Ġê³¼ìŀ¥": 2477,
        "ĠëģĿê¹Įì§Ģ": 2478,
        "ĠëĶ±ëĶ±íĸĪìĸ´": 2479,
        "ëĬĶì§Ģë¶ĢíĦ°": 2480,
        "ĠìĹ¬ë¶Ģë¥¼": 2481,
        "Ġë¶Ļìŀ¡ê³ł": 2482,
        "Ġêµ´ëł¤ë": 2483,
        "ĠìĥĿê°ģíķ´ëıĦ": 2484,
        "ĠìĥĿê°ģíķĺë©´": 2485,
        "ĠìķĦìĿ´ëĶĶìĸ´ë¥¼": 2486,
        "Ġë§Įíķľ": 2487,
        "Ġê²Ģìĥī": 2488,
        "Ġêº¼ëĤ´ì§Ģ": 2489,
        "ìĽĮìĦľ": 2490,
        "Ġë³´ë©´": 2491,
        "ĠHi": 2492,
        "ĠìĽ¹ìĤ¬ìĿ´íĬ¸ìĹĲìĦľ": 2493,
        "Ġëª»": 2494,
        "ĠìļĶì²Ńíķĺë©´": 2495,
        "ĠìļĶì²ŃìĿ´ë¯Ģë¡ľ": 2496,
        "Ġìī¬ìĽĮìĦľ": 2497,
        "Ġëľ»ìľ¼ë¡ľ": 2498,
        "ĠìĿ´ìĥģíĸĪìĸ´": 2499,
        "Ġë°Ľê³ł": 2500,
        "Ġì§ģìłĦ": 2501,
        "ĠìĹ¬ê¸°ìĦľ": 2502,
        "Ġêº¼ëĤ´ë´ĲëıĦ": 2503,
        "Ġë©Ķëī´ë¥¼": 2504,
        "ĠíĸĪìĸ´": 2505,
        "ĨįìĹĲ": 2506,
        "ĠìĿ¸ìłķíķľëĭ¤": 2507,
        "Ġê·¸ëŁ°ì§Ģ": 2508,
        "ĠìĿ´ìĸ´ê°ĢìŀĲ": 2509,
        "Ġë°ĽìķĦìķ¼": 2510,
        "ìĿ´ëĿ¼ê³ł": 2511,
        "Ġìĭ¬ìĭ¬íķľëį": 2512,
        "ĠëĲł": 2513,
        "ĠìķĦë¬´ê±°ëĤĺ": 2514,
        "Ġë¬¸ë§¥ìĿ´": 2515,
        "Ġë¬¸ë§¥ìĹĲ": 2516,
        "ĠìĿ´ìłľë¶ĢíĦ°ëĬĶ": 2517,
        "ĠìķĦëĭĪë©´": 2518,
        "Ġê²ĥë¶ĢíĦ°": 2519,
        "ĠëĬ¥ëł": 2520,
        "ĠìĹŃíķłìĿ´ëĿ¼ê³ł": 2521,
        "ĠìŀĳìĹħìĿĦ": 2522,
        "Ġì§§ìķĦìĦľ": 2523,
        "ĠëĤ¨ëĬĶ": 2524,
        "ĠìĥĪë¡ľìļ´": 2525,
        "Ġë¡ľê·¸ë¥¼": 2526,
        "Ġë©Ķëī´ì²ĺëŁ¼": 2527,
        "ĠìĦłíĥĿì§Ģë¥¼": 2528,
        "¤íĸĪëĬĶì§Ģ": 2529,
        "¿ìĨįìĹĲ": 2530,
        "ĠëĨĢëĵ¯ìĿ´": 2531,
        "Ġìķłë§¤íĸĪëĬĶì§Ģ": 2532,
        "ĠìĦ¤ëªħíķ´ì£¼ëĬĶ": 2533,
        "Ġê°Ģê¹ĮìĽĮ": 2534,
        "Ġë¨¸ë¦¿ìĨįìĹĲ": 2535,
        "Ġìĸ´ëķłëĬĶì§Ģë¶ĢíĦ°": 2536,
        "Ġë¬¼ìĸ´ë´Ĳì¤ĺëıĦ": 2537,
        "Ġìĸĺê¸°íķ´ë³¼ê¹ĮìļĶ": 2538,
        "ĠíĴĢìĸ´ê°ĢëĬĶ": 2539,
        "Ġêµ´ëł¤ëıĦ": 2540,
        "Ġìĭ¬ìĭ¬íķľëį°": 2541,
        "ĠëĬ¥ëł¥ìĿĦ": 2542,
        "¥í": 2543,
        "«ìĸ´": 2544,
        "°ëĿ¼": 2545,
        "¾¸": 2546,
        "īìĿ´": 2547,
        "Ĳìłķ": 2548,
        "Ĵ¤": 2549,
        "ĵì§Ģ": 2550,
        "ķìĭĿ": 2551,
        "ĺëĭ¤": 2552,
        "ĻĪíİ": 2553,
        "Ľê³¼": 2554,
        "ĽìĿ´ëĤĺ": 2555,
        "Ŀëĭ¤": 2556,
        "ĠìĨį": 2557,
        "ĠëĴ¤": 2558,
        "Ġë§Ľê³¼": 2559,
        "´ëĭ¬ëĿ¼ê³ł": 2560,
        "Ġìŀ¥ë": 2561,
        "Ġìŀ¥í": 2562,
        "Ġê°Ĳìłķ": 2563,
        "Ġíĳľ": 2564,
        "ĠíĻĪíİ": 2565,
        "Ġëĭµíķĺê²łëĭ¤ê³ł": 2566,
        "Ġìłķë³": 2567,
        "ĠíķĺëĬĶì§Ģ": 2568,
        "ë§ĽìĿ´ëĤĺ": 2569,
        "Ġì§Ģìłģ": 2570,
        "ĠìĽĲíķľëĭ¤": 2571,
        "ĠìĦ¤ëªħë¶ĢíĦ°": 2572,
        "Ġê°Ģê¸°": 2573,
        "Ġê°Ģê¹": 2574,
        "Ġê°Ģìŀ¥": 2575,
        "Ġë§ŀì¶ĺëĭ¤": 2576,
        "ìĦ¤": 2577,
        "Ġì§Īë¬¸ìĿ´ëĭ¤": 2578,
        "ê³¼ìĹĲ": 2579,
        "ĠëĲĺë¬": 2580,
        "ĠìĥīìĿ´": 2581,
        "ìĿ´ëŀĳ": 2582,
        "Ġìª½ìĿĢ": 2583,
        "ĠëĤĺìĹ": 2584,
        "ĠëĤĺìĦľ": 2585,
        "Ġìĭ«ìĸ´": 2586,
        "ëĤłìĶ¨": 2587,
        "ĠìķĪëĤ": 2588,
        "ì²´ë¥¼": 2589,
        "Ġë¶Ģëĭ´": 2590,
        "Ġë¶Ħëªħ": 2591,
        "ĠëĮĢíĻĶíĺ": 2592,
        "Ġê°ķìĪĺ": 2593,
        "ĠìĿ´ìĥģíķĺëĭ¤ê³ł": 2594,
        "ĠìĿ¼ìĥģ": 2595,
        "Ġê¸°ëĬ¥": 2596,
        "ìĦ±ê¹Įì§Ģ": 2597,
        "ĠíĮĮìĿ¼ìĿ´": 2598,
        "Ġëĭ¬ëĿ¼": 2599,
        "Ġê°ĢëĬ¥íķľ": 2600,
        "Ġê°ĢëĬ¥ìĦ±ê¹Įì§Ģ": 2601,
        "Ġë¶ĻìĿĦ": 2602,
        "íĥĢ": 2603,
        "Ġë¶Ģë¥´ë©´": 2604,
        "Ġìłģìļ©": 2605,
        "Ġë¶Ħë¥ĺëĤĺ": 2606,
        "Ġë¶ĻìĹ¬ì¤ĺ": 2607,
        "ĠíĶ¼": 2608,
        "ĠíĻķìĿ¸íķ´ë³¼": 2609,
        "Ġë°Ķê¾¸": 2610,
        "ĠìĺĪì¸¡ìĿ´ëĤĺ": 2611,
        "ĠíĺķìĭĿ": 2612,
        "íĺĦ": 2613,
        "Ġë°ĽëĬĶëĭ¤": 2614,
        "Ġë²Īíĺ¸": 2615,
        "Ġêµ°ìĤ°ëĤłìĶ¨": 2616,
        "Ġê¸°ìĺ¨": 2617,
        "Ġëĭ¨ì": 2618,
        "Ġëĭ¨ë§ĽìĿ´ëĤĺ": 2619,
        "Ġê³µê°Ĳ": 2620,
        "Ġìĺ¨ëıĦ": 2621,
        "Ġìĥģíĥľë¥¼": 2622,
        "Ġìĥģíĥľë¶ĢíĦ°": 2623,
        "Ġë§Įëĵ¤ê¸°": 2624,
        "¯¸ê³¼ìĹĲ": 2625,
        "ĠíĴĢìĸ´ì£¼ëĬĶ": 2626,
        "Ġì¡°íļĮíķ´ìĦľ": 2627,
        "Ġì¡°íļĮíķ´ë³¼": 2628,
        "ĠëĶ°ëĿ¼": 2629,
        "Ġëª©ë¡ĿìĿĦ": 2630,
        "ĠíĴĪì¢ħìĹĲ": 2631,
        "Ġì°¾ê¸°": 2632,
        "Ġì°¾ìķĦì¤ĺ": 2633,
        "ĠìĿ´ìłĦ": 2634,
        "ĠìķĦëĭĪëĿ¼": 2635,
        "ĠìĿ¸ìĤ¬ìĹĲëĬĶ": 2636,
        "Ġê²ĥìĿ´": 2637,
        "ì¤Ģëĭ¤": 2638,
        "Ġë³Ģëªħ": 2639,
        "Ġìĭłíĺ¸": 2640,
        "Ġê¸¸ê²Į": 2641,
        "Ġëª¨ëĵľë¡ľ": 2642,
        "ĠìĨįíķĺëĬĶ": 2643,
        "Ġìŀ¥ë¯¸ê³¼ìĹĲ": 2644,
        "Ġìŀ¥íĻ©": 2645,
        "ĠíĳľíĺĦ": 2646,
        "ĠíĻĪíİĺìĿ´ì§ĢëĤĺ": 2647,
        "Ġìłķë³´": 2648,
        "Ġê°Ģê¹Ŀëĭ¤": 2649,
        "ĠëĲĺë¬»": 2650,
        "Ġìĭ«ìĸ´íķľëĭ¤": 2651,
        "Ġë¶ĦëªħíŀĪ": 2652,
        "ĠëĮĢíĻĶíĺķìľ¼ë¡ľ": 2653,
        "Ġê¸°ìĺ¨ìĿ´ëŀĳ": 2654,
        "ChatGPT": 2655,
        "](": 2656,
        "https": 2657,
        "¤íĥĢ": 2658,
        "¦ī": 2659,
        "§Ī": 2660,
        "°ê²°": 2661,
        "³´ëĭ¤": 2662,
        "´íķĺì§Ģ": 2663,
        "´íķľëĭ¤": 2664,
        "ëĲ": 2665,
        "ëŃ": 2666,
        "ë¯¸": 2667,
        "ìħ": 2668,
        "ìĨĮ": 2669,
        "íĽ": 2670,
        "Ġ[": 2671,
        "Ĩĵì§Ģ": 2672,
        "Īíķ": 2673,
        "ĪľíŀĪ": 2674,
        "Ĭ¤íĥĢ": 2675,
        "ĸ´ì": 2676,
        "ĺĲ": 2677,
        "ĺìĿĦ": 2678,
        "ĺìĸ´ë": 2679,
        "Ġì¦ī": 2680,
        "ĠìĬ¤íĥĢ": 2681,
        "ĠëĺĲ": 2682,
        "´ì§Ī": 2683,
        "´ìĸ´ì": 2684,
        "ê²©": 2685,
        "´ë³´ëĭ¤": 2686,
        "Ġë§Ĳíķĺê²łëĭ¤ê³ł": 2687,
        "ìĸ´íķĺì§Ģ": 2688,
        "ê°Ħ": 2689,
        "Ġíķ´ëĭ¬ëĿ¼ê³ł": 2690,
        "ĠìłĦ": 2691,
        "ìķĦëĭĪ": 2692,
        "ìĭ¤": 2693,
        "Ġìłķëĭµ": 2694,
        "Ġìłķì¤": 2695,
        "Ġìłķì²´ë¥¼": 2696,
        "ìľ¼ëĭĪ": 2697,
        "Ġë¶Īíķ": 2698,
        "Ġë°©ìĸ´ì": 2699,
        "Ġë°©ìĸ´íķĺì§Ģ": 2700,
        "ìĭľê°Ħ": 2701,
        "ëĭ¤ëĬĶ": 2702,
        "ĠìĿ´ìĸ´ì§Ī": 2703,
        "ĠìķĦì£¼": 2704,
        "ĠìĹ´ë¦": 2705,
        "ĠìĹ°ê²°": 2706,
        "ĠìĹ´ìĸ´ì": 2707,
        "Ġìĥģ": 2708,
        "Ġì¤ĦìĿ¸ëĭ¤": 2709,
        "ĠëıĦìĽ": 2710,
        "Ġë°ĺìĺ": 2711,
        "ĠëĮĢíĻĶë¥¼": 2712,
        "Ġìłľìĭľ": 2713,
        "Ġìļ°ìĦł": 2714,
        "Ġì¶Ķê°Ģ": 2715,
        "Ġíķłì§Ģ": 2716,
        "Ġì£¼ëĬĶ": 2717,
        "Ġì²«": 2718,
        "íķ´ìķ¼": 2719,
        "ĠëĶ±ëĶ±íķľ": 2720,
        "ĠìĹ¬ë¶Ģ": 2721,
        "ëĵľë°": 2722,
        "ë°Ľ": 2723,
        "Ġë¶ĻìĿ¸ëĭ¤": 2724,
        "Ġêµ´ì§Ģ": 2725,
        "ĠìĤ¬ìĿ´íĬ¸ë¥¼": 2726,
        "ĠìłģìĿĳ": 2727,
        "ĠìłģìłĪ": 2728,
        "ĦìļĶíķľ": 2729,
        "ĠìĿ´ê±": 2730,
        "ĠìĿ´íĽ": 2731,
        "ĠìĿĺë¯¸": 2732,
        "ĠëĮĢìķĪ": 2733,
        "ĠìļĶì²ŃìĿĢ": 2734,
        "ĠìļĶì²ŃìĿ´ëĭ¤": 2735,
        "Ġë³´ëĤ´ë©´": 2736,
        "ĠìŀĲê¸°ìĨĮê°ľíķľëĭ¤": 2737,
        "ëĦĪ": 2738,
        "Ġì§ģìĦ¤": 2739,
        "Ġë°Ķê¿Ķì¤Ģëĭ¤": 2740,
        "ĠìĹ¬ê¸°ìķ¼": 2741,
        "Ġì§ģìłĳìłģìĿ¸": 2742,
        "ë©°": 2743,
        "ĠìĨĮê°ľíķľëĭ¤": 2744,
        "íĻķíŀĪ": 2745,
        "ĠìĿ´ìķ¼ê¸°íķĺìŀĲê³ł": 2746,
        "Ġì¡°íļĮê°Ģ": 2747,
        "ĠìľłëıĦ": 2748,
        "ĠìŀĲìĹ°ìĬ¤ëŁ½ëĭ¤": 2749,
        "ĠêµĲìłķ": 2750,
        "ĠíĬ¹ìłķ": 2751,
        "ĠìĦłíĺ¸": 2752,
        "ĠëĬĺìĸ´ë": 2753,
        "ĠìĹŃíķłìĿĦ": 2754,
        "Ġê¸°ë³¸ìłģìĿ¸": 2755,
        "ìĺ¤": 2756,
        "Ġë³Ģê²": 2757,
        "Ġìĭ¤ìłľ": 2758,
        "Ġìĭ¤ìĭľê°Ħ": 2759,
        "Ġë°ĺìĿĳìĿ´": 2760,
        "ĠëªħíĻķíŀĪ": 2761,
        "Ġê³¼ìŀ¥ëĲ": 2762,
        "Ġì§Ģìłģíķĺë©´": 2763,
        "ĠëĤĺìĹ´íķĺì§Ģ": 2764,
        "ĠìķĪëĤ´íķľëĭ¤": 2765,
        "ĠíĶ¼ëĵľë°": 2766,
        "Ġë°Ķê¾¸ê²łëĭ¤ê³ł": 2767,
        "ĠíĺķìĭĿìĿĦ": 2768,
        "Ġëĭ¨ìĪľíŀĪ": 2769,
        "Ġê³µê°Ĳíķĺê³ł": 2770,
        "Ġìĭłíĺ¸ëĭ¤": 2771,
        "Ġìŀ¥íĻ©íķĺì§Ģ": 2772,
        "ĠíĳľíĺĦìľ¼ë¡ľ": 2773,
        "ĠëĲĺë¬»ê¸°ë³´ëĭ¤": 2774,
        "Ġìĭ«ìĸ´íķľëĭ¤ê³ł": 2775,
        "ëŃĲ": 2776,
        "Ġì¦īìĭľ": 2777,
        "ĠìĬ¤íĥĢìĿ¼": 2778,
        "ìķĦëĭĪìĺ¤": 2779,
        "Ġìłķì¤ĳ": 2780,
        "Ġë¶ĪíķĦìļĶíķľ": 2781,
        "Ġë°©ìĸ´ìłģìľ¼ë¡ľ": 2782,
        "ĠìĹ´ë¦°": 2783,
        "ĠìĹ°ê²°íķľëĭ¤": 2784,
        "Ġë°ĺìĺģ": 2785,
        "ĠìłģìĿĳíķĺê²łëĭ¤ê³ł": 2786,
        "ĠìłģìłĪíķĺëĭ¤": 2787,
        "ĠìĿ´ê±´": 2788,
        "ĠìĿ´íĽĦ": 2789,
        "Ġì§ģìĦ¤ìłģìľ¼ë¡ľ": 2790,
        "ĠëĬĺìĸ´ëĨĵì§Ģ": 2791,
        "Ġê³¼ìŀ¥ëĲľ": 2792,
        "ĠíĶ¼ëĵľë°±": 2793,
        "?'": 2794,
        "¡±": 2795,
        "¡Ń": 2796,
        "¢°": 2797,
        "¤Ģëĭ¤": 2798,
        "§Ø": 2799,
        "§Į": 2800,
        "§ë¶": 2801,
        "§ë°": 2802,
        "¨ìĿĦ": 2803,
        "¨íķĺëĭ¤": 2804,
        "«ëĭ¤": 2805,
        "¬ë¥¼": 2806,
        "°Ľ": 2807,
        "°ê³¼": 2808,
        "±ê²©": 2809,
        "³Ø": 2810,
        "´ê¸°": 2811,
        "µľ": 2812,
        "µìħ": 2813,
        "¶Ģ": 2814,
        "·ľ": 2815,
        "·íķĺê²Į": 2816,
        "¸ë": 2817,
        "¸íķ": 2818,
        "¸ëĭ¤ê³ł": 2819,
        "¸ëªħ": 2820,
        "¹ľëĭ¤": 2821,
        "»Ķ": 2822,
        "¼ëŀĢ": 2823,
        "½ìĹĲ": 2824,
        "½ëĭ¤": 2825,
        "½íķĺì§Ģ": 2826,
        "Ø§Ø": 2827,
        "Ùħ": 2828,
        "ÙĨ": 2829,
        "ê¶ģ": 2830,
        "ëĥ": 2831,
        "ëĪ": 2832,
        "ëĮ": 2833,
        "ë¢°": 2834,
        "ì¡±": 2835,
        "íĻ": 2836,
        "íĳľ": 2837,
        "ĠÙħ": 2838,
        "Ģìķ¼": 2839,
        "Ģëł": 2840,
        "Ģìŀ¥": 2841,
        "ĢìĿĺ": 2842,
        "Ĥ´ì§Ģ": 2843,
        "Ħëĭ¤": 2844,
        "ĦìŀĲ": 2845,
        "ĦíĻĶ": 2846,
        "ĦìĭĿ": 2847,
        "Ħëĭ¨": 2848,
        "Ī¨": 2849,
        "ĪìĿĮ": 2850,
        "ĪìĿĺ": 2851,
        "Īìľ¼ëĭĪ": 2852,
        "ĭĿ": 2853,
        "įìłķ": 2854,
        "Ĳê³ł": 2855,
        "ĳìłķ": 2856,
        "ĵê²Į": 2857,
        "Ķë¡ľ": 2858,
        "Ķê²łëĭ¤ê³ł": 2859,
        "ĹĲ": 2860,
        "ĺìĿĢ": 2861,
        "ĺê°Ģ": 2862,
        "ĻìĿ¸ëĭ¤": 2863,
        "ĿìĦ¤": 2864,
        "łëĭ¤ê³ł": 2865,
        "łë¥¸": 2866,
        "Ńìĸ´ë¡ľ": 2867,
        "ĠìĦľ": 2868,
        "ĠìĨĮ": 2869,
        "Ġìµľ": 2870,
        "ĠìĪ¨": 2871,
        "ĠëĤ¬": 2872,
        "Ġë»Ķ": 2873,
        "Ġê·ľ": 2874,
        "Ġë§ĪìĿĮ": 2875,
        "Ġë§ĿìĦ¤": 2876,
        "íķĺëĲĺ": 2877,
        "íķĺëıĦë¡Ŀ": 2878,
        "íķĺë©°": 2879,
        "íķĺëĥ": 2880,
        "´ë¡ľ": 2881,
        "´ëł¤": 2882,
        "´ë°Ľ": 2883,
        "´ë¶Ģ": 2884,
        "ê³Ħ": 2885,
        "ê¸´ëĭ¤": 2886,
        "Ġë§Ĳíķĺê²Į": 2887,
        "Ġë§Ĳíķĺê³ł": 2888,
        "Ġë§ĲëĿ¼ê³ł": 2889,
        "Ġë§ĲëĿ¼ëĬĶ": 2890,
        "Ġë§ĲíķĺëıĦë¡Ŀ": 2891,
        "ë¡ľë³´ëĭ¤": 2892,
        "ìĿ´ê²łëĭ¤ê³ł": 2893,
        "Ġê°Ħëĭ¨": 2894,
        "ĠìķĪ": 2895,
        "ìłĦìĭĿ": 2896,
        "ì§Ģê°Ģ": 2897,
        "ì§Ģë¥¼": 2898,
        "ìĹĶ": 2899,
        "¤ëĭ¤": 2900,
        "ĠìłĢìŀ¥": 2901,
        "ìķĦíĥĢ": 2902,
        "Ġëį§ë¶": 2903,
        "ĠìŀĪê²Į": 2904,
        "ĠìŀĪìĿĦ": 2905,
        "ĠìŀĪëĭ¤": 2906,
        "ĠìŀĪìĸ´ìķ¼": 2907,
        "ĠìŀĪìľ¼ëĭĪ": 2908,
        "Īë§Į": 2909,
        "ë¦¬íķĺëĭ¤": 2910,
        "Ġëĭµìľ¼ë¡ľ": 2911,
        "Ġëĭµíķĺì§Ģ": 2912,
        "ê°Ģìķ¼": 2913,
        "Ġì§ĪìĿĺ": 2914,
        "ĠëŃĲíķĺëĥ": 2915,
        "ëıĦíķľ": 2916,
        "Ģíĥģ": 2917,
        "ĠìłķíķĺëĬĶ": 2918,
        "Ġìłķíķ´ë³´ìŀĲ": 2919,
        "ĠíķĺëĲĺ": 2920,
        "Ġìĺµìħ": 2921,
        "íķľìĿĺ": 2922,
        "ĠëĦĵì§Ģ": 2923,
        "ĠëĦĵê²Į": 2924,
        "ìľ¼ëĿ¼ëĬĶ": 2925,
        "Ġì§Ģìĸ´ë": 2926,
        "Ġì§ĢìĽ": 2927,
        "íķłê¹Į": 2928,
        "Ġë§ŀëĭ¤": 2929,
        "Ġë¶Īíİ": 2930,
        "Ġë¶Īë§Į": 2931,
        "Ġë¶Ģíĥģ": 2932,
        "Ġìłķë¦¬íķĺìŀĲ": 2933,
        "ĠìŀĲì²´ë¥¼": 2934,
        "ĠìĤ¬ìĭ¤": 2935,
        "ĠìĤ¬ìłĦìĭĿ": 2936,
        "ìĭľìłģìľ¼ë¡ľ": 2937,
        "ĠìĿ´ìĸ´ë°Ľ": 2938,
        "ìŀĦ": 2939,
        "ĠìĦ±ê²©": 2940,
        "ĠìķĦëĬĶì§Ģ": 2941,
        "ĠìĦ¤ëªħìĿ´": 2942,
        "ĠìĦ¤ëªħìĿĢ": 2943,
        "ĠìĦ¤ëªħíķĺëĬĶ": 2944,
        "ĠìĦ¤ëªħíķĺê²łëĭ¤ê³ł": 2945,
        "Ġê°Ģê²łëĭ¤ê³ł": 2946,
        "Ġë§ŀì¶Ķê²łëĭ¤ê³ł": 2947,
        "ëł·íķĺê²Į": 2948,
        "Ġíķľêµ": 2949,
        "Ġì§Īë¬¸ìĿ´": 2950,
        "Ġì§Īë¬¸ê¹Įì§Ģ": 2951,
        "Ġì§Īë¬¸ìĹĲëıĦ": 2952,
        "Ġì§Īë¬¸ìĿ´ë¯Ģë¡ľ": 2953,
        "ĠëĤ«ëĭ¤": 2954,
        "ĠëĤ´ë¶Ģ": 2955,
        "ĠìĹ´ìĹ": 2956,
        "ĠìĹ´ëł¤": 2957,
        "ìĸ´ëĭ¬ëĿ¼ê³ł": 2958,
        "Ġê³łì": 2959,
        "Ġê³§ë°": 2960,
        "ĠëĲĺë°Ľ": 2961,
        "Ġì¤ĦìĿĦ": 2962,
        "Ġì¤Ħë¶ĢíĦ°": 2963,
        "ìĬ¤ë¥¼": 2964,
        "ìĿ´ë¥¼": 2965,
        "ĠëĤĺëĪ": 2966,
        "Ġë°©íĸ¥ë§Į": 2967,
        "Ġë¬´ìŀ": 2968,
        "ĠëıĦêµ¬": 2969,
        "Ġê±°ì°": 2970,
        "Ġê±°ë¶Ģ": 2971,
        "Ġê±°ìłĪ": 2972,
        "íķ´ê°Ģ": 2973,
        "ìĻľê·¸ëŀĺ": 2974,
        "Ġíİ¸ìķĪ": 2975,
        "Ġì½Ķëĵľë¥¼": 2976,
        "ëł¤ëĬĶ": 2977,
        "µ¬ì²ĺëŁ¼": 2978,
        "ìŀĲëĬĶ": 2979,
        "ëĬ¥ê°Ĳ": 2980,
        "Ġë¶Ģì¡±": 2981,
        "Ġë¶Ħíķ´ê°Ģ": 2982,
        "ĠëĮĢíĻĶìĹĲìĦľ": 2983,
        "ìĹĲìĦľëĬĶ": 2984,
        "ìłľëĮĢë¡ľ": 2985,
        "Ġì¹ľêµ¬ì²ĺëŁ¼": 2986,
        "Ġì¹ľê·¼íķĺê³ł": 2987,
        "Ġìłľìķ½": 2988,
        "íķĺì§Ģë§Į": 2989,
        "Ġì½ĶëĶ©ìĿĦ": 2990,
        "Ġì¤ĳìĿ´ëĿ¼": 2991,
        "Ġë¬¼ìĿĮ": 2992,
        "Ġë¬¼ìĸ´ëıĦ": 2993,
        "Ġê¸įìłķ": 2994,
        "Ġì¶Ķê¶ģ": 2995,
        "ĠìĿ´ìĥģíķľ": 2996,
        "ĠìĿ´ìĥģíķĺëĭ¤": 2997,
        "Ġê°Ģë³įê³ł": 2998,
        "ìĿĮìĿĦ": 2999,
        "Ġìŀ¡ëĬĶëĭ¤": 3000,
        "Ġìŀ¡ìŀĲëĬĶ": 3001,
        "ĠìĪĺìłķíķĺê²łëĭ¤ê³ł": 3002,
        "Ġê¸°ê³Ħ": 3003,
        "Ġì¡°ìłĪ": 3004,
        "ĠìĻ¸ë": 3005,
        "ĠìĻĢìķ¼": 3006,
        "ĠìĻĦíĻĶ": 3007,
        "Ġë¹łë¥¸": 3008,
        "ĠBeeëĿ¼ëĬĶ": 3009,
        "ĠìĿ´ìĸ´ê°Ħëĭ¤": 3010,
        "Ġìī´": 3011,
        "Ġìī½ëĭ¤": 3012,
        "Ġì£¼ê³ł": 3013,
        "Ġì£¼ìĨĮ": 3014,
        "ìļ°ë¦¬": 3015,
        "Ġë§ĲíĪ¬ë¥¼": 3016,
        "íķ´ìĹĲ": 3017,
        "Ġë¨¼ìłĢëĭ¤": 3018,
        "ĠìłľìķĪíķľ": 3019,
        "ĠìłľìķĪíķĺëĬĶ": 3020,
        "ĠìĹĨëĬĶ": 3021,
        "Ġìĸ´ìĥīíķľ": 3022,
        "Ġìĸ´ìĥīíķĺê²Į": 3023,
        "Ġìĸ´ìĥīíķĺëĭ¤": 3024,
        "Ġëĵłëĭ¤ê³ł": 3025,
        "Ġê³¼íķľ": 3026,
        "Ġê³¼ëıĦíķľ": 3027,
        "Ġëĭ¬ëĿ¼ëĬĶ": 3028,
        "ĠìķĬëĬĶëĭ¤": 3029,
        "ĠëĤłìĶ¨ë¥¼": 3030,
        "ĠìĹ¬ì§Ģë¥¼": 3031,
        "Ġë°ĺë³µìĿĦ": 3032,
        "Ġìĭ¶ìĿĢì§Ģ": 3033,
        "ë°ķ": 3034,
        "Ġë¶ĻìĿ´ê²łëĭ¤ê³ł": 3035,
        "Ġìĸ´ìĥīíĸĪìĿĮìĿĦ": 3036,
        "Ġìĸ¸ìĸ´ë¡ľ": 3037,
        "ìĤ¬ë¥¼": 3038,
        "Ġê²°ê³¼": 3039,
        "Ġêµ¬ì¡°ë¥¼": 3040,
        "Ġêµ¬ì¡°íĻĶ": 3041,
        "ĠíĨ¤ìĿ´": 3042,
        "Ġêº¼ëĤ´ê¸°": 3043,
        "ëĭµìĿĦ": 3044,
        "Ġë¬»ê³ł": 3045,
        "ĠìĿ´íķ´ìĹĲ": 3046,
        "Ġì¤ĺìķ¼": 3047,
        "ĠìĿĺì§Ģê°Ģ": 3048,
        "ĠìĿĺìĤ¬ë¥¼": 3049,
        "Ġíķ´ê²°ë³´ëĭ¤": 3050,
        "ĠëĮĢìĿĳ": 3051,
        "ĠìĥĿìĦ±ì²ĺëŁ¼": 3052,
        "ĠìļĶì²ŃìĿ´": 3053,
        "ĠìļĶì²ŃìĿĦ": 3054,
        "ĠìļĶì²ŃìĹĲ": 3055,
        "ĠìļĶì²Ńíķľëĭ¤": 3056,
        "ĠìļĶì²Ńíķĺë©°": 3057,
        "Ġë³´ëĤ´ì§Ģ": 3058,
        "Ġë³´ëĤ´ëĭ¬ëĿ¼ê³ł": 3059,
        "ĠìŀĲê¸°ìĨĮê°ľë¡ľ": 3060,
        "ĠìŀĲê¸°ìĨĮê°ľíķĺì§Ģ": 3061,
        "´ìŀ¬ë¥¼": 3062,
        "Ġì§ģëĭµìĿĦ": 3063,
        "Ġëľ»ìĹĲ": 3064,
        "Ġíĺ¸ëªħ": 3065,
        "Ġíĺ¼ëŀĢ": 3066,
        "ĠìĿ´ë¦Ħê³¼": 3067,
        "íĺ¸ë¡ľ": 3068,
        "Ġë¬»ëĬĶëĭ¤": 3069,
        "Ġìŀĺê²Į": 3070,
        "ĠìļĶìķ½íķľëĭ¤": 3071,
        "Ġë¹¼ê¸°": 3072,
        "ĠìĪľìĦľê°Ģ": 3073,
        "Ġë©Ķëī´ë¡ľ": 3074,
        "ë¹ĦìĬ¤ë¥¼": 3075,
        "ĠíĺĦìĥģ": 3076,
        "ĠíĺĦìĭ¤": 3077,
        "ĠìĻľëĿ¼ëĬĶ": 3078,
        "Ġíŀĺëĵ¤ëĭ¤": 3079,
        "Ġì¤ĦìĿ´ê²łëĭ¤ê³ł": 3080,
        "Ġì¡´ìŀ¬ë¥¼": 3081,
        "Ġê³µê²©": 3082,
        "ĠìĿ¸ìłķíķĺëĬĶ": 3083,
        "ĠìĿ¸ìłķê³¼": 3084,
        "ĠìĿ¸ìłķíķ´ìķ¼": 3085,
        "ĠìĨĮê°ľë³´ëĭ¤": 3086,
        "ĠìĿ´ìĸ´ê°Ģìķ¼": 3087,
        "ĠìĿ´ìĸ´ê°Ģëł¤ëĬĶ": 3088,
        "ĠìĥģíĥľëĤĺ": 3089,
        "Ġë§īíŀĺìĿĢ": 3090,
        "Ġë°ĽìķĦì£¼": 3091,
        "Ġë°ĽìķĦì¤Ģëĭ¤": 3092,
        "Ġì§ĢìĹŃëªħìĿ´": 3093,
        "Ġë§Įëĵ¤ìĸ´ìķ¼": 3094,
        "Ġë§Įëĵ¤ìĸ´ëĭ¬ëĿ¼ê³ł": 3095,
        "ĠìłķìĿĺëĭ¤": 3096,
        "ĠìłķìĿĺíĺķ": 3097,
        "Ġë§īíŀĮëĭ¤ê³ł": 3098,
        "Ġë¶ĦìľĦê¸°ë¥¼": 3099,
        "ì¹Ļ": 3100,
        "ì¹ĺê°Ģ": 3101,
        "Ġê°ĪìķĦíĥĢ": 3102,
        "ĠëĦĺìĸ´ê°Ģìķ¼": 3103,
        "Ġìĭ¬ìĭ¬íķĺëĭ¤ê³ł": 3104,
        "Ġì¡°íļĮë¡ľ": 3105,
        "ĠìľĦë¡ľë³´ëĭ¤": 3106,
        "ĠìľĦì¹ĺê°Ģ": 3107,
        "ĠìłķíĻķíķĺëĭ¤": 3108,
        "Ġëª©ë¡Ŀë³´ëĭ¤": 3109,
        "Ġëª©ë¡Ŀíĺķ": 3110,
        "Ġìľłë¦¬íķĺëĭ¤": 3111,
        "Ġìķķë°ķ": 3112,
        "Ġì°¾ìľ¼ë©´": 3113,
        "Ġì°¾ìľ¼ëĿ¼ëĬĶ": 3114,
        "ĠíĭĢëł": 3115,
        "ĠìĿ¸ìĤ¬ë¡ľ": 3116,
        "ĠìĿ¸ìĤ¬ë¥¼": 3117,
        "ĠìĿ¸ìĤ¬íķľëĭ¤": 3118,
        "Ġì¤ĳìļĶíķĺëĭ¤": 3119,
        "Ġë³´ìĹ¬ì£¼ëĬĶ": 3120,
        "Ġë§¥ëĿ½ìĹĲ": 3121,
        "ĠìŀĳìĹħìĿ´ëĭ¤": 3122,
        "Ġë§Įëĵłëĭ¤": 3123,
        "Ġë©Ķëī´íĺķ": 3124,
        "Ġë¬´ìĹĩê¹Įì§Ģ": 3125,
        "ìĺĪ": 3126,
        "Ġì¢ĭëĭ¤ëĬĶ": 3127,
        "Ġì§§ìķĦëıĦ": 3128,
        "ĠëĤ¨ê¸´ëĭ¤": 3129,
        "Ġìĭ¤ìłľë¡ľ": 3130,
        "Ġìĭłë¢°": 3131,
        "Ġìĭłíĺ¸ë¡ľ": 3132,
        "Ġë°ĺìĿĳìĿĦ": 3133,
        "Ġë°ĺìĿĳíķĺë©´": 3134,
        "Ġë°ĺìĿĳíķľëĭ¤": 3135,
        "Ġê¸¸ìĿ´": 3136,
        "Ġê¸¸ìĿ´ë¥¼": 3137,
        "Ġë¡ľê·¸ëĤĺ": 3138,
        "Ġë©Ķëī´ìĭĿ": 3139,
        "Ġëª¨ëĵľê°Ģ": 3140,
        "Ġëª¨ëĵľë³´ëĭ¤": 3141,
        "ĠëªħìĤ¬": 3142,
        "Ġëªħìĭľìłģìľ¼ë¡ľ": 3143,
        "ĠìŀĪëĬĶì§ĢëıĦ": 3144,
        "ĠëĴ¤ìĹĲ": 3145,
        "ĠëĴ¤ìĹĲëĬĶ": 3146,
        "Ġì§Ģìłģë°Ľ": 3147,
        "ĠëĤĺìĹ´ë³´ëĭ¤": 3148,
        "ĠìķĪëĤ´ë³´ëĭ¤": 3149,
        "Ġë¶Ģëĭ´ìĿĦ": 3150,
        "ĠìĿ¼ìĥģìłģìĿ¸": 3151,
        "Ġìłģìļ©ìĿĦ": 3152,
        "Ġìłģìļ©íķ´ìķ¼": 3153,
        "ĠíĶ¼íķĺê³ł": 3154,
        "Ġë°Ķê¾¸ëĬĶ": 3155,
        "Ġëĭ¨ìĪľ": 3156,
        "Ġê³µê°Ĳê³¼": 3157,
        "Ġë³Ģëªħíķĺì§Ģ": 3158,
        "Ġë³Ģëªħë³´ëĭ¤": 3159,
        "Ġìĭłíĺ¸ë¥¼": 3160,
        "Ġìŀ¥íĻ©íķľ": 3161,
        "ĠíĳľíĺĦìĿ´ëĭ¤": 3162,
        "ĠëĲĺë¬»ì§Ģ": 3163,
        "ìħľ": 3164,
        "ìĨĮíķľìĿĺ": 3165,
        "ĠëĺĲëł·íķĺê²Į": 3166,
        "ĠìłĦíĻ": 3167,
        "ĠìłĦëĬ¥ê°Ĳ": 3168,
        "Ġìłķëĭµë¶ĢíĦ°": 3169,
        "ĠìĹ´ìĸ´ì£¼ëĬĶ": 3170,
        "ĠìĹ´ìĸ´ì¤Ģëĭ¤": 3171,
        "ĠìĥģìĦ¸": 3172,
        "ĠìĥģëĮ": 3173,
        "ĠëıĦìĽĢ": 3174,
        "ĠëıĦìĽĢìĿĦ": 3175,
        "Ġìłľìĭľíķĺê³ł": 3176,
        "Ġìłľìĭľíķľëĭ¤": 3177,
        "Ġìļ°ìĦłìĿ´ëĭ¤": 3178,
        "ĠìĹ¬ë¶Ģë§Į": 3179,
        "ĠìĿĺë¯¸ê°Ģ": 3180,
        "ĠìĿĺë¯¸ë¥¼": 3181,
        "ĠëĮĢìķĪìĿ´": 3182,
        "ĠëĮĢìķĪìĿĦ": 3183,
        "ĠìľłëıĦíķľëĭ¤": 3184,
        "ĠìľłëıĦíķĺëĲĺ": 3185,
        "ĠêµĲìłķë³´ëĭ¤": 3186,
        "ĠìĦłíĺ¸ë¥¼": 3187,
        "Ġë³Ģê²½": 3188,
        "Ġë³Ģê²½ìĿĦ": 3189,
        "ëŃĲíķ´": 3190,
        "ëŃĲíķłê¹Į": 3191,
        "ìķĦëĭĪìĺ¤ìĻĢ": 3192,
        "Ġìłķì¤ĳíķľ": 3193,
        "Ġìłķì¤ĳíķĺì§Ģë§Į": 3194,
        "Ġë°ĺìĺģíķĺê³ł": 3195,
        "Ġë°ĺìĺģíķľëĭ¤": 3196,
        "ĠìĿ´íĽĦìĹĶ": 3197,
        "ĠíĶ¼ëĵľë°±ìĿĦ": 3198,
        "ĠíĶ¼ëĵľë°±ìĹĲëĬĶ": 3199,
        "¡Ńëĭ¤ëĬĶ": 3200,
        "³Ø¨íķĺëĭ¤": 3201,
        "¸íķ¨ìĿĦ": 3202,
        "Ø§Ø³Ø¨íķĺëĭ¤": 3203,
        "ÙĨØ§Ø³Ø¨íķĺëĭ¤": 3204,
        "íĳľë§Į": 3205,
        "ĠÙħÙĨØ§Ø³Ø¨íķĺëĭ¤": 3206,
        "ĦìŀĲê³ł": 3207,
        "ĠìĦľë¹ĦìĬ¤ë¥¼": 3208,
        "ĠìĨĮìħľ": 3209,
        "ĠìµľìĨĮíķľìĿĺ": 3210,
        "ĠëĤ¬ëĭ¤ëĬĶ": 3211,
        "Ġë»Ķíķľ": 3212,
        "Ġê·ľì¹Ļ": 3213,
        "Ġë§ĪìĿĮìĹĲ": 3214,
        "Ġë§ĿìĦ¤ìŀĦ": 3215,
        "Ġê°Ħëĭ¨íŀĪ": 3216,
        "Ġëį§ë¶ĻìĿ¸ëĭ¤": 3217,
        "Ġì§ĪìĿĺëĭ¤": 3218,
        "ĠëŃĲíķĺëĥĲê³ł": 3219,
        "Ġìłķíķ´ë³´ìŀĲëĬĶ": 3220,
        "ĠìĺµìħĺìĿĦ": 3221,
        "Ġì§Ģìĸ´ëĤ´ì§Ģ": 3222,
        "Ġì§ĢìĽĲ": 3223,
        "Ġë¶Īíİ¸íķ¨ìĿĦ": 3224,
        "Ġë¶Īë§ĮìĿĦ": 3225,
        "Ġë¶Ģíĥģíķĺë©´": 3226,
        "Ġìłķë¦¬íķĺìŀĲê³ł": 3227,
        "ĠìĤ¬ìĭ¤ìĿĦ": 3228,
        "ĠìĿ´ìĸ´ë°ĽëĬĶëĭ¤": 3229,
        "ĠìĦ±ê²©ìĿĦ": 3230,
        "ĠíķľêµŃìĸ´ë¡ľ": 3231,
        "ĠìĹ´ìĹĪìľ¼ëĭĪ": 3232,
        "Ġê³łì¹ľëĭ¤": 3233,
        "Ġê³§ë°Ķë¡ľ": 3234,
        "ĠëĲĺë°Ľì§Ģ": 3235,
        "ĠëĤĺëĪĦìŀĲê³ł": 3236,
        "Ġë¬´ìŀĳìłķ": 3237,
        "ĠëıĦêµ¬íĺķ": 3238,
        "Ġê±°ì°½íķĺì§Ģ": 3239,
        "Ġê±°ë¶Ģíķĺë©´": 3240,
        "Ġê±°ìłĪíķĺë©´": 3241,
        "Ġíİ¸ìķĪíķľ": 3242,
        "Ġë¶Ģì¡±ë³´ëĭ¤": 3243,
        "Ġìłľìķ½ìĿĢ": 3244,
        "Ġì¤ĳìĿ´ëĿ¼ëĬĶ": 3245,
        "Ġë¬¼ìĿĮíĳľë§Į": 3246,
        "Ġê¸įìłķìłģìľ¼ë¡ľ": 3247,
        "Ġì¶Ķê¶ģíķĺì§Ģ": 3248,
        "ĠìĿ´ìĥģíķĺëĭ¤ëĬĶ": 3249,
        "ĠìĻ¸ë¡Ńëĭ¤ëĬĶ": 3250,
        "ĠìĻĦíĻĶíĺķ": 3251,
        "Ġì£¼ìĨĮë¥¼": 3252,
        "Ġêµ¬ì¡°íĻĶíķĺì§Ģ": 3253,
        "ĠëĮĢìĿĳìĹĲìĦľëĬĶ": 3254,
        "Ġíĺ¸ëªħìĹĲ": 3255,
        "ĠíĺĦìĭ¤ìłģìĿ¸": 3256,
        "Ġíŀĺëĵ¤ëĭ¤ëĬĶ": 3257,
        "Ġê³µê²©ìłģìľ¼ë¡ľ": 3258,
        "Ġë°ĽìķĦì£¼ê³ł": 3259,
        "Ġê°ĪìķĦíĥĢë©°": 3260,
        "ĠíĭĢëł¸ëĭ¤ê³ł": 3261,
        "Ġìĭłë¢°ìĹĲ": 3262,
        "Ġì§Ģìłģë°Ľìľ¼ë©´": 3263,
        "ĠìłĦíĻĺìĿĦ": 3264,
        "ĠìĥģëĮĢìĿĺ": 3265
      },
      "merges": [
        [
          "Ġ",
          "ì"
        ],
        [
          "Ġ",
          "ë"
        ],
        [
          "í",
          "ķ"
        ],
        [
          "ì",
          "Ŀ"
        ],
        [
          "Ġ",
          "ê"
        ],
        [
          "´",
          "ì"
        ],
        [
          "a",
          "n"
        ],
        [
          "ê",
          "²"
        ],
        [
          "s",
          "t"
        ],
        [
          "e",
          "r"
        ],
        [
          "Ġë",
          "§"
        ],
        [
          "an",
          "t"
        ],
        [
          "s",
          "s"
        ],
        [
          "A",
          "ss"
        ],
        [
          "U",
          "s"
        ],
        [
          "i",
          "st"
        ],
        [
          "Ass",
          "ist"
        ],
        [
          "Us",
          "er"
        ],
        [
          "Assist",
          "ant"
        ],
        [
          "ê²",
          "Į"
        ],
        [
          "íķ",
          "ĺ"
        ],
        [
          "´",
          "ë"
        ],
        [
          "ê",
          "³"
        ],
        [
          "ì",
          "ĸ"
        ],
        [
          "§",
          "Ģ"
        ],
        [
          "¡",
          "ľ"
        ],
        [
          "ë",
          "Ĭ"
        ],
        [
          "ì",
          "ķ"
        ],
        [
          "Ġì",
          "Ŀ"
        ],
        [
          "ê³",
          "ł"
        ],
        [
          "ê",
          "¸"
        ],
        [
          "Ġë§",
          "Ĳ"
        ],
        [
          "ë",
          "¡ľ"
        ],
        [
          "ìĿ",
          "´"
        ],
        [
          "Ġì",
          "ŀ"
        ],
        [
          "Ġë",
          "°"
        ],
        [
          "Ġë",
          "ĭ"
        ],
        [
          "ëĬ",
          "Ķ"
        ],
        [
          "Ġê",
          "°"
        ],
        [
          "ìĸ",
          "´"
        ],
        [
          "Ġ",
          "í"
        ],
        [
          "ı",
          "Ħ"
        ],
        [
          "Ġì",
          "ķ"
        ],
        [
          "ì",
          "ł"
        ],
        [
          "ì",
          "§Ģ"
        ],
        [
          "ì",
          "Ĺ"
        ],
        [
          "ê",
          "°"
        ],
        [
          "¤",
          "ë"
        ],
        [
          "Ġ",
          "íķ"
        ],
        [
          "Ĥ",
          "ĺ"
        ],
        [
          "Ħ",
          "ľ"
        ],
        [
          "Ġì",
          "ł"
        ],
        [
          "¤",
          "ĺ"
        ],
        [
          "ìķ",
          "Ħ"
        ],
        [
          "Ġë§Ĳ",
          "íķ"
        ],
        [
          "ë",
          "¦"
        ],
        [
          "ìĿ",
          "Ģ"
        ],
        [
          "ê¸",
          "Ī"
        ],
        [
          "ë",
          "ĭ"
        ],
        [
          "Ġë",
          "į"
        ],
        [
          "¬",
          "¸"
        ],
        [
          "·",
          "¸"
        ],
        [
          "ìĿ",
          "Ħ"
        ],
        [
          "Ġìŀ",
          "Ī"
        ],
        [
          "ì",
          "ĭ"
        ],
        [
          "Ī",
          "ë"
        ],
        [
          "©",
          "´"
        ],
        [
          "ë¦",
          "¬"
        ],
        [
          "Ī",
          "ĺ"
        ],
        [
          "Ġë",
          "Ń"
        ],
        [
          "Ġëĭ",
          "µ"
        ],
        [
          "ê°",
          "Ģ"
        ],
        [
          "ë",
          "¥"
        ],
        [
          "Ġë°",
          "Ķ"
        ],
        [
          "Ġì",
          "§"
        ],
        [
          "ĠëŃ",
          "Ĳ"
        ],
        [
          "Ġê°",
          "Ļ"
        ],
        [
          "ë",
          "ıĦ"
        ],
        [
          "ĠìĿ",
          "´ì"
        ],
        [
          "ë",
          "©´"
        ],
        [
          "ê¸",
          "°"
        ],
        [
          "Ģ",
          "í"
        ],
        [
          "Ġê",
          "·¸"
        ],
        [
          "Ġì",
          "Īĺ"
        ],
        [
          "Ġìł",
          "ķ"
        ],
        [
          "Ġ",
          "íķĺ"
        ],
        [
          "±",
          "°"
        ],
        [
          "´ì",
          "¤ĺ"
        ],
        [
          "Ġë°Ķ",
          "ë¡ľ"
        ],
        [
          "Ġì",
          "ĺ"
        ],
        [
          "ľ",
          "¼"
        ],
        [
          "íķ",
          "ľ"
        ],
        [
          "ë",
          "Ĥĺ"
        ],
        [
          "Ġë",
          "Ħ"
        ],
        [
          "ë",
          "§"
        ],
        [
          "Ġì",
          "¢"
        ],
        [
          "Ġëį",
          "Ķ"
        ],
        [
          "ë",
          "³"
        ],
        [
          "Ġì",
          "Ľ"
        ],
        [
          "¤",
          "Ħ"
        ],
        [
          "ì",
          "Ħľ"
        ],
        [
          "ë¥",
          "¼"
        ],
        [
          "ì",
          "ľ¼"
        ],
        [
          "ìķ",
          "¼"
        ],
        [
          "ìĹ",
          "Ĳ"
        ],
        [
          "ĠìŀĪ",
          "ìĸ´"
        ],
        [
          "Ġì",
          "§Ģ"
        ],
        [
          "Ġìķ",
          "Į"
        ],
        [
          "ë",
          "¶"
        ],
        [
          "íķ",
          "ł"
        ],
        [
          "Ġë",
          "¬¸"
        ],
        [
          "Ķ",
          "ë"
        ],
        [
          "Ĥ",
          "¬"
        ],
        [
          "Ġë§",
          "ŀ"
        ],
        [
          "ì",
          "ļ"
        ],
        [
          "ìĿ",
          "´ì"
        ],
        [
          "Ġë",
          "¶"
        ],
        [
          "ĠìĽ",
          "Ĳ"
        ],
        [
          "Ġì",
          "ĸ"
        ],
        [
          "£",
          "¼"
        ],
        [
          "Ġìłķ",
          "ë¦¬"
        ],
        [
          "Ġë°",
          "©"
        ],
        [
          "íķĺ",
          "ê²Į"
        ],
        [
          "Ġìŀ",
          "Ĳ"
        ],
        [
          "Ġê°Ļ",
          "ìĿ´"
        ],
        [
          "Ġì¢",
          "ĭ"
        ],
        [
          "ìľ¼",
          "ë¡ľ"
        ],
        [
          "ì",
          "Ĭ"
        ],
        [
          "Ġì",
          "Ĥ¬"
        ],
        [
          "ìĿ",
          "¸"
        ],
        [
          "Ġì§Ģ",
          "ê¸Ī"
        ],
        [
          "Ħ",
          "°"
        ],
        [
          "ìĭ",
          "ľ"
        ],
        [
          "ëĭ",
          "¤"
        ],
        [
          "³",
          "¼"
        ],
        [
          "í",
          "ĸ"
        ],
        [
          "Ġë§Ĳíķ",
          "´ì¤ĺ"
        ],
        [
          "ª",
          "ħ"
        ],
        [
          "´ì",
          "Ħľ"
        ],
        [
          "Ġëĭ",
          "¤"
        ],
        [
          "ĠìĿ´ì",
          "ĸ"
        ],
        [
          "ķ",
          "¼"
        ],
        [
          "½",
          "Ķë"
        ],
        [
          "Ġí",
          "Į"
        ],
        [
          "ì",
          "ŀ"
        ],
        [
          "ê",
          "±°"
        ],
        [
          "Ġì",
          "½Ķë"
        ],
        [
          "Ġì",
          "Ħ"
        ],
        [
          "i",
          "n"
        ],
        [
          "´ë",
          "ıĦ"
        ],
        [
          "ì",
          "¶"
        ],
        [
          "Ġê·¸",
          "ë"
        ],
        [
          "¤ë",
          "ªħ"
        ],
        [
          "ê²",
          "ł"
        ],
        [
          "Ġì§",
          "§"
        ],
        [
          "Ġë",
          "ı"
        ],
        [
          "Ġìķ",
          "Ħ"
        ],
        [
          "ĠìĦ",
          "¤ëªħ"
        ],
        [
          "Ġê°",
          "Ģ"
        ],
        [
          "Ġë",
          "Į"
        ],
        [
          "Ġë§ŀ",
          "ì¶"
        ],
        [
          "ë§",
          "Į"
        ],
        [
          "ĠíĮ",
          "Į"
        ],
        [
          "ìł",
          "ķ"
        ],
        [
          "ì",
          "Ħ"
        ],
        [
          "Ġì¢ĭ",
          "ìķĦ"
        ],
        [
          "ë",
          "ł"
        ],
        [
          "Ġëĭ¤",
          "ìĭľ"
        ],
        [
          "Ġíķ",
          "ľ"
        ],
        [
          "Ģí",
          "Ħ°"
        ],
        [
          "ë¶",
          "ĢíĦ°"
        ],
        [
          "ìł",
          "ģ"
        ],
        [
          "ĵ",
          "ľ"
        ],
        [
          "Ġë",
          "³"
        ],
        [
          "Īë",
          "¬¸"
        ],
        [
          "Ġì§",
          "Īë¬¸"
        ],
        [
          "ê²ł",
          "ìĸ´"
        ],
        [
          "Ĳ",
          "ĺ"
        ],
        [
          "Ġë",
          "Ĥ"
        ],
        [
          "íķĺ",
          "ëĬĶ"
        ],
        [
          "a",
          "t"
        ],
        [
          "Ġì",
          "Ĺ"
        ],
        [
          "Ġëı",
          "¼"
        ],
        [
          "ë",
          "ŀ"
        ],
        [
          "ĠìķĮ",
          "ê²łìĸ´"
        ],
        [
          "ª",
          "½"
        ],
        [
          "µ",
          "ìĭ"
        ],
        [
          "£¼",
          "ë©´"
        ],
        [
          "ĠëĮ",
          "Ģí"
        ],
        [
          "Ġ",
          "w"
        ],
        [
          "ìĸ",
          "´ë"
        ],
        [
          "ê³",
          "¼"
        ],
        [
          "ĠëŃĲ",
          "ìķ¼"
        ],
        [
          "Ġê",
          "³"
        ],
        [
          "Ġë",
          "Ĳĺ"
        ],
        [
          "ì",
          "¤ĺ"
        ],
        [
          "Ġì",
          "ĥ"
        ],
        [
          "Ġê",
          "±"
        ],
        [
          "Ļ",
          "Ķ"
        ],
        [
          "Ġì",
          "¤Ħ"
        ],
        [
          "ìĬ",
          "¤ë"
        ],
        [
          "½",
          "ê²Į"
        ],
        [
          "ì",
          "¤Ħ"
        ],
        [
          "ìĿ",
          "´ë"
        ],
        [
          "ĠëĲĺ",
          "ê³ł"
        ],
        [
          "Ġì",
          "ª½"
        ],
        [
          "Ġí",
          "İ"
        ],
        [
          "Ġë",
          "Ĥĺ"
        ],
        [
          "Ġë°©",
          "íĸ"
        ],
        [
          "Ġë°©íĸ",
          "¥"
        ],
        [
          "Ġ",
          "h"
        ],
        [
          "ģ",
          "í"
        ],
        [
          "ìĹ",
          "°"
        ],
        [
          "Ġë",
          "¬"
        ],
        [
          "Ġì",
          "ļ"
        ],
        [
          "Ġë",
          "ıĦ"
        ],
        [
          "Ġê",
          "±°"
        ],
        [
          "´ë",
          "³¼"
        ],
        [
          "ĠìŀĲ",
          "ìĹ°"
        ],
        [
          "ìĬ¤ë",
          "Ł"
        ],
        [
          "ĠìŀĲìĹ°",
          "ìĬ¤ëŁ"
        ],
        [
          "o",
          "n"
        ],
        [
          "íķ",
          "´"
        ],
        [
          "ĠëĦ",
          "¤"
        ],
        [
          "ĠìĿ´ìĸ",
          "´ìĦľ"
        ],
        [
          "h",
          "at"
        ],
        [
          "Ġê±",
          "¸"
        ],
        [
          "ì",
          "Ļ"
        ],
        [
          "Ġíİ",
          "¸"
        ],
        [
          "Ġíķĺ",
          "ëĤĺ"
        ],
        [
          "ìĻ",
          "Ģ"
        ],
        [
          "o",
          "u"
        ],
        [
          "¡",
          "°"
        ],
        [
          "ľ",
          "ê"
        ],
        [
          "ĠëıĦ",
          "ìĻĢ"
        ],
        [
          "Ġì",
          "ĭ"
        ],
        [
          "Ġê°Ļ",
          "ìĿĢ"
        ],
        [
          "íķ",
          "´ëıĦ"
        ],
        [
          "Ġë°",
          "ĺ"
        ],
        [
          "Ġì½Ķë",
          "ĵľ"
        ],
        [
          "ìĿ",
          "¼"
        ],
        [
          "Ġì§§",
          "ê²Į"
        ],
        [
          "ë",
          "Ł"
        ],
        [
          "ìĿ´",
          "í"
        ],
        [
          "ê",
          "¹"
        ],
        [
          "y",
          "ou"
        ],
        [
          "Ġ",
          "you"
        ],
        [
          "¤ë",
          "¥"
        ],
        [
          "ëł",
          "¤"
        ],
        [
          "ìĿ´ì",
          "ķ¼"
        ],
        [
          "l",
          "l"
        ],
        [
          "ëĭ",
          "Ī"
        ],
        [
          "µ",
          "¬"
        ],
        [
          "Ġìĺ",
          "ģ"
        ],
        [
          "ìŀ",
          "Ĳ"
        ],
        [
          "ĠìĿ",
          "ĳ"
        ],
        [
          "c",
          "t"
        ],
        [
          "·",
          "¼"
        ],
        [
          "Ġë§ŀì¶",
          "°"
        ],
        [
          "´ì",
          "£¼ë©´"
        ],
        [
          "Ġë§Ĳ",
          "ê³ł"
        ],
        [
          "ê¹",
          "Į"
        ],
        [
          "ĥ",
          "¥"
        ],
        [
          "Ķ",
          "Ķ"
        ],
        [
          "Ġê·¸ë",
          "ĥ¥"
        ],
        [
          "Ġ",
          "I"
        ],
        [
          "Ġë",
          "¨"
        ],
        [
          "ĠìŀĲìĹ°ìĬ¤ëŁ",
          "½ê²Į"
        ],
        [
          "ë",
          "Ĥ"
        ],
        [
          "íķĺ",
          "ë©´"
        ],
        [
          "Ġìķ",
          "Īë"
        ],
        [
          "ì",
          "²"
        ],
        [
          "ģ",
          "¬"
        ],
        [
          "i",
          "on"
        ],
        [
          "¶",
          "ģ"
        ],
        [
          "ëĬ",
          "¥"
        ],
        [
          "ĠëŃĲ",
          "íķł"
        ],
        [
          "Ġë¶",
          "Ģ"
        ],
        [
          "ìłģ",
          "ìĿ¸"
        ],
        [
          "ĠëıĦìĻĢ",
          "ì¤Ħ"
        ],
        [
          "Ġê",
          "¶ģ"
        ],
        [
          "Ġë¶",
          "Ħ"
        ],
        [
          "ĠëĮĢí",
          "ĻĶ"
        ],
        [
          "Ġê¶ģ",
          "ê¸Ī"
        ],
        [
          "ĠìĿ",
          "½"
        ],
        [
          "ìĹĲ",
          "ìĦľ"
        ],
        [
          "Ġìĸ",
          "´ë"
        ],
        [
          "²",
          "Ī"
        ],
        [
          "į",
          "¬"
        ],
        [
          "ĠìĿ",
          "´ë"
        ],
        [
          "ìĿ´ì",
          "į¬"
        ],
        [
          "ĠíĮĮ",
          "ìĿ´ìį¬"
        ],
        [
          "Ġ",
          "c"
        ],
        [
          "ĠëĦ",
          "Ī"
        ],
        [
          "ìł",
          "ľ"
        ],
        [
          "Ġëĭµ",
          "íķł"
        ],
        [
          "ê±°",
          "ëĤĺ"
        ],
        [
          "ĠìķĦ",
          "ëĭĪ"
        ],
        [
          "ct",
          "ion"
        ],
        [
          "Ġê¶ģê¸Ī",
          "íķľ"
        ],
        [
          "¹",
          "ľê"
        ],
        [
          "Ġ",
          "d"
        ],
        [
          "Ġ",
          "t"
        ],
        [
          "Ĭ",
          "¸"
        ],
        [
          "Ġì",
          "¹ľê"
        ],
        [
          "l",
          "e"
        ],
        [
          "Ĭ",
          "Ĳ"
        ],
        [
          "Ķ",
          "±"
        ],
        [
          "ĠìĽĲ",
          "íķĺëĬĶ"
        ],
        [
          "Ġì¹ľê",
          "·¼"
        ],
        [
          "Ġë§",
          "ģí"
        ],
        [
          "Ġíķ",
          "µìĭ"
        ],
        [
          "ëŀ",
          "ĺ"
        ],
        [
          "Ġíİ¸",
          "íķĺê²Į"
        ],
        [
          "Ġë§ģí",
          "ģ¬"
        ],
        [
          "Ġíķµìĭ",
          "¬"
        ],
        [
          "Ġìĺ",
          "¤"
        ],
        [
          "Ġë°©",
          "ê¸Ī"
        ],
        [
          "Ġì",
          "¤"
        ],
        [
          "ìķ",
          "Ī"
        ],
        [
          "Ġìł",
          "ľ"
        ],
        [
          "ë§",
          "Ĳ"
        ],
        [
          "r",
          "e"
        ],
        [
          "´ë³¼",
          "ê²Į"
        ],
        [
          "I",
          "n"
        ],
        [
          "r",
          "u"
        ],
        [
          "st",
          "ru"
        ],
        [
          "In",
          "stru"
        ],
        [
          "Instru",
          "ction"
        ],
        [
          "Ŀ",
          "¼"
        ],
        [
          "íķĺ",
          "ì§Ģ"
        ],
        [
          "o",
          "m"
        ],
        [
          "ħ",
          "ķ"
        ],
        [
          "ĠìķĪë",
          "ħķ"
        ],
        [
          "A",
          "I"
        ],
        [
          "Ķ",
          "©"
        ],
        [
          "ĠìĿ",
          "¸"
        ],
        [
          "ë¶",
          "Ħ"
        ],
        [
          "Ġìĥ",
          "Ŀ"
        ],
        [
          "Ĭ",
          "Ķ"
        ],
        [
          "ë",
          "¬"
        ],
        [
          "Ġ",
          "an"
        ],
        [
          "ìĸ´ë",
          "¡ľ"
        ],
        [
          "íķĺ",
          "ê³ł"
        ],
        [
          "ĠìĤ¬",
          "ê³¼"
        ],
        [
          "in",
          "g"
        ],
        [
          "Ġë³",
          "´"
        ],
        [
          "íķľ",
          "ëĭ¤"
        ],
        [
          "Ġì½Ķë",
          "Ķ©"
        ],
        [
          "Ġìĺģ",
          "ìĸ´ë¡ľ"
        ],
        [
          "Ġë",
          "ĬĲ"
        ],
        [
          "´ë",
          "ĬĶ"
        ],
        [
          "Ġê°",
          "ķ"
        ],
        [
          "ĠìĽĲ",
          "ìĿ¸"
        ],
        [
          "Ġì¹ľê·¼",
          "íķĺê²Į"
        ],
        [
          "ı",
          "Ļ"
        ],
        [
          "ĠìĿ´ìĸ",
          "´"
        ],
        [
          "Ġìļ",
          "°"
        ],
        [
          "²Ī",
          "ìĹ"
        ],
        [
          "e",
          "ll"
        ],
        [
          "¼",
          "ê²Į"
        ],
        [
          "í",
          "ŀ"
        ],
        [
          "Ħ",
          "ê"
        ],
        [
          "Ġë§Ĳíķ",
          "ł"
        ],
        [
          "ë³",
          "¼ê²Į"
        ],
        [
          "Ġë¬¸",
          "ìĦľ"
        ],
        [
          "ìķĦ",
          "ì§Ģ"
        ],
        [
          "ìļ",
          "Ķ"
        ],
        [
          "Ġê°ķ",
          "ìķĦì§Ģ"
        ],
        [
          "Ġìļ°",
          "ë¦¬"
        ],
        [
          "u",
          "r"
        ],
        [
          "Ġì",
          "¶"
        ],
        [
          "´",
          "Ĳ"
        ],
        [
          "ë",
          "Ŀ¼"
        ],
        [
          "Ġ",
          "f"
        ],
        [
          "ĠëĦ",
          "Īë"
        ],
        [
          "Ġì¤",
          "ĳ"
        ],
        [
          "ĥ",
          "ģ"
        ],
        [
          "Ġì¢",
          "Ģ"
        ],
        [
          "Ġë¬¸",
          "ìłľ"
        ],
        [
          "Ġt",
          "o"
        ],
        [
          "Ī",
          "ê²Į"
        ],
        [
          "Ġëĭ",
          "¤ë¥"
        ],
        [
          "ìĬ",
          "¤"
        ],
        [
          "Ġë¬",
          "¼"
        ],
        [
          "Ġ",
          "AI"
        ],
        [
          "Ġê",
          "¸"
        ],
        [
          "ëĬ",
          "ĺ"
        ],
        [
          "Ġíķ",
          "¨"
        ],
        [
          "Ġíķĺ",
          "ê³ł"
        ],
        [
          "íĸ",
          "Ī"
        ],
        [
          "Ġê·¸ë",
          "Ł"
        ],
        [
          "Ġí",
          "Ĵ"
        ],
        [
          "Ġí",
          "Ŀ"
        ],
        [
          "ĠìķĮ",
          "ìķĦ"
        ],
        [
          "Ġ",
          "P"
        ],
        [
          "Ġì¶",
          "Ķ"
        ],
        [
          "Ġê°",
          "ľ"
        ],
        [
          "ĠìĿ´ì",
          "ĥģ"
        ],
        [
          "Ġíķĺ",
          "ì§Ģ"
        ],
        [
          "ë³",
          "į"
        ],
        [
          "Ġê°Ģ",
          "ë³į"
        ],
        [
          "ĠìĿ´ë",
          "²ĪìĹ"
        ],
        [
          "Ġë§Ĳíķł",
          "ê²Į"
        ],
        [
          "ĠìĿ´ë²ĪìĹ",
          "Ķ"
        ],
        [
          "ł",
          "ì"
        ],
        [
          "ìĿ",
          "Į"
        ],
        [
          "ĠìĿ",
          "¼"
        ],
        [
          "ìļ",
          "©"
        ],
        [
          "Ġw",
          "ant"
        ],
        [
          "ëŁ",
          "¬"
        ],
        [
          "ìĿ´í",
          "Ĭ¸"
        ],
        [
          "Ġê°Ģë³į",
          "ê²Į"
        ],
        [
          "¬",
          "´"
        ],
        [
          "Ġë§",
          "İ"
        ],
        [
          "Ġìŀ",
          "¡"
        ],
        [
          "Ġëĭµ",
          "ë³"
        ],
        [
          "ĠìĪĺ",
          "ìłķ"
        ],
        [
          "Ġd",
          "o"
        ],
        [
          "ĠëĦĪë",
          "¬´"
        ],
        [
          "Ġëĭµë³",
          "Ģ"
        ],
        [
          "Ġìĺ¤",
          "ëĬĺ"
        ],
        [
          "íŀ",
          "Ī"
        ],
        [
          "Ġê¸",
          "°"
        ],
        [
          "T",
          "h"
        ],
        [
          "k",
          "ing"
        ],
        [
          "Ġì",
          "¡°"
        ],
        [
          "ìł",
          "Ģ"
        ],
        [
          "ĠìĿ´ì",
          "ķ¼"
        ],
        [
          "ĠìĽ",
          "¹"
        ],
        [
          "ìľ¼",
          "ë©´"
        ],
        [
          "Ġì§Ģê¸Ī",
          "ìĿĢ"
        ],
        [
          "in",
          "king"
        ],
        [
          "Ġë§ŀì¶",
          "ľ"
        ],
        [
          "ĠìĿ½",
          "ê¸°"
        ],
        [
          "Th",
          "inking"
        ],
        [
          "B",
          "e"
        ],
        [
          "p",
          "le"
        ],
        [
          "Ġ",
          "Be"
        ],
        [
          "ĭ",
          "¤"
        ],
        [
          "ĺ",
          "ê¸°"
        ],
        [
          "Ġì",
          "Ļ"
        ],
        [
          "Ġë",
          "¹"
        ],
        [
          "Ġíķ",
          "ł"
        ],
        [
          "Ġìĸ",
          "ĺê¸°"
        ],
        [
          "Ġê³",
          "ł"
        ],
        [
          "ur",
          "ple"
        ],
        [
          "ĠP",
          "urple"
        ],
        [
          "ĠBe",
          "e"
        ],
        [
          "i",
          "s"
        ],
        [
          "Ī",
          "ì"
        ],
        [
          "ĠìŀĲ",
          "ë"
        ],
        [
          "ìĿ´ë",
          "Ĥĺ"
        ],
        [
          "ĠëĤĺ",
          "ëĬĶ"
        ],
        [
          "ĠìĿ´ìĸ´",
          "ê°"
        ],
        [
          "Ġë§İ",
          "ìĿ´"
        ],
        [
          "Ġì",
          "ī"
        ],
        [
          "Ġë§Ĳíķ",
          "´ë³¼ê²Į"
        ],
        [
          "ĠìķĮ",
          "ëł¤"
        ],
        [
          "ĠìĽĲ",
          "íķĺë©´"
        ],
        [
          "Ġìª½",
          "ìľ¼ë¡ľ"
        ],
        [
          "Ġëĭµíķł",
          "ê²Į"
        ],
        [
          "ĠíĴ",
          "Ģ"
        ],
        [
          "µ",
          "ì§Ģ"
        ],
        [
          "Ġì",
          "£¼"
        ],
        [
          "ê³",
          "µì§Ģ"
        ],
        [
          "ĠìĿ¸",
          "ê³µì§Ģ"
        ],
        [
          "Ġëĭ¤ë¥",
          "¸"
        ],
        [
          "ĠìĿ¸ê³µì§Ģ",
          "ëĬ¥"
        ],
        [
          "ì",
          "Īĺ"
        ],
        [
          "ĺ",
          "ìł"
        ],
        [
          "Ġëį",
          "ĺìł"
        ],
        [
          "ĠìĤ¬",
          "ìļ©"
        ],
        [
          "ìĦ",
          "±"
        ],
        [
          "ìĦ",
          "Ŀ"
        ],
        [
          "Ġë¶Ħ",
          "ìĦĿ"
        ],
        [
          "Ġëįĺìł",
          "¸"
        ],
        [
          "į",
          "¨"
        ],
        [
          "Ġì",
          "į¨"
        ],
        [
          "ìļ",
          "°"
        ],
        [
          "Ġìļ",
          "Ķ"
        ],
        [
          "Ġc",
          "an"
        ],
        [
          "í",
          "Ī"
        ],
        [
          "Ġë",
          "©"
        ],
        [
          "Ġë§Ĳ",
          "íĪ"
        ],
        [
          "Ġë§Ĳíķ",
          "´ì£¼ë©´"
        ],
        [
          "´Ĳ",
          "ëıĦ"
        ],
        [
          "Ġë§ĲíĪ",
          "¬"
        ],
        [
          "t",
          "t"
        ],
        [
          "´",
          "ê°Ģ"
        ],
        [
          "Ĳ",
          "ë¦"
        ],
        [
          "íķ",
          "´ìĦľ"
        ],
        [
          "ĠëĤ",
          "´ê°Ģ"
        ],
        [
          "µìĭ",
          "Ŀ"
        ],
        [
          "Ġê³",
          "µìĭĿ"
        ],
        [
          "Ġìĭ",
          "¶"
        ],
        [
          "ĠíĿ",
          "Ĳë¦"
        ],
        [
          "ĠíĿĲë¦",
          "Ħ"
        ],
        [
          "°",
          "ìĿ´í"
        ],
        [
          "Ġ",
          "m"
        ],
        [
          "ĥ",
          "ī"
        ],
        [
          "Ġì",
          "²"
        ],
        [
          "íķ",
          "´ì"
        ],
        [
          "ëĭ",
          "´"
        ],
        [
          "Ġëį",
          "°ìĿ´í"
        ],
        [
          "ĠíĮĮ",
          "ìĿ¼"
        ],
        [
          "ë¬",
          "¼"
        ],
        [
          "Ġëį°ìĿ´í",
          "Ħ°"
        ],
        [
          "ê",
          "»"
        ],
        [
          "Ġë",
          "Ķ±"
        ],
        [
          "´ë",
          "ĭ¤"
        ],
        [
          "Ġê·¸",
          "ê±°"
        ],
        [
          "Ġë¶Ģ",
          "ë¶Ħ"
        ],
        [
          "ĠìĿ´ìĸ´ê°",
          "Īê²Į"
        ],
        [
          ".",
          "."
        ],
        [
          "g",
          "p"
        ],
        [
          "¼",
          "ìłĢ"
        ],
        [
          "Ġ",
          "s"
        ],
        [
          "ĳ",
          "ľ"
        ],
        [
          "íķ",
          "´ì¤ĺ"
        ],
        [
          "Ġê",
          "µ¬"
        ],
        [
          "ê°",
          "ģ"
        ],
        [
          "Ġë¨",
          "¹"
        ],
        [
          "Ġë¨",
          "¼ìłĢ"
        ],
        [
          "Ġìłľ",
          "ìķĪ"
        ],
        [
          "Ġê³ł",
          "ìłķ"
        ],
        [
          "ĠìĤ¬ìļ©",
          "ìŀĲ"
        ],
        [
          "gp",
          "t"
        ],
        [
          "E",
          "n"
        ],
        [
          "g",
          "l"
        ],
        [
          "Ġ",
          "En"
        ],
        [
          "ĸ",
          "¤"
        ],
        [
          "·¸",
          "ëŀĺ"
        ],
        [
          "Ġë§ŀ",
          "ìķĦ"
        ],
        [
          "ĠìĹ",
          "Ĩ"
        ],
        [
          "Ġìĸ´ë",
          "ĸ¤"
        ],
        [
          "Ġìŀ¡",
          "ëĭ´"
        ],
        [
          "is",
          "h"
        ],
        [
          "Ġê³łìłķ",
          "ìłģìĿ¸"
        ],
        [
          "gl",
          "ish"
        ],
        [
          "ĠEn",
          "glish"
        ],
        [
          "´ì",
          "ĥī"
        ],
        [
          "ìķĦ",
          "ì¤ĺ"
        ],
        [
          "ë³",
          "´ëĭ¤"
        ],
        [
          "ìļ",
          "´"
        ],
        [
          "Ġìĸ",
          "´ìĥī"
        ],
        [
          "Ġë§ŀì¶ľ",
          "ê²Į"
        ],
        [
          "/",
          "/"
        ],
        [
          ":",
          "//"
        ],
        [
          "c",
          "om"
        ],
        [
          "p",
          "s"
        ],
        [
          "Ġ",
          "re"
        ],
        [
          "Ġíķ",
          "´"
        ],
        [
          "ĠìŀĪ",
          "ì§Ģ"
        ],
        [
          "ĠëŃĲ",
          "íķ´"
        ],
        [
          "tt",
          "ps"
        ],
        [
          "£",
          "Į"
        ],
        [
          "¤ë",
          "ıĻ"
        ],
        [
          "ëł",
          "¤ëıĻ"
        ],
        [
          "ĠëĮĢí",
          "ĳľ"
        ],
        [
          "ĠëĦ¤",
          "ê°Ģ"
        ],
        [
          "Ġë°ĺ",
          "ëł¤ëıĻ"
        ],
        [
          "ell",
          "o"
        ],
        [
          "ĠëĮĢíĳľ",
          "ìłģìĿ¸"
        ],
        [
          "Ġë°ĺëł¤ëıĻ",
          "ë¬¼"
        ],
        [
          "Ġ",
          "a"
        ],
        [
          "ĺ",
          "ëŁ"
        ],
        [
          "Ġë",
          "²"
        ],
        [
          "Ġë",
          "ĵ"
        ],
        [
          "Ġê",
          "³¼"
        ],
        [
          "Ġh",
          "ttps"
        ],
        [
          "Ġan",
          "d"
        ],
        [
          "Ġì¡°",
          "ê¸Ī"
        ],
        [
          "ĠBee",
          "ìķ¼"
        ],
        [
          "ĺëŁ",
          "¼"
        ],
        [
          "w",
          "w"
        ],
        [
          "Į",
          "ë¦¬"
        ],
        [
          "Ķ",
          "¨"
        ],
        [
          "Ġë",
          "ģ"
        ],
        [
          "Ġëĭ",
          "¬"
        ],
        [
          "Ġìķ",
          "Ĭ"
        ],
        [
          "Ġì§§",
          "ê³ł"
        ],
        [
          "ĠëŃĲíķł",
          "ëŀĺ"
        ],
        [
          "łì",
          "Ķ¨"
        ],
        [
          "ë",
          "Ķ±"
        ],
        [
          "ìŀ",
          "¥"
        ],
        [
          "ĠëĶ±",
          "ëĶ±"
        ],
        [
          "ĠìĤ¬ìļ©ìŀĲ",
          "ê°Ģ"
        ],
        [
          "Ġìŀ",
          "ĳ"
        ],
        [
          "ëĬĶ",
          "ì§Ģ"
        ],
        [
          "Ġë§ŀì¶°",
          "ë³¼ê²Į"
        ],
        [
          "ì",
          "°"
        ],
        [
          "ì",
          "Ĥ"
        ],
        [
          "Ġ",
          "C"
        ],
        [
          "Į",
          "ê³¼"
        ],
        [
          "Ĳ",
          "ëŁ¬"
        ],
        [
          "ĳ",
          "ê³ł"
        ],
        [
          "ìĿ",
          "ĺ"
        ],
        [
          "Ġíķ",
          "´ì¤ĺ"
        ],
        [
          "Ġìł",
          "ĳê³ł"
        ],
        [
          "Ġëĭµ",
          "ìĿ´"
        ],
        [
          "ë³",
          "µ"
        ],
        [
          "ìĹĲ",
          "ëĬĶ"
        ],
        [
          "ĠìĤ¬",
          "ëŀ"
        ],
        [
          "ĠëĤ",
          "łìĶ¨"
        ],
        [
          "ĠìĹ",
          "¬"
        ],
        [
          "ĠìĹ",
          "ĲëŁ¬"
        ],
        [
          "Ġì¤Ħ",
          "ë§Į"
        ],
        [
          "Ġë°ĺ",
          "ë³µ"
        ],
        [
          "ì²",
          "ĺëŁ¼"
        ],
        [
          "Ġìĭ¶",
          "ìĿĢ"
        ],
        [
          "ĠìĤ¬ëŀ",
          "Įê³¼"
        ],
        [
          "ë",
          "ĵľ"
        ],
        [
          "er",
          "e"
        ],
        [
          "Ġê°Ģ",
          "ëĬ¥"
        ],
        [
          "Ġw",
          "hat"
        ],
        [
          "ìĸ´ë",
          "´ĲëıĦ"
        ],
        [
          "e",
          "s"
        ],
        [
          "ë",
          "°"
        ],
        [
          "Ĩ",
          "Į"
        ],
        [
          "Ġë¶",
          "Ļ"
        ],
        [
          "Ġë°©íĸ¥",
          "ìĿĢ"
        ],
        [
          "ëĤ",
          "Į"
        ],
        [
          "ĠìĤ¬ê³¼",
          "ëĬĶ"
        ],
        [
          "ĠìĤ¬ê³¼",
          "ê°Ģ"
        ],
        [
          "ĠëĬĲ",
          "ëĤĮ"
        ],
        [
          "ĠìĹĨ",
          "ìĸ´"
        ],
        [
          "Ġìĸ´ìĥī",
          "íĸĪ"
        ],
        [
          "Ġê³¼",
          "ìĿ¼"
        ],
        [
          "²",
          "ķ"
        ],
        [
          "ë",
          "²ķ"
        ],
        [
          "Ķ",
          "ìĭľ"
        ],
        [
          "Ġê",
          "µ"
        ],
        [
          "ìĸ",
          "´ì"
        ],
        [
          "ĠìŀĪ",
          "ìľ¼ë©´"
        ],
        [
          "Ġë¬¸",
          "ë²ķ"
        ],
        [
          "ĠìĤ¬",
          "ìĿ´íĬ¸"
        ],
        [
          "ĠìķĦ",
          "ìĿ´ë"
        ],
        [
          "ĠìĥĿ",
          "ê°ģ"
        ],
        [
          "ĠìĿ¼",
          "ìĿĦ"
        ],
        [
          "Ġë©",
          "Ķìĭľ"
        ],
        [
          "ĠìķĦìĿ´ë",
          "ĶĶ"
        ],
        [
          "Ġë©Ķìĭľ",
          "ì§Ģ"
        ],
        [
          "o",
          "b"
        ],
        [
          "¡",
          "Ŀ"
        ],
        [
          "ë",
          "ĵ"
        ],
        [
          "Ġë§Ĳíķ",
          "´"
        ],
        [
          "Ġíķµìĭ¬",
          "ë§Į"
        ],
        [
          "i",
          "t"
        ],
        [
          "o",
          "r"
        ],
        [
          "°",
          "ìļ°"
        ],
        [
          "º",
          "¼"
        ],
        [
          "ê",
          "µ¬"
        ],
        [
          "í",
          "ĥ"
        ],
        [
          "Ļ",
          "ķ"
        ],
        [
          "Ġì",
          "°"
        ],
        [
          "Ġë§",
          "Į"
        ],
        [
          "ìĸ",
          "´ëıĦ"
        ],
        [
          "Ġë°",
          "°ìļ°"
        ],
        [
          "ê°",
          "ľ"
        ],
        [
          "ìĿ´ì",
          "§Ģ"
        ],
        [
          "Ġìĸ",
          "¸"
        ],
        [
          "Ġê±°",
          "ê¸°"
        ],
        [
          "ë§Ĳ",
          "ê³ł"
        ],
        [
          "Ġê°ķìķĦì§Ģ",
          "ëĬĶ"
        ],
        [
          "Ġë¬¼",
          "ìĸ´ë´ĲëıĦ"
        ],
        [
          "Ġíķ¨",
          "ê»"
        ],
        [
          "Ġê·¸ê±°",
          "ë§Ĳê³ł"
        ],
        [
          "Ġë¨¹",
          "ê±°ëĤĺ"
        ],
        [
          "ĨĮ",
          "ê°ľ"
        ],
        [
          "Ġíķ¨ê»",
          "ĺ"
        ],
        [
          "ì",
          "Ĥ¬"
        ],
        [
          "í",
          "Ĩ"
        ],
        [
          "Ġ",
          "in"
        ],
        [
          "Ģ",
          "ë¡ľ"
        ],
        [
          "Ľ",
          "ìĿ´"
        ],
        [
          "ŀ",
          "ĺ"
        ],
        [
          "ŀ",
          "ìľ¼ë¡ľ"
        ],
        [
          "Ġê",
          "²"
        ],
        [
          "Ġìķ",
          "ŀìľ¼ë¡ľ"
        ],
        [
          "ìĹ",
          "¬"
        ],
        [
          "Ġë¬¸",
          "êµ¬"
        ],
        [
          "ìĦ",
          "¸"
        ],
        [
          "ĠëĮĢíĻĶ",
          "íķ´ëıĦ"
        ],
        [
          "Ġë³´",
          "íĨ"
        ],
        [
          "Ġê·¸ëŁ",
          "¼"
        ],
        [
          "Ġê°ľ",
          "ë¥¼"
        ],
        [
          "ĠìŀĲë",
          "£Į"
        ],
        [
          "Ġëįĺìł¸",
          "ì¤ĺ"
        ],
        [
          "Ġìķŀìľ¼ë¡ľ",
          "ëĬĶ"
        ],
        [
          "Ġë³´íĨ",
          "µ"
        ],
        [
          "p",
          "e"
        ],
        [
          "ì",
          "¡°"
        ],
        [
          "Ġ",
          "W"
        ],
        [
          "ë¥",
          "ĺ"
        ],
        [
          "ë¶",
          "Ģ"
        ],
        [
          "Ġì¶Ķ",
          "ìłķ"
        ],
        [
          "Ġm",
          "e"
        ],
        [
          "Ġêµ¬",
          "ì¡°"
        ],
        [
          "Įë¦¬",
          "ëĬĶ"
        ],
        [
          "Ġëģ",
          "Įë¦¬ëĬĶ"
        ],
        [
          "ĠìķĦìĿ´ëĶĶ",
          "ìĸ´"
        ],
        [
          "´",
          "ľ"
        ],
        [
          "Ĩ",
          "¤"
        ],
        [
          "ļ",
          "©"
        ],
        [
          "Ġê",
          "´ľ"
        ],
        [
          "´ì",
          "ļ©"
        ],
        [
          "ìĸ",
          "´ì£¼ë©´"
        ],
        [
          "Ġí",
          "Ĩ¤"
        ],
        [
          "¤ë",
          "©´"
        ],
        [
          "Ġì§Īë¬¸",
          "ìĿĦ"
        ],
        [
          "ĠëĤ",
          "´ìļ©"
        ],
        [
          "Ġë§ŀì¶°",
          "ìĦľ"
        ],
        [
          "Ġë¶Ģ",
          "ë¥"
        ],
        [
          "ĠAI",
          "ìķ¼"
        ],
        [
          "Ġìŀ¡ëĭ´",
          "íķ´ëıĦ"
        ],
        [
          "ì°",
          "®"
        ],
        [
          "Ġê´ľ",
          "ì°®"
        ],
        [
          "d",
          "e"
        ],
        [
          "g",
          "e"
        ],
        [
          "r",
          "om"
        ],
        [
          "´",
          "Ī"
        ],
        [
          "ì",
          "Ľ"
        ],
        [
          "ì",
          "£¼ë©´"
        ],
        [
          "ķ",
          "Į"
        ],
        [
          "Ġì",
          "´Ī"
        ],
        [
          "ê¸",
          "Ģ"
        ],
        [
          "Īë",
          "ĶĶ"
        ],
        [
          "ë§",
          "ĪëĶĶ"
        ],
        [
          "Ġíķľ",
          "ë§ĪëĶĶ"
        ],
        [
          "Ġë³",
          "´ì"
        ],
        [
          "Ġì¤Ħ",
          "ë¡ľ"
        ],
        [
          "ê¹Į",
          "ì§Ģ"
        ],
        [
          "Ħê",
          "·¸"
        ],
        [
          "Ġf",
          "rom"
        ],
        [
          "Ġíķ¨",
          "ìĪĺ"
        ],
        [
          "Ġë²",
          "Ħê·¸"
        ],
        [
          "Ġì´Ī",
          "ìķĪ"
        ],
        [
          "l",
          "o"
        ],
        [
          "l",
          "y"
        ],
        [
          "¤",
          "ìĸ´"
        ],
        [
          "¥",
          "¼"
        ],
        [
          "ķ",
          "ìľ¼ë¡ľ"
        ],
        [
          "Ġë",
          "ĶĶ"
        ],
        [
          "Ġê",
          "º¼"
        ],
        [
          "ìł",
          "Ģí"
        ],
        [
          "Ġê°Ģ",
          "ìŀĲ"
        ],
        [
          "ĠíĿĲë¦Ħ",
          "ìĹĲ"
        ],
        [
          "ĠëĶĶ",
          "ìłĢí"
        ],
        [
          "Ġêº¼",
          "ëĤ"
        ],
        [
          "ĠëĶĶìłĢí",
          "Ĭ¸"
        ],
        [
          "e",
          "l"
        ],
        [
          "§",
          "Ħ"
        ],
        [
          "°",
          "ìĤ"
        ],
        [
          "¼",
          "Ģ"
        ],
        [
          "ì",
          "¼Ģ"
        ],
        [
          "íķ",
          "´ë³¼ê²Į"
        ],
        [
          "Ġë§Ĳ",
          "ìĿ´ìķ¼"
        ],
        [
          "Ġìł",
          "ģ"
        ],
        [
          "ëĭ",
          "µ"
        ],
        [
          "Ġì§Ģ",
          "ëĤ"
        ],
        [
          "Ġh",
          "ere"
        ],
        [
          "Ġh",
          "el"
        ],
        [
          "Ġë¬",
          "»"
        ],
        [
          "ĠìĿ½",
          "ê³ł"
        ],
        [
          "Ġíķµìĭ¬",
          "ë¶ĢíĦ°"
        ],
        [
          "Ġìĺ¤",
          "ì¼Ģ"
        ],
        [
          "ë§Ĳ",
          "ìķĦì¤ĺ"
        ],
        [
          "Ġê°ķìķĦì§Ģ",
          "ê°Ģ"
        ],
        [
          "Ġíķĺì§Ģ",
          "ë§ĲìķĦì¤ĺ"
        ],
        [
          "Ġëĭ¤ë¥¸",
          "ê±°"
        ],
        [
          "Ġë¶Ģë¥",
          "´ëĬĶ"
        ],
        [
          "°ìĤ",
          "°"
        ],
        [
          "Ġhel",
          "p"
        ],
        [
          "Ġìĺ¤ì¼Ģ",
          "ìĿ´"
        ],
        [
          "Y",
          "es"
        ],
        [
          "s",
          "w"
        ],
        [
          "Ġ",
          "T"
        ],
        [
          "Ġ",
          "Yes"
        ],
        [
          "Ī",
          "ìĸ´"
        ],
        [
          "Ġëĭµ",
          "íķľëĭ¤"
        ],
        [
          "Ġë¬¸",
          "ìŀ¥"
        ],
        [
          "Ġìª½",
          "ìĿĦ"
        ],
        [
          "Ġë¶Ħ",
          "ë¥ĺ"
        ],
        [
          "Ġan",
          "sw"
        ],
        [
          "Ġìĺģìĸ´ë¡ľ",
          "ëıĦ"
        ],
        [
          "Ġf",
          "i"
        ],
        [
          "Ġìŀĳ",
          "ìĦ±"
        ],
        [
          "ĠC",
          "an"
        ],
        [
          "Ġë¶Ļ",
          "ìĹ¬"
        ],
        [
          "ìĽ",
          "Į"
        ],
        [
          "Ġansw",
          "er"
        ],
        [
          "½",
          "¤"
        ],
        [
          "ë",
          "¹"
        ],
        [
          "íķĺ",
          "ê±°ëĤĺ"
        ],
        [
          "Ġëĭµ",
          "ìĿĦ"
        ],
        [
          "Ġë°Ķ",
          "íĥ"
        ],
        [
          "Ġë§ŀ",
          "ê²Į"
        ],
        [
          "£¼",
          "ëĬĶ"
        ],
        [
          "Ġë³",
          "´ë"
        ],
        [
          "ĠìĿ¸ê³µì§ĢëĬ¥",
          "ìĿ´"
        ],
        [
          "ĠìĿ¸ê³µì§ĢëĬ¥",
          "ìĿĢ"
        ],
        [
          "ĠìķĬ",
          "ê²Į"
        ],
        [
          "Ġì°",
          "¨"
        ],
        [
          "ĠW",
          "hat"
        ],
        [
          "Ġë°Ķíĥ",
          "ķìľ¼ë¡ľ"
        ],
        [
          "r",
          "ob"
        ],
        [
          "Ġ",
          "H"
        ],
        [
          "Ħ",
          "ìļĶ"
        ],
        [
          "ľ",
          "ł"
        ],
        [
          "ľ",
          "íŀĪ"
        ],
        [
          "Ġë",
          "ĸ"
        ],
        [
          "Ġë",
          "¡ľ"
        ],
        [
          "Ġë",
          "³¼"
        ],
        [
          "ê²",
          "°"
        ],
        [
          "ĠìĿ",
          "´"
        ],
        [
          "Ġí",
          "Ķ"
        ],
        [
          "¤Ħ",
          "ê²Į"
        ],
        [
          "íķł",
          "ê²Į"
        ],
        [
          "ëĭ¤",
          "ê³ł"
        ],
        [
          "ĠìĦ¤ëªħ",
          "íķłê²Į"
        ],
        [
          "´ë³¼",
          "ê¹Į"
        ],
        [
          "Ġìĺģ",
          "ìĸ´"
        ],
        [
          "ĠëıĦìĻĢì¤Ħ",
          "ê²Į"
        ],
        [
          "Ġìĺ¤ëĬĺ",
          "ìĿĢ"
        ],
        [
          "Ġê¸°",
          "ê¸°"
        ],
        [
          "ĠìķĮëł¤",
          "ì¤ĺ"
        ],
        [
          "Ġì£¼",
          "ìĬ¤"
        ],
        [
          "'",
          "ll"
        ],
        [
          "o",
          "de"
        ],
        [
          "í",
          "ħ"
        ],
        [
          "í",
          "ĻĶ"
        ],
        [
          "ĺ",
          "ìĿ´ì§Ģ"
        ],
        [
          "ľ",
          "Ħ"
        ],
        [
          "Ġì",
          "¤ĺ"
        ],
        [
          "íķĺ",
          "ìĦ¸"
        ],
        [
          "Ġë§Ĳ",
          "ìĿĦ"
        ],
        [
          "Ġìĺ",
          "¤ë¥"
        ],
        [
          "Ġìłķë¦¬",
          "íķĺê³ł"
        ],
        [
          "Ġì§Ģê¸Ī",
          "ë¶ĢíĦ°"
        ],
        [
          "Ġìĭ",
          "ľ"
        ],
        [
          "ĠëŃĲíķł",
          "ê¹Į"
        ],
        [
          "Ġc",
          "ode"
        ],
        [
          "ĠìķĪëħķ",
          "íķĺìĦ¸"
        ],
        [
          "ĠìĽ¹",
          "ìĤ¬"
        ],
        [
          "ìĸ´ì",
          "ķ¼"
        ],
        [
          "lo",
          "x"
        ],
        [
          "Ġìĺ¤ë¥",
          "ĺ"
        ],
        [
          "ĠìķĪëħķíķĺìĦ¸",
          "ìļĶ"
        ],
        [
          "ĠìĽ¹ìĤ¬",
          "ìĿ´íĬ¸"
        ],
        [
          "c",
          "hat"
        ],
        [
          "Ġ",
          "?"
        ],
        [
          "Ġ",
          "gpt"
        ],
        [
          "ľ",
          "ì²"
        ],
        [
          "Ġì",
          "ľ¼"
        ],
        [
          "Ġë",
          "ª"
        ],
        [
          "´ì",
          "§Ģ"
        ],
        [
          "ĠìĿ",
          "ĺ"
        ],
        [
          "ë¡ľ",
          "ëıĦ"
        ],
        [
          "Ġí",
          "Ļķ"
        ],
        [
          "Ġíķ",
          "ĦìļĶ"
        ],
        [
          "Ġëĭµ",
          "ìĿĢ"
        ],
        [
          "ĠìŀĲ",
          "ê¸°"
        ],
        [
          "Ġëĭ¤",
          "ìĿĮ"
        ],
        [
          "ì¤Ħ",
          "ê²Į"
        ],
        [
          "ľê",
          "·¸ëŀĺ"
        ],
        [
          "Ġìī",
          "½ê²Į"
        ],
        [
          "Ġì²",
          "ľì²"
        ],
        [
          "..",
          "."
        ],
        [
          "Ġíķ´",
          "ê²°"
        ],
        [
          "ĠìĤ¬ìĿ´íĬ¸",
          "ëĬĶ"
        ],
        [
          "Ġë³´ì",
          "¡°"
        ],
        [
          "chat",
          "gpt"
        ],
        [
          "Ġìľ¼",
          "ìĿĮ"
        ],
        [
          "ĠíĻķ",
          "ìĿ¸"
        ],
        [
          "Ġì²ľì²",
          "ľíŀĪ"
        ],
        [
          "½",
          "ê³ł"
        ],
        [
          "ê",
          "·¸ëŀĺ"
        ],
        [
          "ì",
          "ĨĮê°ľ"
        ],
        [
          "Ħ",
          "ë¡ľ"
        ],
        [
          "Į",
          "Ģë¡ľ"
        ],
        [
          "Ġëĭµ",
          "íķ´ë³¼ê²Į"
        ],
        [
          "Ġíķĺ",
          "ëĬĶ"
        ],
        [
          "Ġìłķë¦¬",
          "íķ´ì"
        ],
        [
          "ĠëĮ",
          "Ģ"
        ],
        [
          "Ġìĥ",
          "ģí"
        ],
        [
          "ì²",
          "Ń"
        ],
        [
          "ĠíĮĮìĿ´ìį¬",
          "ìĿ´"
        ],
        [
          "ĠíĮĮìĿ´ìį¬",
          "ìĿĢ"
        ],
        [
          "Ġìłľ",
          "ìĿ¼"
        ],
        [
          "ë§Ĳ",
          "ë¡ľ"
        ],
        [
          "ĠìĥĿ",
          "ìĦ±"
        ],
        [
          "ıĻ",
          "íĻĶ"
        ],
        [
          "ëĿ¼",
          "ê³ł"
        ],
        [
          "ĠìĿ´ìĥģ",
          "íķĺê²Į"
        ],
        [
          "ĠìĻ",
          "ľê·¸ëŀĺ"
        ],
        [
          "ĠìŀĲë",
          "ıĻíĻĶ"
        ],
        [
          "ĠìļĶ",
          "ì²Ń"
        ],
        [
          "ĠëĶ±ëĶ±",
          "íķĺì§Ģ"
        ],
        [
          "ë°",
          "į"
        ],
        [
          "ĠëĬĲëĤĮ",
          "ìĿĦ"
        ],
        [
          "Ġë¬¸ë²ķ",
          "ìĿ´"
        ],
        [
          "Ġìĸ¸",
          "ìĸ´ìķ¼"
        ],
        [
          "Ġê´ľì°®",
          "ìķĦ"
        ],
        [
          "Ġë³´ë",
          "Ĥ"
        ],
        [
          "ĠíĶ",
          "Ħë¡ľ"
        ],
        [
          "Ġê¸°ê¸°",
          "ìĹĲìĦľ"
        ],
        [
          "ĠìŀĲê¸°",
          "ìĨĮê°ľ"
        ],
        [
          "ê·¸ëŀĺ",
          "ë°į"
        ],
        [
          "ĠíĶĦë¡ľ",
          "ê·¸ëŀĺë°į"
        ],
        [
          "¨",
          "í"
        ],
        [
          "´",
          "ìĿĦ"
        ],
        [
          "¸",
          "¡"
        ],
        [
          "ë",
          "Ħ"
        ],
        [
          "Ħ",
          "´ìĿĦ"
        ],
        [
          "Ī",
          "Ħê"
        ],
        [
          "Ġë",
          "ĪĦê"
        ],
        [
          "´ì",
          "Ĺ"
        ],
        [
          "´ì",
          "ŀ"
        ],
        [
          "Ġë§",
          "ĽìĿ´"
        ],
        [
          "íķĺ",
          "ìŀĲ"
        ],
        [
          "Ġë§Ĳ",
          "íķĺì§Ģ"
        ],
        [
          "Ġíķ",
          "´ë³¼ê¹Į"
        ],
        [
          "Ġë°Ķ",
          "ê"
        ],
        [
          "ê¸°",
          "ë³´ëĭ¤"
        ],
        [
          "Ġìĺ",
          "Īì"
        ],
        [
          "ĠíĮ",
          "¨í"
        ],
        [
          "Ġh",
          "ello"
        ],
        [
          "µ¬",
          "ìķ¼"
        ],
        [
          "Ġë³´",
          "ê³ł"
        ],
        [
          "Ġê°ĢëĬ¥",
          "íķ´"
        ],
        [
          "Ġë°°ìļ°",
          "ê³ł"
        ],
        [
          "Ġíķľë§ĪëĶĶ",
          "ë§Į"
        ],
        [
          "ĠT",
          "ell"
        ],
        [
          "ĠH",
          "ello"
        ],
        [
          "ĠëĪĦê",
          "µ¬ìķ¼"
        ],
        [
          "ĠìĺĪì",
          "¸¡"
        ],
        [
          "ĠíĮ¨í",
          "Ħ´ìĿĦ"
        ],
        [
          "¸",
          "Ķë"
        ],
        [
          "ë",
          "¸Ķë"
        ],
        [
          "Ġ",
          "or"
        ],
        [
          "Ġì§",
          "ģ"
        ],
        [
          "Ġìĥ",
          "Īì"
        ],
        [
          "Ġìĸĺê¸°",
          "íķ´ëıĦ"
        ],
        [
          "Ġìī",
          "¬"
        ],
        [
          "ww",
          "w"
        ],
        [
          "¡Ŀ",
          "ìĬ¤"
        ],
        [
          "ë¶Ģ",
          "ë¥¼"
        ],
        [
          "Ġë¡ľ",
          "ë¸Ķë"
        ],
        [
          "ĠìĥĪì",
          "½¤"
        ],
        [
          "Ġë¡ľë¸Ķë",
          "¡ĿìĬ¤"
        ],
        [
          "¦",
          "Ħ"
        ],
        [
          "ľ",
          "»"
        ],
        [
          "Ġì",
          "Ĥ"
        ],
        [
          "Ġë",
          "ľ»"
        ],
        [
          "íķ",
          "´ë"
        ],
        [
          "íķĺ",
          "ê¸°ë³´ëĭ¤"
        ],
        [
          "Ġí",
          "ĺ"
        ],
        [
          "ê°",
          "Ĳ"
        ],
        [
          "ëıĦ",
          "ìĹĲ"
        ],
        [
          "Ġìłķ",
          "íķ´ì"
        ],
        [
          "ìŀ",
          "Īìĸ´"
        ],
        [
          "Ġì§Īë¬¸",
          "ëıĦ"
        ],
        [
          "ĠëŃĲíķł",
          "ìĪĺ"
        ],
        [
          "ĠìĿ´ë",
          "¦Ħ"
        ],
        [
          "ĠìķĦëĭĪ",
          "ì§Ģ"
        ],
        [
          "ĠìĿ´ìĥģ",
          "íĸĪ"
        ],
        [
          "Ġë°ĺë³µ",
          "íķĺê¸°ë³´ëĭ¤"
        ],
        [
          "Ġë©Ķìĭľì§Ģ",
          "ë¥¼"
        ],
        [
          "Ġì°¨",
          "ë¶Ħ"
        ],
        [
          "ĠìĿĺ",
          "ëıĦìĹĲ"
        ],
        [
          "ĠíĻķìĿ¸",
          "íķ´ìĦľ"
        ],
        [
          "´ìŀ",
          "Ĳ"
        ],
        [
          "Ġìłķíķ´ì",
          "§Ħ"
        ],
        [
          "ĠëŃĲíķłìĪĺ",
          "ìŀĪìĸ´"
        ],
        [
          "u",
          "g"
        ],
        [
          "¥",
          "ê¸Ģ"
        ],
        [
          "¿",
          "Ķ"
        ],
        [
          "í",
          "ĺ"
        ],
        [
          "Ġ",
          "i"
        ],
        [
          "Į",
          "ëł¤"
        ],
        [
          "ĳ",
          "¥ê¸Ģ"
        ],
        [
          "Ġë",
          "ĳ¥ê¸Ģ"
        ],
        [
          "ìķ",
          "½"
        ],
        [
          "¤ë",
          "ŀĺ"
        ],
        [
          "Ġìĺ",
          "¤ëŀĺ"
        ],
        [
          "Ġë§ģíģ¬",
          "ëĬĶ"
        ],
        [
          "Ġì¤",
          "Ģ"
        ],
        [
          "ĠìĥĿ",
          "ìľ¼ë¡ľ"
        ],
        [
          "Ġì¤ĳ",
          "ìĹĲìĦľ"
        ],
        [
          "Ġë¬¸ìłľ",
          "ë¥¼"
        ],
        [
          "ìĬ¤",
          "íħ"
        ],
        [
          "Ġê·¸ëŁ",
          "´"
        ],
        [
          "Ġì¶Ķ",
          "ìłģ"
        ],
        [
          "Ġë¬»",
          "ëĬĶ"
        ],
        [
          "Ġìĭľ",
          "ìĬ¤íħ"
        ],
        [
          "Ġë³´ëĤ",
          "´ì£¼ë©´"
        ],
        [
          "Ġë°Ķê",
          "¿Ķ"
        ],
        [
          "ĠìĿ´ë¦Ħ",
          "ìĿ´ìķ¼"
        ],
        [
          "Ġëĳ¥ê¸Ģ",
          "ê³ł"
        ],
        [
          "ĠìĭľìĬ¤íħ",
          "ľ"
        ],
        [
          "a",
          "k"
        ],
        [
          "g",
          "h"
        ],
        [
          "i",
          "gh"
        ],
        [
          "p",
          "ly"
        ],
        [
          "r",
          "st"
        ],
        [
          "µ",
          "Ĳ"
        ],
        [
          "¸",
          "ë¡ľ"
        ],
        [
          "ë",
          "ªħ"
        ],
        [
          "ĺ",
          "ë¦¬"
        ],
        [
          "ĺ",
          "¤ë¥"
        ],
        [
          "ľ",
          "ëĭ¤"
        ],
        [
          "Ġë§",
          "ī"
        ],
        [
          "Ġìŀ",
          "ĺ"
        ],
        [
          "Ġë°",
          "Ľ"
        ],
        [
          "Ġí",
          "Ľ"
        ],
        [
          "ìĹ",
          "Ń"
        ],
        [
          "Ġëĭµ",
          "íķ´ì¤ĺ"
        ],
        [
          "ê°Ģ",
          "ëıĦ"
        ],
        [
          "Ġì§Ģ",
          "ìĹŃ"
        ],
        [
          "Ġë°©íĸ¥",
          "ìĿĦ"
        ],
        [
          "ĠíķĺëĤĺ",
          "ë§Į"
        ],
        [
          "Ġìĸ´ë",
          "ķĮ"
        ],
        [
          "Ħê",
          "µĲ"
        ],
        [
          "łì",
          "ĺ¤ë¥"
        ],
        [
          "Ġë¹",
          "ĦêµĲ"
        ],
        [
          "ĠìļĶ",
          "ìķ½"
        ],
        [
          "Ġì²",
          "ĺë¦¬"
        ],
        [
          "Ġëį°ìĿ´íĦ°",
          "ë¥¼"
        ],
        [
          "Ġs",
          "pe"
        ],
        [
          "Ġre",
          "ply"
        ],
        [
          "Ġëĭ¬",
          "ê±°ëĤĺ"
        ],
        [
          "Ġê³¼ìĿ¼",
          "ìĿ´ìķ¼"
        ],
        [
          "Ġë¬¸êµ¬",
          "ë¥¼"
        ],
        [
          "Ġfi",
          "rst"
        ],
        [
          "Ġëĸ",
          "łìĺ¤ë¥"
        ],
        [
          "Ġì§ģ",
          "ìł"
        ],
        [
          "igh",
          "t"
        ],
        [
          "Ġë¹ĦêµĲ",
          "ìłģ"
        ],
        [
          "Ġspe",
          "ak"
        ],
        [
          "Ġëĸłìĺ¤ë¥",
          "´ëĬĶ"
        ],
        [
          "o",
          "re"
        ],
        [
          "Ġ",
          "n"
        ],
        [
          "Ī",
          "ľ"
        ],
        [
          "ł",
          "ìĿĢ"
        ],
        [
          "Ġë",
          "²Ī"
        ],
        [
          "Ġê°",
          "Īê²Į"
        ],
        [
          "ìĭ",
          "¬"
        ],
        [
          "Īë",
          "¥¼"
        ],
        [
          "ĠëŃ",
          "ĺ"
        ],
        [
          "ĠëŃĲ",
          "ë¶ĢíĦ°"
        ],
        [
          "Ġìĺ",
          "Īë¥¼"
        ],
        [
          "ìĦľ",
          "ë¶ĢíĦ°"
        ],
        [
          "ĠëĤ",
          "łìĿĢ"
        ],
        [
          "Ġìª½",
          "ìĹĲìĦľ"
        ],
        [
          "Ġíİ¸",
          "íķľ"
        ],
        [
          "ĠíķĺëĤĺ",
          "ë¥¼"
        ],
        [
          "Ġì§§ê²Į",
          "ë§Į"
        ],
        [
          "ëł¤",
          "ê³ł"
        ],
        [
          "ĠìĿĳ",
          "ëĭµ"
        ],
        [
          "ìłľ",
          "ë¥¼"
        ],
        [
          "Ġë§ģíģ¬",
          "ëıĦ"
        ],
        [
          "ĠìĿ¼",
          "ë¶Ģë¥¼"
        ],
        [
          "ĠìĻ",
          "¸ë¡ľ"
        ],
        [
          "ĠìķĮëł¤",
          "ì¤Ħê²Į"
        ],
        [
          "ĠíĴĢ",
          "ìĸ´ëıĦ"
        ],
        [
          "Ġm",
          "ore"
        ],
        [
          "Ġëĵ",
          "¤ë©´"
        ],
        [
          "Ġë§Į",
          "ëĵ"
        ],
        [
          "Ġê±°ê¸°",
          "ìĹĲ"
        ],
        [
          "Ġê±°ê¸°",
          "ìĦľë¶ĢíĦ°"
        ],
        [
          "Ġìłģ",
          "ìĸ´ì£¼ë©´"
        ],
        [
          "Ġìī¬",
          "ìļ´"
        ],
        [
          "ĠìĭľìĬ¤íħľ",
          "ìĿĦ"
        ],
        [
          "ĠìĿĳëĭµ",
          "ìĿ´"
        ],
        [
          "a",
          "r"
        ],
        [
          "ê",
          "±"
        ],
        [
          "ì",
          "ľĦ"
        ],
        [
          "Ġì",
          "Īľ"
        ],
        [
          "´ë",
          "¦"
        ],
        [
          "Ġíķĺ",
          "ë©´"
        ],
        [
          "ìĬ",
          "µ"
        ],
        [
          "Ġê°Ģ",
          "ì§Ģ"
        ],
        [
          "Ġìĭ",
          "Ŀ"
        ],
        [
          "Ġìĸ´ë",
          "ĬĲ"
        ],
        [
          "Ġì¹ľê·¼",
          "íķľ"
        ],
        [
          "ĠëĬĲ",
          "ëł¤"
        ],
        [
          "Ġë¹",
          "¼"
        ],
        [
          "Ġë§ĲíĪ¬",
          "ë¡ľ"
        ],
        [
          "Ġë§ĲíĪ¬",
          "ê°Ģ"
        ],
        [
          "Ġë¶Ģë¶Ħ",
          "ìĿ´"
        ],
        [
          "Ġë¶Ģë¶Ħ",
          "ë¶ĢíĦ°"
        ],
        [
          "Ġëĵ",
          "¤ìĸ´"
        ],
        [
          "ĠìĹ¬",
          "ê¸°"
        ],
        [
          "ĠìĹ¬",
          "ëŁ¬"
        ],
        [
          "Ġêµ",
          "°ìĤ°"
        ],
        [
          "Ġêº¼ëĤ",
          "´ë"
        ],
        [
          "ĠìĥĪì½¤",
          "íķľ"
        ],
        [
          "ê°Ĳ",
          "ìĿ´"
        ],
        [
          "ĠìĪľ",
          "ìĦľ"
        ],
        [
          "u",
          "n"
        ],
        [
          "Ġ",
          "R"
        ],
        [
          "Ġ",
          "p"
        ],
        [
          "ĩ",
          "½"
        ],
        [
          "Ĳ",
          "ìĦľ"
        ],
        [
          "ìĸ",
          "ĳ"
        ],
        [
          "ìĸ",
          "´ì¤ĺ"
        ],
        [
          "ìĸ",
          "´ìĦľ"
        ],
        [
          "ĠìŀĪ",
          "ê³ł"
        ],
        [
          "Ġíķĺ",
          "ìĿ´"
        ],
        [
          "Ķë",
          "ī"
        ],
        [
          "Ġì¢ĭ",
          "ê³ł"
        ],
        [
          "ìłģ",
          "ìľ¼ë¡ľ"
        ],
        [
          "ĠëĤĺ",
          "ë¬"
        ],
        [
          "ĠìķĪë",
          "ĩ½"
        ],
        [
          "ĠìĿ´ìķ¼",
          "ê¸°"
        ],
        [
          "Ġë©",
          "Ķëī"
        ],
        [
          "Ġìĸ´ìĥīíĸĪ",
          "ìĸ´"
        ],
        [
          "Ġê²",
          "Į"
        ],
        [
          "Ġì§ĢëĤ",
          "´ëĬĶ"
        ],
        [
          "ë¹",
          "Ħ"
        ],
        [
          "rob",
          "lox"
        ],
        [
          "´ìĹ",
          "ĲìĦľ"
        ],
        [
          "Ġíĺ",
          "Ħ"
        ],
        [
          "ĠìĪľìĦľ",
          "ë¡ľ"
        ],
        [
          "ĠëĤĺë¬",
          "´ìĹĲìĦľ"
        ],
        [
          "O",
          "pe"
        ],
        [
          "n",
          "AI"
        ],
        [
          "r",
          "a"
        ],
        [
          "¨",
          "ëĿ¼"
        ],
        [
          "¬",
          "ëĬĶ"
        ],
        [
          "³",
          "´ìŀĲ"
        ],
        [
          "Â",
          "·"
        ],
        [
          "ë",
          "¡Ŀ"
        ],
        [
          "ë",
          "ĮĢë¡ľ"
        ],
        [
          "í",
          "İ"
        ],
        [
          "Ġ",
          "Ope"
        ],
        [
          "Ģ",
          "ë³¼ê²Į"
        ],
        [
          "ĺ",
          "Ģë³¼ê²Į"
        ],
        [
          "Ġë§Ĳ",
          "ìķĦì¤ĺ"
        ],
        [
          "ìĿ´",
          "ê¸°"
        ],
        [
          "Ġí",
          "ĸ"
        ],
        [
          "Ġí",
          "ŀĺ"
        ],
        [
          "ëĭ",
          "¤ë©´"
        ],
        [
          "ìĭ",
          "Ŀ"
        ],
        [
          "Ġê·¸",
          "ê²Į"
        ],
        [
          "Ġê·¸",
          "ê±"
        ],
        [
          "Ġì¢",
          "ģí"
        ],
        [
          "Ġì¢ĭ",
          "ìĿĢ"
        ],
        [
          "ê²ł",
          "ëĭ¤ê³ł"
        ],
        [
          "Ġì§§",
          "ìĿĢ"
        ],
        [
          "Ġì§Īë¬¸",
          "ìĹĲëĬĶ"
        ],
        [
          "Ġw",
          "it"
        ],
        [
          "Ġì¤Ħ",
          "ê²Į"
        ],
        [
          "ĠëĤĺ",
          "ê³ł"
        ],
        [
          "ĠìŀĲìĹ°ìĬ¤ëŁ",
          "½ê³ł"
        ],
        [
          "ĠíķĺëĤĺ",
          "ìķ¼"
        ],
        [
          "ĠíĮĮìĿ´ìį¬",
          "ëıĦ"
        ],
        [
          "Ġë³´",
          "ê¸°"
        ],
        [
          "ĠëĬĲ",
          "ê»"
        ],
        [
          "ĠìĽĲìĿ¸",
          "ë¶ĢíĦ°"
        ],
        [
          "ëĿ¼",
          "ëĬĶ"
        ],
        [
          "ĠìĿ´ìĥģ",
          "íķ´"
        ],
        [
          "Ġê¸°",
          "ì"
        ],
        [
          "ĠìĻ",
          "ľ"
        ],
        [
          "Ġëįĺìł¸",
          "ëıĦ"
        ],
        [
          "Ġë°ĺëł¤ëıĻë¬¼",
          "ìĿ´ê¸°"
        ],
        [
          "Ġëĭ¬",
          "ëĿ¼ê³ł"
        ],
        [
          "ĺìĿ´ì§Ģ",
          "ëĤĺ"
        ],
        [
          "Ġìłķë¦¬íķ´ì",
          "¤Ħê²Į"
        ],
        [
          "ëĦ",
          "¤"
        ],
        [
          "íķ´ë",
          "³´ìŀĲ"
        ],
        [
          "Ġì¤Ģ",
          "ë¹Ħ"
        ],
        [
          "Ġì§ģìł",
          "ĳ"
        ],
        [
          "´ë¦",
          "¬ëĬĶ"
        ],
        [
          "ĠOpe",
          "nAI"
        ],
        [
          "Ġíŀĺ",
          "ëĵ"
        ],
        [
          "Ġì¢ģí",
          "ĺĢë³¼ê²Į"
        ],
        [
          "Ġwit",
          "h"
        ],
        [
          "Ġë°ĺëł¤ëıĻë¬¼ìĿ´ê¸°",
          "ëıĦ"
        ],
        [
          "Ġì¤Ģë¹Ħ",
          "ë¥¼"
        ],
        [
          "G",
          "P"
        ],
        [
          "c",
          "h"
        ],
        [
          "ê",
          "µ"
        ],
        [
          "ê",
          "·¼"
        ],
        [
          "Ġ",
          "on"
        ],
        [
          "Ĩ",
          "į"
        ],
        [
          "Ķ",
          "íŀĪ"
        ],
        [
          "ĺ",
          "¨"
        ],
        [
          "Ġíķ",
          "´ëıĦ"
        ],
        [
          "ĠìĿ´ì",
          "ľł"
        ],
        [
          "ĠìĪĺ",
          "ëĭ¤"
        ],
        [
          "Ġìłķë¦¬",
          "íķ´ëıĦ"
        ],
        [
          "ìŀ",
          "¬"
        ],
        [
          "Ġëı",
          "Įëł¤"
        ],
        [
          "ĠìĦ¤ëªħ",
          "íķľëĭ¤"
        ],
        [
          "Ġw",
          "or"
        ],
        [
          "Ġì¤Ħ",
          "ìĿ´"
        ],
        [
          "hat",
          "GP"
        ],
        [
          "Ġìłľ",
          "ëĮĢë¡ľ"
        ],
        [
          "Ġìļ°ë¦¬",
          "ê°Ģ"
        ],
        [
          "Ġto",
          "o"
        ],
        [
          "ĠíĿ",
          "ĶíŀĪ"
        ],
        [
          "ĠBee",
          "ê³ł"
        ],
        [
          "ĠíĿĲë¦Ħ",
          "ìĿĦ"
        ],
        [
          "Ġë¨¹",
          "ëĬĶ"
        ],
        [
          "ëĵľ",
          "ëĬĶ"
        ],
        [
          "Ġë§Į",
          "ëĵľëĬĶ"
        ],
        [
          "ĠíķĺëĬĶ",
          "ê±°"
        ],
        [
          "Ġi",
          "f"
        ],
        [
          "ĠíĺĦ",
          "ìŀ¬"
        ],
        [
          "Ġíŀĺëĵ",
          "¤ìĸ´"
        ],
        [
          "Ġwor",
          "k"
        ],
        [
          "hatGP",
          "T"
        ],
        [
          "a",
          "y"
        ],
        [
          "r",
          "ight"
        ],
        [
          "w",
          "ay"
        ],
        [
          "ë",
          "©"
        ],
        [
          "Ġ",
          "`"
        ],
        [
          "Ġ",
          "right"
        ],
        [
          "Ħ",
          "ì"
        ],
        [
          "Ġì",
          "¡"
        ],
        [
          "Ġë",
          "ķĮ"
        ],
        [
          "íķ",
          "´ë³¼"
        ],
        [
          "íķĺ",
          "ëł¤ê³ł"
        ],
        [
          "Ġëĭ",
          "¨"
        ],
        [
          "Ġë§Ĳíķ",
          "ľëĭ¤"
        ],
        [
          "Ġëį",
          "ľ"
        ],
        [
          "³¼",
          "ê²Į"
        ],
        [
          "ìĦ",
          "ł"
        ],
        [
          "Ġê³",
          "µ"
        ],
        [
          "Ġìª½",
          "ìĹĲ"
        ],
        [
          "Ġë¶Ģ",
          "ëĵľ"
        ],
        [
          "ĠìĿ¸",
          "ìłķ"
        ],
        [
          "Ġê·¸ëŁ",
          "°"
        ],
        [
          "ĠìķĮëł¤",
          "ì£¼ë©´"
        ],
        [
          "Ġì£¼",
          "ìłľë¥¼"
        ],
        [
          "Ġa",
          "way"
        ],
        [
          "ĠëĶ±ëĶ±",
          "íķĺê²Į"
        ],
        [
          "Ġë°°ìļ°",
          "ê¸°"
        ],
        [
          "Ġë¶ĻìĹ¬",
          "ì£¼ë©´"
        ],
        [
          "Ġêº¼ëĤ´ë",
          "´Ĳ"
        ],
        [
          "êµ",
          "°ìĤ°"
        ],
        [
          "Ġì¤ĦìĿ´",
          "ê³ł"
        ],
        [
          "A",
          "P"
        ],
        [
          "G",
          "o"
        ],
        [
          "a",
          "d"
        ],
        [
          "a",
          "s"
        ],
        [
          "a",
          "ll"
        ],
        [
          "i",
          "re"
        ],
        [
          "¦",
          "ĺ"
        ],
        [
          "¨",
          "ì§Ģ"
        ],
        [
          "ª",
          "¨ì§Ģ"
        ],
        [
          "´",
          "ê²Į"
        ],
        [
          "ì",
          "ª½"
        ],
        [
          "ì",
          "¦ĺ"
        ],
        [
          "Ġ",
          "it"
        ],
        [
          "Ġ",
          "AP"
        ],
        [
          "Ġ",
          "Go"
        ],
        [
          "ĥ",
          "ľ"
        ],
        [
          "Ī",
          "ł"
        ],
        [
          "ī",
          "íķĺëĬĶ"
        ],
        [
          "Į",
          "ĵ"
        ],
        [
          "Ġì",
          "ĨĮê°ľ"
        ],
        [
          "´ë",
          "Įĵ"
        ],
        [
          "ìķ",
          "ĺ"
        ],
        [
          "Ġë§Ĳ",
          "íķĺëĬĶ"
        ],
        [
          "ëĭ",
          "¨"
        ],
        [
          "ìĿĦ",
          "ì§Ģ"
        ],
        [
          "Īë",
          "ł"
        ],
        [
          "Ġëĭµ",
          "íķĺëĬĶ"
        ],
        [
          "ê°Ģ",
          "ìĽĮ"
        ],
        [
          "Ġê·¸",
          "ìª½"
        ],
        [
          "ĠìĪĺ",
          "íĸ"
        ],
        [
          "Ġìłķ",
          "íķĺë©´"
        ],
        [
          "Ġìłķ",
          "íķ´ìĦľ"
        ],
        [
          "Ġìłķ",
          "íķĺìŀĲ"
        ],
        [
          "Ġìĺ",
          "¨"
        ],
        [
          "ìĹĲ",
          "ëıĦ"
        ],
        [
          "Ġì¢ĭ",
          "ìĿĦì§Ģ"
        ],
        [
          "ê²ł",
          "ìĬµ"
        ],
        [
          "at",
          "ur"
        ],
        [
          "Ġíİ",
          "ĺìĿ´ì§ĢëĤĺ"
        ],
        [
          "Ġë°ĺ",
          "ë§Ĳë¡ľ"
        ],
        [
          "Ġë°ĺ",
          "ê°ĢìĽĮ"
        ],
        [
          "ëĭĪ",
          "ëĭ¤"
        ],
        [
          "ct",
          "ly"
        ],
        [
          "ĠìĿ´ë",
          "ª¨ì§Ģ"
        ],
        [
          "Ġd",
          "ire"
        ],
        [
          "ĠìĿ´ìĸ´",
          "ê°Ģ"
        ],
        [
          "Ġëĭ¤ë¥",
          "´ê²Į"
        ],
        [
          "ĠìļĶ",
          "ì¦ĺ"
        ],
        [
          "Ġìĭ¶",
          "ìĸ´"
        ],
        [
          "Ġêµ¬",
          "ê¸Ģ"
        ],
        [
          "Ġre",
          "ad"
        ],
        [
          "ĠC",
          "hatGPT"
        ],
        [
          "Ġë°ĺë³µ",
          "ë³´ëĭ¤"
        ],
        [
          "ë¹",
          "ĽìĿ´"
        ],
        [
          "Ġëª",
          "¨"
        ],
        [
          "Ġìĥģí",
          "ĥľ"
        ],
        [
          "Ġì°¨ë¶Ħ",
          "íķĺê²Į"
        ],
        [
          "Ġë°Ķê¿Ķ",
          "ì¤ĺ"
        ],
        [
          "Ġë§ī",
          "íŀ"
        ],
        [
          "Ġë°Ľ",
          "ìķĦ"
        ],
        [
          "Ġì§ĢìĹŃ",
          "ëªħ"
        ],
        [
          "Ġn",
          "atur"
        ],
        [
          "Ġë§Įëĵ",
          "¤"
        ],
        [
          "Ġê¸°ì",
          "Īł"
        ],
        [
          "Ġì¡",
          "´ëĮĵ"
        ],
        [
          "all",
          "y"
        ],
        [
          "ĠAP",
          "I"
        ],
        [
          "ĠGo",
          "t"
        ],
        [
          "ĠìĪĺíĸ",
          "īíķĺëĬĶ"
        ],
        [
          "ê²łìĬµ",
          "ëĭĪëĭ¤"
        ],
        [
          "Ġdire",
          "ctly"
        ],
        [
          "Ġnatur",
          "ally"
        ],
        [
          "Ġì¡´ëĮĵ",
          "ë§Ĳë¡ľ"
        ],
        [
          "i",
          "z"
        ],
        [
          "o",
          "g"
        ],
        [
          "¬",
          "ë"
        ],
        [
          "¯",
          "¸"
        ],
        [
          "¶",
          "ìĿĮ"
        ],
        [
          "¸",
          "Į"
        ],
        [
          "ë",
          "į"
        ],
        [
          "ë",
          "¬¸"
        ],
        [
          "ì",
          "£¼ëĬĶ"
        ],
        [
          "í",
          "Ļķ"
        ],
        [
          "Ġ",
          "ge"
        ],
        [
          "ļ",
          "ìĸ´ì£¼ë©´"
        ],
        [
          "ŀ",
          "ĳ"
        ],
        [
          "Ń",
          "íķľ"
        ],
        [
          "Ġë",
          "¸Į"
        ],
        [
          "ê²",
          "¨"
        ],
        [
          "Ġìŀ",
          "¬ë"
        ],
        [
          "Ġí",
          "ĻĶ"
        ],
        [
          "ĠìŀĪ",
          "ëĬĶ"
        ],
        [
          "ê°Ģ",
          "ìĦľ"
        ],
        [
          "Ġì§",
          "ļìĸ´ì£¼ë©´"
        ],
        [
          "Ġìłķ",
          "ìĿĺ"
        ],
        [
          "Ġìłķë¦¬",
          "ë¥¼"
        ],
        [
          "ĠìķĦ",
          "ìĤ"
        ],
        [
          "Ġë³",
          "´ëĬĶ"
        ],
        [
          "ìĿ´ë",
          "Ŀ¼"
        ],
        [
          "Ġë¬",
          "¶ìĿĮ"
        ],
        [
          "Ġë¶Ħ",
          "ìľĦ"
        ],
        [
          "le",
          "m"
        ],
        [
          "le",
          "ar"
        ],
        [
          "ëĿ¼",
          "ìļ°"
        ],
        [
          "Ġë¬¼",
          "ìľ¼ë©´"
        ],
        [
          "Ġê°ľ",
          "ìĦł"
        ],
        [
          "ìłĢ",
          "ë¡ľ"
        ],
        [
          "ĠìĽ¹",
          "íİ"
        ],
        [
          "ĠíĮĮìĿ¼",
          "ìĿ´ëĤĺ"
        ],
        [
          "£Į",
          "ë¡ľëıĦ"
        ],
        [
          "Ġìĸ¸",
          "ìĸ´"
        ],
        [
          "ĠëĶĶìłĢíĬ¸",
          "ìĹĲëıĦ"
        ],
        [
          "Ġë¶Ħë¥ĺ",
          "íķĺê±°ëĤĺ"
        ],
        [
          "rob",
          "lem"
        ],
        [
          "ĺìĿ´ì§Ģ",
          "ìĿĺ"
        ],
        [
          "ĠìĽ¹ìĤ¬ìĿ´íĬ¸",
          "ëĬĶ"
        ],
        [
          "ĠìĽ¹ìĤ¬ìĿ´íĬ¸",
          "ê°Ģ"
        ],
        [
          "Ġëľ»",
          "íķ´"
        ],
        [
          "ĠìĿ´ìĥģíĸĪ",
          "ëĬĶì§Ģ"
        ],
        [
          "ĠìĭĿ",
          "ê°ĲìĿ´"
        ],
        [
          "Ġëĵ¤ìĸ´",
          "ê°ĢìĦľ"
        ],
        [
          "Ġp",
          "roblem"
        ],
        [
          "Ġì§ģìłĳ",
          "ìłģìľ¼ë¡ľ"
        ],
        [
          "ë©",
          "´ìĦľ"
        ],
        [
          "Ġë§īíŀ",
          "Į"
        ],
        [
          "Ġì§ĢìĹŃëªħ",
          "ìĿĦ"
        ],
        [
          "Ġê¸°ìĪł",
          "ìĿĦ"
        ],
        [
          "iz",
          "e"
        ],
        [
          "Ġë¸Į",
          "ëĿ¼ìļ°"
        ],
        [
          "Ġìŀ¬ë",
          "£Įë¡ľëıĦ"
        ],
        [
          "ĠìķĦìĤ",
          "Ńíķľ"
        ],
        [
          "Ġë¬¶ìĿĮ",
          "ìĿ´ìķ¼"
        ],
        [
          "Ġë¶ĦìľĦ",
          "ê¸°"
        ],
        [
          "ĠìĽ¹íİ",
          "ĺìĿ´ì§ĢìĿĺ"
        ],
        [
          "Ġë¸ĮëĿ¼ìļ°",
          "ìłĢë¡ľ"
        ],
        [
          "'",
          "m"
        ],
        [
          "1",
          "0"
        ],
        [
          "a",
          "in"
        ],
        [
          "b",
          "ug"
        ],
        [
          "c",
          "e"
        ],
        [
          "e",
          "x"
        ],
        [
          "f",
          "t"
        ],
        [
          "h",
          "ere"
        ],
        [
          "l",
          "ain"
        ],
        [
          "n",
          "s"
        ],
        [
          "p",
          "lain"
        ],
        [
          "t",
          "s"
        ],
        [
          "u",
          "e"
        ],
        [
          "x",
          "es"
        ],
        [
          "¥",
          "ë"
        ],
        [
          "¬",
          "ìĭ¬"
        ],
        [
          "ë",
          "ħ"
        ],
        [
          "ì",
          "¹"
        ],
        [
          "ì",
          "£¼"
        ],
        [
          "í",
          "ļ"
        ],
        [
          "Ġ",
          "4"
        ],
        [
          "Ġ",
          "is"
        ],
        [
          "Ġ",
          "10"
        ],
        [
          "Ġ",
          "ex"
        ],
        [
          "ĺ",
          "ìĸ´"
        ],
        [
          "ł",
          "¤ë"
        ],
        [
          "Ń",
          "ëıĦ"
        ],
        [
          "Ġë",
          "²ĪìĹ"
        ],
        [
          "Ġë",
          "´ĲëıĦ"
        ],
        [
          "Ġê°",
          "Ī"
        ],
        [
          "Ġëĭµ",
          "ìĿĺ"
        ],
        [
          "ĠëŃĲ",
          "ê°Ģ"
        ],
        [
          "ĠëŃĲ",
          "íķĺì§Ģ"
        ],
        [
          "Ġê°Ļ",
          "ìķĦ"
        ],
        [
          "ëĤĺ",
          "ëĬĶ"
        ],
        [
          "ĠëĦ",
          "ĺìĸ´"
        ],
        [
          "ĠìŀĲ",
          "ëĿ¼ëĬĶ"
        ],
        [
          "Ġëı",
          "Įë¦¬"
        ],
        [
          "ĠìĦ¤ëªħ",
          "ìĿĦ"
        ],
        [
          "Ġê°Ģ",
          "ëıĦ"
        ],
        [
          "ĠíĮĮ",
          "ëıĦ"
        ],
        [
          "Ġíķľ",
          "ëĭ¤"
        ],
        [
          "ë¶ĢíĦ°",
          "ëĬĶ"
        ],
        [
          "ĠëıĦìĻĢ",
          "ì£¼ëĬĶ"
        ],
        [
          "Ġìĭ",
          "¬ìĭ¬"
        ],
        [
          "ction",
          "s"
        ],
        [
          "Ġd",
          "ra"
        ],
        [
          "Ġt",
          "here"
        ],
        [
          "ë¶Ħ",
          "ìĿ´"
        ],
        [
          "Ġf",
          "un"
        ],
        [
          "Ġì¤ĳ",
          "ìĿ´ìķ¼"
        ],
        [
          "Ġë¬¼",
          "ìĿĢ"
        ],
        [
          "Ġê°ľ",
          "ëħ"
        ],
        [
          "Ġdo",
          "g"
        ],
        [
          "Ġê¸°",
          "ë¶ĦìĿ´"
        ],
        [
          "Ġì¡°",
          "íļ"
        ],
        [
          "Ġíķł",
          "ì¤Ħ"
        ],
        [
          "Ġê³ł",
          "ìĸĳ"
        ],
        [
          "ĠíĴĢ",
          "ê³ł"
        ],
        [
          "ĠíĴĢ",
          "ìĸ´ì"
        ],
        [
          "Ġs",
          "ug"
        ],
        [
          "ĠìłľìķĪ",
          "íķľëĭ¤"
        ],
        [
          "Ġë°ĺëł¤ëıĻë¬¼",
          "ìĿ´ì§Ģ"
        ],
        [
          "ĠìĹĲëŁ¬",
          "ê°Ģ"
        ],
        [
          "Ġìĸ´ìĥīíĸĪ",
          "ìľ¼ë©´"
        ],
        [
          "ĠìĥĿê°ģ",
          "ëĤĺëĬĶ"
        ],
        [
          "ob",
          "lox"
        ],
        [
          "ge",
          "st"
        ],
        [
          "Ġfi",
          "xes"
        ],
        [
          "Ġë³¼",
          "ê¹Į"
        ],
        [
          "ĠíķĦìļĶ",
          "íķľ"
        ],
        [
          "Ġë¹¼",
          "ë©´"
        ],
        [
          "ĠR",
          "oblox"
        ],
        [
          "ĠìĿ´ìķ¼ê¸°",
          "íķĺìŀĲ"
        ],
        [
          "Ġë¶ĦìľĦê¸°",
          "ë§Į"
        ],
        [
          "Ġex",
          "plain"
        ],
        [
          "Ġë²ĪìĹ",
          "ŃëıĦ"
        ],
        [
          "ĠëıĮë¦¬",
          "ì§Ģ"
        ],
        [
          "Ġdra",
          "ft"
        ],
        [
          "Ġfun",
          "ctions"
        ],
        [
          "Ġê°ľëħ",
          "Ĳ"
        ],
        [
          "Ġì¡°íļ",
          "Į"
        ],
        [
          "Ġsug",
          "gest"
        ],
        [
          "w",
          "it"
        ],
        [
          "¢",
          "ħ"
        ],
        [
          "©",
          "ë¡Ŀ"
        ],
        [
          "ì",
          "§Ħ"
        ],
        [
          "Ĭ",
          "¨"
        ],
        [
          "Ķ",
          "ìĸ´"
        ],
        [
          "Ĺ",
          "ëĤĺ"
        ],
        [
          "Ļ",
          "©"
        ],
        [
          "ľ",
          "¬"
        ],
        [
          "Ġì",
          "ľĦ"
        ],
        [
          "Ġë",
          "Ĳ"
        ],
        [
          "Ġë",
          "Ķ"
        ],
        [
          "´ì",
          "Ĭ¨"
        ],
        [
          "Ġë§",
          "´ëıĦ"
        ],
        [
          "íķĺ",
          "ëĭ¤ê³ł"
        ],
        [
          "íķĺ",
          "ê²łëĭ¤ê³ł"
        ],
        [
          "Ġí",
          "ģ¬"
        ],
        [
          "ìł",
          "Ĳ"
        ],
        [
          "ê°",
          "Ķìĸ´"
        ],
        [
          "¤ë",
          "ľ¬"
        ],
        [
          "ìĭ",
          "ł"
        ],
        [
          "Ġëĭµ",
          "ëĭµ"
        ],
        [
          "Ġìłķ",
          "íĻķ"
        ],
        [
          "Ġìĺ",
          "Ī"
        ],
        [
          "Ġìłķë¦¬",
          "ëĤĺ"
        ],
        [
          "Ġìłķë¦¬",
          "íķł"
        ],
        [
          "Ġìłķë¦¬",
          "íķ´ì¤ĺ"
        ],
        [
          "Ġì¢ĭ",
          "ëĦ¤"
        ],
        [
          "ìľ¼ë¡ľ",
          "ëıĦ"
        ],
        [
          "ìĿ¸",
          "ì§Ģ"
        ],
        [
          "ì¶",
          "ľ"
        ],
        [
          "Ġê·¸ë",
          "ĮĢë¡ľ"
        ],
        [
          "ĠìķĦ",
          "ë¬"
        ],
        [
          "ìĬ¤ë",
          "Ĥĺ"
        ],
        [
          "Ġë°©íĸ¥",
          "ê¹Įì§Ģ"
        ],
        [
          "Ġë¬",
          "´ìĬ¨"
        ],
        [
          "ĠëıĦìĻĢ",
          "ì¤ĺ"
        ],
        [
          "Ġë§ŀì¶°",
          "ì§Ħ"
        ],
        [
          "Ġì½ĶëĶ©",
          "ëıĦ"
        ],
        [
          "Ġë¬¸ìłľ",
          "ìłĲ"
        ],
        [
          "ĠíĴ",
          "Īì"
        ],
        [
          "Ġì¶Ķ",
          "ì¶ľ"
        ],
        [
          "Ġê°ľ",
          "ë°"
        ],
        [
          "Ġë¹",
          "¨ëĿ¼"
        ],
        [
          "Ġë¹",
          "ĹëĤĺ"
        ],
        [
          "Ġìĸĺê¸°",
          "íķ´ë³´ìŀĲ"
        ],
        [
          "Ġìī",
          "½ê³ł"
        ],
        [
          "Ġì£¼",
          "ìĬ¤ëĤĺ"
        ],
        [
          "Ġëį°ìĿ´íĦ°",
          "ìĹĲìĦľ"
        ],
        [
          "Ġs",
          "wit"
        ],
        [
          "ĠìĹĨ",
          "ìĿ´"
        ],
        [
          "Ġa",
          "m"
        ],
        [
          "Ġëĵ",
          "¤ëľ¬"
        ],
        [
          "ĠìķĬ",
          "ê³ł"
        ],
        [
          "ĠëĬĲëĤĮ",
          "ìĿ´ëĤĺ"
        ],
        [
          "ĠìĥĿê°ģ",
          "ìĿ´"
        ],
        [
          "Ġë©Ķìĭľì§Ģ",
          "ëĤĺ"
        ],
        [
          "ë¶Ģ",
          "íķł"
        ],
        [
          "ĠíĨ¤",
          "ìĿ´ëĤĺ"
        ],
        [
          "ĠíĨ¤",
          "ìľ¼ë¡ľëıĦ"
        ],
        [
          "ĠëĤ´ìļ©",
          "ìĿ´ëĤĺ"
        ],
        [
          "Ġê´ľì°®",
          "ëĭ¤ë©´"
        ],
        [
          "Ġíķľë§ĪëĶĶ",
          "ëıĦ"
        ],
        [
          "Ġêº¼ëĤ",
          "´ëıĦ"
        ],
        [
          "ĠëĶĶìłĢíĬ¸",
          "ë¡ľëıĦ"
        ],
        [
          "Ġì§ĢëĤ",
          "´"
        ],
        [
          "Ġë¬»",
          "ê±°ëĤĺ"
        ],
        [
          "ĠìŀĳìĦ±",
          "ê¹Įì§Ģ"
        ],
        [
          "Ġëª",
          "©ë¡Ŀ"
        ],
        [
          "´ì§Ģ",
          "ì§Ģ"
        ],
        [
          "ĠíķĦìļĶ",
          "íķĺë©´"
        ],
        [
          "Ġíķ´ê²°",
          "íķĺëł¤ê³ł"
        ],
        [
          "Ġìłķë¦¬íķ´ì",
          "£¼ëĬĶ"
        ],
        [
          "ĠëĮĢ",
          "ìĭł"
        ],
        [
          "ĠìŀĲê¸°ìĨĮê°ľ",
          "íķ´ì¤ĺ"
        ],
        [
          "Ġíķ´ë³¼ê¹Į",
          "ìļĶ"
        ],
        [
          "ĠìĤ",
          "´ë¦¬ëĬĶ"
        ],
        [
          "Ġì°¨ë¶Ħ",
          "íķľ"
        ],
        [
          "Ġë²Ī",
          "ìĹĲ"
        ],
        [
          "ĠìĻ¸ë¡ľ",
          "ìļ´"
        ],
        [
          "ĠìĻ¸ë¡ľ",
          "ìĽĮ"
        ],
        [
          "Ġê°Ģì§Ģ",
          "ë§Į"
        ],
        [
          "Ġê·¸ê±",
          "¸"
        ],
        [
          "Ġë³´ê¸°",
          "ë¡ľ"
        ],
        [
          "ĠëĬĲê»",
          "´ì§Ģì§Ģ"
        ],
        [
          "ĠìĿ´ìľł",
          "ê°Ģ"
        ],
        [
          "Ġê³µ",
          "ë¶Ģíķł"
        ],
        [
          "Ġìĸ¸ìĸ´",
          "ìĿ¸ì§Ģ"
        ],
        [
          "ĠëĦĺìĸ´",
          "ê°ĢëıĦ"
        ],
        [
          "Ġë§´ëıĦ",
          "ëĬĶì§Ģ"
        ],
        [
          "Ġíģ¬",
          "ê²Į"
        ],
        [
          "Ġëĭµëĭµ",
          "íķľ"
        ],
        [
          "ĠìķĦë¬",
          "´"
        ],
        [
          "ĠíĴĪì",
          "¢ħ"
        ],
        [
          "Ġê°ľë°",
          "ľ"
        ],
        [
          "Ġë¹ĹëĤĺ",
          "ê°Ķìĸ´"
        ],
        [
          "Ġswit",
          "ch"
        ],
        [
          "¨",
          "ìĸ´ëıĦ"
        ],
        [
          "ë",
          "Ĳĺ"
        ],
        [
          "Ġ",
          "'"
        ],
        [
          "Ļ",
          "ìķĦ"
        ],
        [
          "Ġì",
          "ľł"
        ],
        [
          "ìĿ",
          "ĳ"
        ],
        [
          "íķĺ",
          "ëĭ¤"
        ],
        [
          "ĠìĿ",
          "Į"
        ],
        [
          "Ġìķ",
          "ķ"
        ],
        [
          "ê°",
          "ĻìķĦ"
        ],
        [
          "Ġëĭµ",
          "íķĺê³ł"
        ],
        [
          "Ġìłķ",
          "íķĺì§Ģ"
        ],
        [
          "ë§",
          "¥"
        ],
        [
          "Ġë¬¸",
          "ë§¥"
        ],
        [
          "ĠìĽĲ",
          "ë¦¬"
        ],
        [
          "ĠìŀĲ",
          "ìĦ¸"
        ],
        [
          "ĠìķĦ",
          "ì¹"
        ],
        [
          "Ġê±",
          "´ì§Ģ"
        ],
        [
          "ìĿ´ë",
          "ĭ¤"
        ],
        [
          "ĠìŀĲìĹ°ìĬ¤ëŁ",
          "½"
        ],
        [
          "Ġë§ģíģ¬",
          "ë¥¼"
        ],
        [
          "ĠëĦĪë",
          "ŀĳ"
        ],
        [
          "Ġì¤ĳ",
          "ìĭ¬"
        ],
        [
          "ĠíĿĲë¦Ħ",
          "ìľ¼ë¡ľ"
        ],
        [
          "Ġêµ",
          "Ĳ"
        ],
        [
          "Ġì°",
          "¾"
        ],
        [
          "Ġë¬¸êµ¬",
          "ì²ĺëŁ¼"
        ],
        [
          "Ġëįĺìł¸ì¤ĺ",
          "ëıĦ"
        ],
        [
          "ĠíĨ¤",
          "ìĿĦ"
        ],
        [
          "Ġëĸ",
          "¨ìĸ´ëıĦ"
        ],
        [
          "íĺ",
          "¸"
        ],
        [
          "ĠíķĺëĬĶê±°",
          "ê°ĻìķĦ"
        ],
        [
          "ĠìłķíĻķ",
          "íķĺê²Į"
        ],
        [
          "ĠìĺĪ",
          "ìĭľ"
        ],
        [
          "ĠìŀĲìĦ¸",
          "íŀĪ"
        ],
        [
          "ĠìķĦì¹",
          "¨"
        ],
        [
          "Ġì¤ĳìĭ¬",
          "ìľ¼ë¡ľ"
        ],
        [
          "¨",
          "ê·¼"
        ],
        [
          "°",
          "ëį"
        ],
        [
          "´",
          "ê²łìĸ´"
        ],
        [
          "½",
          "ìĿĦ"
        ],
        [
          "½",
          "ìļ°"
        ],
        [
          "Ģ",
          "ìĿĦ"
        ],
        [
          "Ħ",
          "ë¦¬"
        ],
        [
          "Ĭ",
          "¹"
        ],
        [
          "į",
          "Ķ"
        ],
        [
          "ķ",
          "íķ´ìĦľ"
        ],
        [
          "Ĺ",
          "¬"
        ],
        [
          "ł",
          "¤"
        ],
        [
          "Ġì",
          "£¼ë©´"
        ],
        [
          "Ġë§",
          "¥ë"
        ],
        [
          "´ë",
          "¥¼"
        ],
        [
          "Ġë§Ĳ",
          "ìĹĲëĬĶ"
        ],
        [
          "Ġí",
          "ĭ"
        ],
        [
          "Ġí",
          "Ĭ¹"
        ],
        [
          "ëĭ",
          "Īë"
        ],
        [
          "ë¥",
          "¸"
        ],
        [
          "ë¥",
          "´ê²łìĸ´"
        ],
        [
          "ĠìĿ´ì",
          "ł"
        ],
        [
          "Ķë",
          "įĶ"
        ],
        [
          "ìļ",
          "¸"
        ],
        [
          "ĠìĦ",
          "ł"
        ],
        [
          "ì¶",
          "ķíķ´ìĦľ"
        ],
        [
          "ĠìķĦ",
          "ëĭĪë"
        ],
        [
          "ĠìĦ¤ëªħ",
          "íķ´ì¤ĺ"
        ],
        [
          "ëŀ",
          "Ģ"
        ],
        [
          "ìĸ´ë",
          "³¼ê²Į"
        ],
        [
          "Ġê±",
          "´"
        ],
        [
          "Ġë°©íĸ¥",
          "ìľ¼ë¡ľ"
        ],
        [
          "ĠëıĦ",
          "ìļ¸"
        ],
        [
          "ëŁ",
          "½ê²Į"
        ],
        [
          "ĠìĿ¸",
          "ìĤ¬"
        ],
        [
          "Ġì¤ĳ",
          "ìļĶ"
        ],
        [
          "íŀĪ",
          "ëĬĶ"
        ],
        [
          "ĠìĿ´ìĸ´ê°",
          "Ī"
        ],
        [
          "ĠíĴĢ",
          "ìĸ´ë³¼ê²Į"
        ],
        [
          "Ġë¶Ģë¶Ħ",
          "ìĿĦ"
        ],
        [
          "Ġë²",
          "Ħë¦¬"
        ],
        [
          "Ġìŀĳ",
          "ìĿĢ"
        ],
        [
          "ì°",
          "¨ê·¼"
        ],
        [
          "Ġë°ĺë³µ",
          "íķĺì§Ģ"
        ],
        [
          "Ġêµ",
          "°ëį"
        ],
        [
          "ĠìĥĿê°ģ",
          "íķ´ë³¼"
        ],
        [
          "Ġê²",
          "ĥ"
        ],
        [
          "Ġê²",
          "½ìļ°"
        ],
        [
          "Ġë¬¸êµ¬",
          "ëĤĺ"
        ],
        [
          "Ġë³´ì",
          "Ĺ¬"
        ],
        [
          "Ġë¬¸ìŀ¥",
          "ìľ¼ë¡ľ"
        ],
        [
          "Ġë¶ĻìĹ¬",
          "ì¤Ħê²Į"
        ],
        [
          "Ġì°¨",
          "ê·¼"
        ],
        [
          "ĠìļĶì²Ń",
          "ìĹĲëĬĶ"
        ],
        [
          "Ġë§ī",
          "íŀĪëĬĶ"
        ],
        [
          "ĠíĽ",
          "Ħì"
        ],
        [
          "Ġì§ĢìĹŃ",
          "ìĿĦ"
        ],
        [
          "Ġëĭ¨",
          "ìĸ´"
        ],
        [
          "Ġë¶Ģëĵľ",
          "ëŁ½ê²Į"
        ],
        [
          "Ġëª¨",
          "ë¥´ê²łìĸ´"
        ],
        [
          "Ġë§Įëĵ¤",
          "ìĸ´ì¤ĺ"
        ],
        [
          "ĠìłķìĿĺ",
          "ë¥¼"
        ],
        [
          "ì£¼",
          "ë¡ľ"
        ],
        [
          "ĠíĴĢìĸ´ì",
          "¤Ħê²Į"
        ],
        [
          "ĠìľĦ",
          "ì£¼ë¡ľ"
        ],
        [
          "Ġìķķ",
          "ì¶ķíķ´ìĦľ"
        ],
        [
          "Ġë§¥ë",
          "Ŀ"
        ],
        [
          "ĶëįĶ",
          "ê¸°"
        ],
        [
          "Ġë²Ħë¦¬",
          "ê³ł"
        ],
        [
          "Ġêµ°ëį",
          "ĶëįĶê¸°"
        ],
        [
          "Ġì°¨ê·¼",
          "ì°¨ê·¼"
        ],
        [
          "ĠíĽĦì",
          "Ĩį"
        ],
        [
          "S",
          "u"
        ],
        [
          "a",
          "ge"
        ],
        [
          "c",
          "lear"
        ],
        [
          "e",
          "w"
        ],
        [
          "g",
          "o"
        ],
        [
          "g",
          "an"
        ],
        [
          "h",
          "ou"
        ],
        [
          "i",
          "ew"
        ],
        [
          "l",
          "d"
        ],
        [
          "l",
          "v"
        ],
        [
          "o",
          "w"
        ],
        [
          "o",
          "lv"
        ],
        [
          "s",
          "k"
        ],
        [
          "v",
          "iew"
        ],
        [
          "¡",
          "Į"
        ],
        [
          "¨",
          "ê³¼"
        ],
        [
          "ª",
          "»"
        ],
        [
          "°",
          "ì§Ģ"
        ],
        [
          "°",
          "ìĸ´ë"
        ],
        [
          "°",
          "ëŀĢ"
        ],
        [
          "²",
          "Ħ"
        ],
        [
          "³",
          "ìĹĲìĦľ"
        ],
        [
          "·",
          "ê°"
        ],
        [
          "¸",
          "ëĬĶì§Ģ"
        ],
        [
          "¸",
          "ë¥¸"
        ],
        [
          "¹",
          "Ĭ"
        ],
        [
          "¹",
          "ê²¨"
        ],
        [
          "¼",
          "íķľ"
        ],
        [
          "ë",
          "ª»"
        ],
        [
          "ì",
          "½¤"
        ],
        [
          "í",
          "Ħ°"
        ],
        [
          "Ġ",
          "st"
        ],
        [
          "Ġ",
          "un"
        ],
        [
          "Ġ",
          "Su"
        ],
        [
          "ģ",
          "ìľ¼ë¡ľ"
        ],
        [
          "ģ",
          "¼íķľ"
        ],
        [
          "Ħ",
          "¤"
        ],
        [
          "Ħ",
          "ê°ģ"
        ],
        [
          "ĩ",
          "ê²Į"
        ],
        [
          "ĩ",
          "ë¹ĽìĿ´"
        ],
        [
          "Ĳ",
          "ëĭ¨"
        ],
        [
          "ĳ",
          "íķł"
        ],
        [
          "ĳ",
          "¸ë¥¸"
        ],
        [
          "Ķ",
          "ìľĦ"
        ],
        [
          "ķ",
          "Ħì"
        ],
        [
          "Ĺ",
          "ê²Į"
        ],
        [
          "Ĺ",
          "·ê°"
        ],
        [
          "Ļ",
          "ë¬¼"
        ],
        [
          "Ľ",
          "°ìĸ´ë"
        ],
        [
          "ŀ",
          "ìĸ´ìĦľ"
        ],
        [
          "ł",
          "ģìľ¼ë¡ľ"
        ],
        [
          "ł",
          "ĩê²Į"
        ],
        [
          "Ń",
          "íķł"
        ],
        [
          "Ń",
          "ê°ģ"
        ],
        [
          "Ġë",
          "Ĭ"
        ],
        [
          "Ġë",
          "¯¸"
        ],
        [
          "Ġë",
          "Ľ°ìĸ´ë"
        ],
        [
          "Ġê",
          "¹Ĭ"
        ],
        [
          "´ì",
          "¡Į"
        ],
        [
          "´ì",
          "ķĦì"
        ],
        [
          "ss",
          "age"
        ],
        [
          "Ġë§Ĳ",
          "ë¡ľ"
        ],
        [
          "Ġë§Ĳ",
          "ìĿ´"
        ],
        [
          "ìĿ´",
          "ê²Į"
        ],
        [
          "Ġëĭ",
          "¹ê²¨"
        ],
        [
          "ëĬĶ",
          "ëĭ¤"
        ],
        [
          "Ġí",
          "ĳ¸ë¥¸"
        ],
        [
          "Ġí",
          "Ĺ·ê°"
        ],
        [
          "ìĹ",
          "ħ"
        ],
        [
          "ìĹ",
          "Īë"
        ],
        [
          "Ĥĺ",
          "ê³ł"
        ],
        [
          "ë¦",
          "°ì§Ģ"
        ],
        [
          "ë¦¬",
          "ê²łìĬµëĭĪëĭ¤"
        ],
        [
          "Ġëĭµ",
          "íķĺë©´"
        ],
        [
          "ëıĦ",
          "ë¡Ŀ"
        ],
        [
          "ë©´",
          "ìĿĦ"
        ],
        [
          "ê¸°",
          "ë¥¼"
        ],
        [
          "Ġíķĺ",
          "ëĬĺ"
        ],
        [
          "íķľ",
          "íħ"
        ],
        [
          "ëĤĺ",
          "ë©´ìĦľ"
        ],
        [
          "ë³",
          "¸"
        ],
        [
          "ë³",
          "´ìŀĲ"
        ],
        [
          "Ġì§Ģ",
          "ëĤĺë©´ìĦľ"
        ],
        [
          "ĠìķĮ",
          "ê²łìĬµëĭĪëĭ¤"
        ],
        [
          "Ķë",
          "ł¤ë"
        ],
        [
          "Ķë",
          "²Ħ"
        ],
        [
          "ĠìĽĲ",
          "íķ´"
        ],
        [
          "Ġë°©",
          "ìĭĿ"
        ],
        [
          "Ġëĭ¤",
          "ìĸĳ"
        ],
        [
          "ĠíĮ",
          "Ĳëĭ¨"
        ],
        [
          "ìŀ",
          "ĳíķł"
        ],
        [
          "ĠìĦ",
          "ŀìĸ´ìĦľ"
        ],
        [
          "Ġê·¸ë",
          "łĩê²Į"
        ],
        [
          "Ġëı",
          "Ļë¬¼"
        ],
        [
          "ĠìķĦ",
          "ê¹Į"
        ],
        [
          "ĠìĦ¤ëªħ",
          "íķĺê³ł"
        ],
        [
          "ĠìĦ¤ëªħ",
          "íķ´ë³¼ê²Į"
        ],
        [
          "ĠëĮ",
          "Ģë¡ľ"
        ],
        [
          "ĠíĮĮ",
          "ëŀ"
        ],
        [
          "ĠíĮĮ",
          "ìŀ¥"
        ],
        [
          "Ġì§Īë¬¸",
          "ìĹĲ"
        ],
        [
          "Ĳĺ",
          "ê²Į"
        ],
        [
          "ĠìĹ",
          "´ë¦¬ëĬĶ"
        ],
        [
          "ĠìĹ",
          "Ńíķł"
        ],
        [
          "Ġw",
          "e"
        ],
        [
          "Ġw",
          "as"
        ],
        [
          "Ġê³",
          "¨ëĿ¼"
        ],
        [
          "Ġê³",
          "³ìĹĲìĦľ"
        ],
        [
          "Ġì¤Ħ",
          "ìĹ¬"
        ],
        [
          "ìĿ´ë",
          "©´"
        ],
        [
          "Ġìª½",
          "ìĿ´"
        ],
        [
          "ĠëĤĺ",
          "íķľíħ"
        ],
        [
          "Ġë¬",
          "´ìĹ"
        ],
        [
          "Ġê±°",
          "ìķ¼"
        ],
        [
          "Ġíİ¸",
          "íķĺê³ł"
        ],
        [
          "ê¹",
          "ħ"
        ],
        [
          "Ġyou",
          "r"
        ],
        [
          "Ġë§ŀì¶°",
          "ìķ¼"
        ],
        [
          "Ġìĸ´ë",
          "ł¤"
        ],
        [
          "Ġc",
          "hat"
        ],
        [
          "ĠëĦĪ",
          "ëĬĶ"
        ],
        [
          "ĠìķĦëĭĪ",
          "ìķ¼"
        ],
        [
          "ĠìķĦëĭĪ",
          "ìĹĪë"
        ],
        [
          "le",
          "as"
        ],
        [
          "ìķĪ",
          "íķ´"
        ],
        [
          "ĠìĿ¸",
          "íĦ°"
        ],
        [
          "Ġë³´",
          "ìĿ´ê²Į"
        ],
        [
          "ĠëĬĲ",
          "ë¦°ì§Ģ"
        ],
        [
          "ĠìĽĲìĿ¸",
          "ìĿĦ"
        ],
        [
          "Ġë¬¸ìĦľ",
          "ë¥¼"
        ],
        [
          "Ġê°ķìķĦì§Ģ",
          "ìĹĲ"
        ],
        [
          "Ġì¶",
          "Ķëł¤ë"
        ],
        [
          "Ġë¬¼",
          "ìĸ´ìĦľ"
        ],
        [
          "ĠP",
          "leas"
        ],
        [
          "ëŁ¬",
          "ìļ´"
        ],
        [
          "Ġìŀ¡",
          "ê³ł"
        ],
        [
          "Ġìŀ¡",
          "ìķĺ"
        ],
        [
          "Ġdo",
          "ing"
        ],
        [
          "Ġëĭµë³Ģ",
          "ëĵľ"
        ],
        [
          "Ġê¸°",
          "ë³¸"
        ],
        [
          "ĠìĤ¬ìļ©",
          "íķ´ì¤ĺ"
        ],
        [
          "Ġëįĺìł¸",
          "ì£¼ë©´"
        ],
        [
          "Ġë§ĲíĪ¬",
          "ëĤĺ"
        ],
        [
          "tt",
          "ing"
        ],
        [
          "Ġì²",
          "Ńê°ģ"
        ],
        [
          "Ġë¶Ģë¶Ħ",
          "ìĿĢ"
        ],
        [
          "Ġs",
          "hou"
        ],
        [
          "Ġs",
          "olv"
        ],
        [
          "Ġìĸ´ìĥī",
          "íķł"
        ],
        [
          "Ġre",
          "view"
        ],
        [
          "Ġë°ĺëł¤ëıĻë¬¼",
          "ìĿ´ìķ¼"
        ],
        [
          "Ġa",
          "re"
        ],
        [
          "Ġa",
          "sk"
        ],
        [
          "Ġë²",
          "ĶìľĦ"
        ],
        [
          "Ġëģ",
          "Įëł¤"
        ],
        [
          "Ġëĭ¬",
          "ì½¤"
        ],
        [
          "ĠìķĬ",
          "ìķĺ"
        ],
        [
          "Ġìŀĳ",
          "ìĹħ"
        ],
        [
          "ĠëĬĲëĤĮ",
          "ìľ¼ë¡ľ"
        ],
        [
          "Ġìĸ´ìĥīíĸĪ",
          "ì§Ģ"
        ],
        [
          "Ġìĸ´ìĥīíĸĪ",
          "ìĿĦ"
        ],
        [
          "ĠìŀĲë£Į",
          "ë¥¼"
        ],
        [
          "ĠW",
          "e"
        ],
        [
          "Ġme",
          "ssage"
        ],
        [
          "ĠíĨ¤",
          "ìĿĢ"
        ],
        [
          "ĠëĤ´ìļ©",
          "ìĿ´ëĿ¼"
        ],
        [
          "de",
          "a"
        ],
        [
          "Ġì¤Ħë¡ľ",
          "ë§Į"
        ],
        [
          "ĠT",
          "hat"
        ],
        [
          "Ġë¶ĻìĹ¬",
          "ìĦľ"
        ],
        [
          "ĠìĿ´",
          "ê²Į"
        ],
        [
          "ĠìĿ´",
          "íķ´ë"
        ],
        [
          "Ġìĭľ",
          "ìŀĳíķł"
        ],
        [
          "Ġìĺ¤ë¥ĺ",
          "ê°Ģ"
        ],
        [
          "ĠíķĦìļĶ",
          "íķł"
        ],
        [
          "Ġëĭ¤ìĿĮ",
          "ë¶ĢíĦ°ëĬĶ"
        ],
        [
          "ĠëĮĢ",
          "íķ´"
        ],
        [
          "ĠëĮĢ",
          "ê¸°ë¥¼"
        ],
        [
          "Ġìĥģí",
          "Ļ©"
        ],
        [
          "Ġìĥģí",
          "ģ¼íķľ"
        ],
        [
          "ĠìĥĿìĦ±",
          "íķĺê±°ëĤĺ"
        ],
        [
          "ëĦ",
          "·"
        ],
        [
          "Ġor",
          "gan"
        ],
        [
          "ĠìĤ",
          "°ëŀĢ"
        ],
        [
          "ĠìĤ",
          "´ìķĦì"
        ],
        [
          "ĠìĿ´ìĥģíĸĪ",
          "ì§Ģ"
        ],
        [
          "Ġi",
          "dea"
        ],
        [
          "Ġë°Ķê¿Ķ",
          "ìĦľ"
        ],
        [
          "Ġìŀĺ",
          "ëª»"
        ],
        [
          "ĠíĽ",
          "Īëł"
        ],
        [
          "ĠíĽ",
          "Ħê°ģ"
        ],
        [
          "Ġn",
          "ow"
        ],
        [
          "Ġë§Įëĵ",
          "ł"
        ],
        [
          "ar",
          "t"
        ],
        [
          "Ġê°Ģì§Ģ",
          "ë¶ĢíĦ°"
        ],
        [
          "ĠìĭĿ",
          "ìľ¼ë¡ľ"
        ],
        [
          "Ġë¹¼",
          "ê³ł"
        ],
        [
          "Ġëĵ¤ìĸ´",
          "ê°ĢëıĦ"
        ],
        [
          "Ġêµ°ìĤ°",
          "ìĿ´ë©´"
        ],
        [
          "ĠR",
          "ight"
        ],
        [
          "ĠìĿ´ìķ¼ê¸°",
          "íķ´ëıĦ"
        ],
        [
          "Ġë©Ķëī",
          "´"
        ],
        [
          "Ġíĸ",
          "ĩë¹ĽìĿ´"
        ],
        [
          "Ġê·¸ê±",
          "´"
        ],
        [
          "ĠëĬĲê»",
          "´ì¡Į"
        ],
        [
          "ĠìĪĺëĭ¤",
          "ì²ĺëŁ¼"
        ],
        [
          "ĠëķĮ",
          "ë¬¸"
        ],
        [
          "Ġë¶Ģëĵľ",
          "ëŁ¬ìļ´"
        ],
        [
          "ĠìĿ¸ìłķ",
          "íķĺê³ł"
        ],
        [
          "Īëł",
          "¸ëĬĶì§Ģ"
        ],
        [
          "Ġê·¸ìª½",
          "ìĿĢ"
        ],
        [
          "ĠìĿ´ëª¨ì§Ģ",
          "ëıĦ"
        ],
        [
          "ĠìĿ´ëª¨ì§Ģ",
          "ë¥¼"
        ],
        [
          "ĠìĿ´ìĸ´ê°Ģ",
          "ë©´"
        ],
        [
          "Ġread",
          "y"
        ],
        [
          "Ġread",
          "ing"
        ],
        [
          "Ġë°ĺë³µë³´ëĭ¤",
          "ëĬĶ"
        ],
        [
          "Ġì°¨ë¶Ħíķĺê²Į",
          "ì²ĺëŁ¼"
        ],
        [
          "Ġë°ĽìķĦ",
          "ë³¼ê²Į"
        ],
        [
          "og",
          "le"
        ],
        [
          "Ġge",
          "tting"
        ],
        [
          "ĠíĻĶ",
          "ë©´ìĿĦ"
        ],
        [
          "ĠëĶ",
          "Ķë²Ħ"
        ],
        [
          "ĠíĴĪì¢ħ",
          "ìĿ´"
        ],
        [
          "ëĲĺ",
          "ê¸°"
        ],
        [
          "ĠìŀĲìĹ°ìĬ¤ëŁ½",
          "ì§Ģ"
        ],
        [
          "ĠêµĲ",
          "ê°ĲìĿ´"
        ],
        [
          "Ġíĭ",
          "ĢìĿĦ"
        ],
        [
          "Ġì¤ĳìļĶ",
          "íķľ"
        ],
        [
          "Ġê²½ìļ°",
          "ìĹĲëĬĶ"
        ],
        [
          "Ġë§¥ëĿ",
          "½ìĿĦ"
        ],
        [
          "go",
          "ogle"
        ],
        [
          "Ġst",
          "art"
        ],
        [
          "Ġun",
          "clear"
        ],
        [
          "ĠSu",
          "re"
        ],
        [
          "Ġë¯¸",
          "ìķĪíķ´"
        ],
        [
          "ĠëĽ°ìĸ´ë",
          "Ĥĺê³ł"
        ],
        [
          "Ġê¹Ĭ",
          "ê²Į"
        ],
        [
          "Ġíĳ¸ë¥¸",
          "ë¹ĽìĿ´"
        ],
        [
          "ĠíĹ·ê°",
          "Īëł¸ëĬĶì§Ģ"
        ],
        [
          "ĠíķĺëĬĺ",
          "ìĿ´"
        ],
        [
          "Ġëĭ¤ìĸĳ",
          "íķĺê³ł"
        ],
        [
          "ĠíĮĲëĭ¨",
          "íķĺëĬĶ"
        ],
        [
          "ĠëıĻë¬¼",
          "ìĿ´ìķ¼"
        ],
        [
          "ĠíĮĮëŀ",
          "Ĺê²Į"
        ],
        [
          "ĠíĮĮìŀ¥",
          "ìĿĺ"
        ],
        [
          "Ġê³¨ëĿ¼",
          "ë³´ìŀĲ"
        ],
        [
          "Ġì¤ĦìĹ¬",
          "ë³¼ê²Į"
        ],
        [
          "ĠëĤĺíķľíħ",
          "Į"
        ],
        [
          "Ġë¬´ìĹ",
          "ĩ"
        ],
        [
          "Ġìĸ´ëł¤",
          "ìļ´"
        ],
        [
          "ĠìķĦëĭĪìĹĪë",
          "Ħ¤"
        ],
        [
          "ĠìĿ¸íĦ°",
          "ëĦ·"
        ],
        [
          "Ġì¶Ķëł¤ë",
          "³¼ê²Į"
        ],
        [
          "ĠPleas",
          "e"
        ],
        [
          "Ġìŀ¡ìķĺ",
          "ëĦ¤"
        ],
        [
          "Ġëĭµë³Ģëĵľ",
          "ë¦¬ê²łìĬµëĭĪëĭ¤"
        ],
        [
          "Ġì²Ńê°ģ",
          "ìĿ´"
        ],
        [
          "Ġshou",
          "ld"
        ],
        [
          "Ġsolv",
          "e"
        ],
        [
          "Ġë²ĶìľĦ",
          "ë¥¼"
        ],
        [
          "Ġëĭ¬ì½¤",
          "íķĺê±°ëĤĺ"
        ],
        [
          "ĠìķĬìķĺ",
          "ì§Ģ"
        ],
        [
          "ĠëĤ´ìļ©ìĿ´ëĿ¼",
          "ëıĦ"
        ],
        [
          "ĠìĿ´íķ´ë",
          "Ĳĺê²Į"
        ],
        [
          "ĠìĥģíĻ©",
          "ìĹĲìĦľ"
        ],
        [
          "Ġorgan",
          "ize"
        ],
        [
          "ĠìĤ°ëŀĢ",
          "ëĲĺê¸°"
        ],
        [
          "ĠìĤ´ìķĦì",
          "ĺ¨"
        ],
        [
          "ĠíĽĪëł",
          "¨ê³¼"
        ],
        [
          "ĠíĽĦê°ģ",
          "ê³¼"
        ],
        [
          "ĠëĬĲê»´ì¡Į",
          "ëĭ¤ë©´"
        ],
        [
          "ĠëķĮë¬¸",
          "ìĿ´ìķ¼"
        ],
        [
          "ĠëĶĶë²Ħ",
          "ê¹ħ"
        ],
        [
          "a",
          "l"
        ],
        [
          "c",
          "i"
        ],
        [
          "c",
          "og"
        ],
        [
          "e",
          "n"
        ],
        [
          "e",
          "ch"
        ],
        [
          "e",
          "bug"
        ],
        [
          "f",
          "i"
        ],
        [
          "g",
          "y"
        ],
        [
          "i",
          "ge"
        ],
        [
          "i",
          "fi"
        ],
        [
          "l",
          "ts"
        ],
        [
          "n",
          "o"
        ],
        [
          "n",
          "er"
        ],
        [
          "n",
          "ize"
        ],
        [
          "n",
          "ce"
        ],
        [
          "p",
          "on"
        ],
        [
          "q",
          "ue"
        ],
        [
          "r",
          "t"
        ],
        [
          "s",
          "u"
        ],
        [
          "t",
          "er"
        ],
        [
          "t",
          "in"
        ],
        [
          "t",
          "ell"
        ],
        [
          "¡",
          "ìĭĿ"
        ],
        [
          "£",
          "°"
        ],
        [
          "§",
          "ķ"
        ],
        [
          "©",
          "íķ´ìĦľ"
        ],
        [
          "¬",
          "ì"
        ],
        [
          "®",
          "ê²¨"
        ],
        [
          "¯",
          "¼"
        ],
        [
          "¯",
          "Ģë¡ľ"
        ],
        [
          "´",
          "ê±°"
        ],
        [
          "ê",
          "·¸"
        ],
        [
          "ê",
          "º¼"
        ],
        [
          "ë",
          "²Ī"
        ],
        [
          "ë",
          "ıĻ"
        ],
        [
          "ì",
          "¤"
        ],
        [
          "ì",
          "ĺ"
        ],
        [
          "ì",
          "½Ķë"
        ],
        [
          "ì",
          "§ķ"
        ],
        [
          "Ġ",
          "6"
        ],
        [
          "Ġ",
          "lear"
        ],
        [
          "Ġ",
          "bug"
        ],
        [
          "Ġ",
          "que"
        ],
        [
          "Ħ",
          "ìĸ´"
        ],
        [
          "ħ",
          "Ķ"
        ],
        [
          "ī",
          "ëıĻ"
        ],
        [
          "ı",
          "¬ì"
        ],
        [
          "Ļ",
          "ìĬµ"
        ],
        [
          "ľ",
          "¡ìĭĿ"
        ],
        [
          "Ŀ",
          "ì§Ģ"
        ],
        [
          "Ġì",
          "ľ¡ìĭĿ"
        ],
        [
          "Ġë",
          "¯¼"
        ],
        [
          "´ì",
          "¤Ħê²Į"
        ],
        [
          "´ì",
          "ĺ¨"
        ],
        [
          "an",
          "s"
        ],
        [
          "st",
          "ion"
        ],
        [
          "Ġë§",
          "Īì"
        ],
        [
          "íķĺ",
          "ë©´ìĦľ"
        ],
        [
          "´ë",
          "©´"
        ],
        [
          "Ġë§Ĳ",
          "ìĿ´ëĤĺ"
        ],
        [
          "ìĿ´",
          "ê°Ģ"
        ],
        [
          "Ġëĭ",
          "¤ë"
        ],
        [
          "Ġí",
          "ı¬ì"
        ],
        [
          "Ġíķ",
          "ĻìĬµ"
        ],
        [
          "Ġë§Ĳíķ",
          "´ì¤Ħê²Į"
        ],
        [
          "ĠëŃĲ",
          "íķĺëĬĶ"
        ],
        [
          "Ġíķĺ",
          "ëıĦë¡Ŀ"
        ],
        [
          "Ġìĺ",
          "®ê²¨"
        ],
        [
          "ĠëĦ",
          "Į"
        ],
        [
          "Ġë¬¸",
          "ëĭ¨"
        ],
        [
          "Ġìłķë¦¬",
          "ëıĦ"
        ],
        [
          "Ġìłķë¦¬",
          "íķ´ë³´ìŀĲ"
        ],
        [
          "Ġì¢ĭ",
          "ëĭ¤"
        ],
        [
          "ĠìĤ¬",
          "ëĬĶ"
        ],
        [
          "ìĿ¸",
          "ëĭ¤"
        ],
        [
          "Ġì§§",
          "ìķĦ"
        ],
        [
          "ĠìĦ¤ëªħ",
          "ìĿ´ëĤĺ"
        ],
        [
          "ĠìĦ¤ëªħ",
          "ë³´ëĭ¤"
        ],
        [
          "ìĦ",
          "¤ëªħ"
        ],
        [
          "Ġíķľ",
          "êº¼"
        ],
        [
          "Ġë³",
          "Ģ"
        ],
        [
          "Ġì§Īë¬¸",
          "ìĿĢ"
        ],
        [
          "ĠëĤ",
          "¨"
        ],
        [
          "at",
          "a"
        ],
        [
          "at",
          "e"
        ],
        [
          "at",
          "ter"
        ],
        [
          "Ġìĥ",
          "Ī"
        ],
        [
          "ìĿ´ë",
          "ĬĶ"
        ],
        [
          "ìĿ´ë",
          "¯Ģë¡ľ"
        ],
        [
          "ìĹ°",
          "íķĺê²Į"
        ],
        [
          "Ġë¬",
          "´ê±°"
        ],
        [
          "on",
          "tin"
        ],
        [
          "Ġìĭ",
          "¤"
        ],
        [
          "Ġìĭ",
          "ł"
        ],
        [
          "Ġë°ĺ",
          "ìĿĳ"
        ],
        [
          "Ġìĺģ",
          "ìĸ´ëıĦ"
        ],
        [
          "ĠI",
          "f"
        ],
        [
          "ĠI",
          "t"
        ],
        [
          "ì²",
          "©íķ´ìĦľ"
        ],
        [
          "ĠëĮĢíĻĶ",
          "íķĺë©´ìĦľ"
        ],
        [
          "Ġc",
          "om"
        ],
        [
          "Ġc",
          "ontin"
        ],
        [
          "ìłľ",
          "ë¡ľ"
        ],
        [
          "Ġd",
          "ebug"
        ],
        [
          "Ġd",
          "ata"
        ],
        [
          "Ġt",
          "hat"
        ],
        [
          "Ġt",
          "ra"
        ],
        [
          "Ġt",
          "ech"
        ],
        [
          "Ġê¸",
          "¸"
        ],
        [
          "ìļ©",
          "íķĺê³ł"
        ],
        [
          "Ġì¡°",
          "ìļ©íķĺê³ł"
        ],
        [
          "Ġë¹",
          "Ħìĸ´"
        ],
        [
          "Ġìĸĺê¸°",
          "ëĤĺ"
        ],
        [
          "ĠíĴĢ",
          "ëł¤ê³ł"
        ],
        [
          "ĠìłľìķĪ",
          "ìĿĦ"
        ],
        [
          "ĠìłľìķĪ",
          "ê¹Įì§Ģ"
        ],
        [
          "ĠìĤ¬ìļ©ìŀĲ",
          "ëĬĶ"
        ],
        [
          "Ġre",
          "cog"
        ],
        [
          "Ġre",
          "su"
        ],
        [
          "Ġa",
          "rt"
        ],
        [
          "ĠëĤłìĶ¨",
          "ì²ĺëŁ¼"
        ],
        [
          "Ġê°ĢëĬ¥",
          "íķĺëĭ¤ê³ł"
        ],
        [
          "íĥ",
          "Ŀì§Ģ"
        ],
        [
          "Ġin",
          "tell"
        ],
        [
          "ë¥ĺ",
          "ë¡ľ"
        ],
        [
          "Ġme",
          "ans"
        ],
        [
          "lo",
          "gy"
        ],
        [
          "Ġìłģ",
          "ìĸ´ì¤ĺ"
        ],
        [
          "Ġì§ĢëĤ",
          "´ìĺ¨"
        ],
        [
          "Ġë¬¸ìŀ¥",
          "ìĿĦ"
        ],
        [
          "Ġë¬¸ìŀ¥",
          "ìĿ´ëĤĺ"
        ],
        [
          "ľł",
          "ë¥ĺë¡ľ"
        ],
        [
          "Ġë¡ľ",
          "ê·¸"
        ],
        [
          "Ġì£¼ìĬ¤",
          "ë¡ľëıĦ"
        ],
        [
          "Ġíķ´ê²°",
          "ìĿĦ"
        ],
        [
          "Ġë³´ì¡°",
          "ë¥¼"
        ],
        [
          "ĠìĺĪì¸¡",
          "íķĺê±°ëĤĺ"
        ],
        [
          "ĠìĥĪì½¤",
          "íķĺê³ł"
        ],
        [
          "Ġëľ»",
          "ìĿ´"
        ],
        [
          "íĺ",
          "ķ"
        ],
        [
          "Ġì¤Ģ",
          "ëĭ¤"
        ],
        [
          "Ġp",
          "atter"
        ],
        [
          "Ġë©Ķëī",
          "´ì"
        ],
        [
          "Ġíĸ",
          "īëıĻ"
        ],
        [
          "ĠìĿ´ìľł",
          "ë¥¼"
        ],
        [
          "Ġëª¨",
          "ëĵľ"
        ],
        [
          "ë¬¸",
          "ìĦľ"
        ],
        [
          "Ġge",
          "ner"
        ],
        [
          "ĠíĻĶ",
          "ìłľë¥¼"
        ],
        [
          "Ġproblem",
          "s"
        ],
        [
          "Ġìĭ¬ìĭ¬",
          "íķ´"
        ],
        [
          "Ġdog",
          "ëĬĶ"
        ],
        [
          "Ġdog",
          "ê°Ģ"
        ],
        [
          "Ġê³łìĸĳ",
          "ìĿ´ê°Ģ"
        ],
        [
          "Ġê³łìĸĳ",
          "ìĿ´ëĬĶ"
        ],
        [
          "ĠëĲ",
          "ľëĭ¤"
        ],
        [
          "Ġìľł",
          "ìĹ°íķĺê²Į"
        ],
        [
          "ĠíĬ¹",
          "ì§ķ"
        ],
        [
          "ĠìĦł",
          "íĥĿì§Ģ"
        ],
        [
          "Ġë¬´ìĹĩ",
          "ìĿĦ"
        ],
        [
          "ci",
          "al"
        ],
        [
          "en",
          "ts"
        ],
        [
          "ige",
          "nce"
        ],
        [
          "ifi",
          "cial"
        ],
        [
          "no",
          "logy"
        ],
        [
          "pon",
          "ents"
        ],
        [
          "ë²Ī",
          "ìĹĲ"
        ],
        [
          "ì½Ķë",
          "Ķ©"
        ],
        [
          "Ġlear",
          "ns"
        ],
        [
          "Ġbug",
          "s"
        ],
        [
          "Ġque",
          "stion"
        ],
        [
          "Ġë¯¼",
          "ì²©íķ´ìĦľ"
        ],
        [
          "Ġë§Īì",
          "ħĶ"
        ],
        [
          "Ġëĭ¤ë",
          "£°"
        ],
        [
          "Ġíı¬ì",
          "ľłë¥ĺë¡ľ"
        ],
        [
          "ĠíķĻìĬµ",
          "íķ´ìĦľ"
        ],
        [
          "Ġìĺ®ê²¨",
          "ë³¼ê²Į"
        ],
        [
          "Ġë¬¸ëĭ¨",
          "ìĿĦ"
        ],
        [
          "Ġíķľêº¼",
          "ë²ĪìĹĲ"
        ],
        [
          "Ġë¬´ê±°",
          "ìļ´"
        ],
        [
          "Ġcom",
          "ponents"
        ],
        [
          "Ġcontin",
          "ue"
        ],
        [
          "Ġtra",
          "ce"
        ],
        [
          "Ġtech",
          "nology"
        ],
        [
          "Ġrecog",
          "nize"
        ],
        [
          "Ġresu",
          "lts"
        ],
        [
          "Ġart",
          "ificial"
        ],
        [
          "Ġintell",
          "igence"
        ],
        [
          "Ġìłģìĸ´ì¤ĺ",
          "ëıĦ"
        ],
        [
          "Ġpatter",
          "ns"
        ],
        [
          "ĠíĸīëıĻ",
          "ìĿĦ"
        ],
        [
          "Ġgener",
          "ate"
        ],
        [
          "ĠíĬ¹ì§ķ",
          "ìĿ¸"
        ],
        [
          "Ġquestion",
          "s"
        ],
        [
          "¡",
          "ê³ł"
        ],
        [
          "¤",
          "íĸĪ"
        ],
        [
          "¥",
          "ìĿĦ"
        ],
        [
          "¥",
          "ëł"
        ],
        [
          "¬",
          "ëĿ¼ê³ł"
        ],
        [
          "¯",
          "ìĿ´"
        ],
        [
          "²",
          "ĺëŁ¼"
        ],
        [
          "¸",
          "ë¦"
        ],
        [
          "¿",
          "ì"
        ],
        [
          "ì",
          "ĥģ"
        ],
        [
          "ì",
          "ĥī"
        ],
        [
          "Ģ",
          "ëĭ¤"
        ],
        [
          "Ģ",
          "ëĵ"
        ],
        [
          "Ģ",
          "ìĥī"
        ],
        [
          "Ĩ",
          "Ģëĵ"
        ],
        [
          "Ī",
          "íİ"
        ],
        [
          "ĭ",
          "¬ëĿ¼ê³ł"
        ],
        [
          "Ķ",
          "ê°Ģ"
        ],
        [
          "ķ",
          "ł"
        ],
        [
          "ľ",
          "ë¶ĢíĦ°ëĬĶ"
        ],
        [
          "Ŀ",
          "ê¹Įì§Ģ"
        ],
        [
          "ł",
          "ë§"
        ],
        [
          "Ġë",
          "ªħ"
        ],
        [
          "Ġë",
          "ĨĢëĵ"
        ],
        [
          "íķ",
          "´ë³¼ê¹Į"
        ],
        [
          "´ì",
          "łģìľ¼ë¡ľ"
        ],
        [
          "´ë",
          "ł¤ë"
        ],
        [
          "Ġë§Ĳ",
          "ìĹĲ"
        ],
        [
          "Ġë§Ĳ",
          "íķĺë©´"
        ],
        [
          "ë¡ľ",
          "ìļ´"
        ],
        [
          "ìĸ´",
          "ê°Ģ"
        ],
        [
          "Ġìķ",
          "łë§"
        ],
        [
          "ìł",
          "Ī"
        ],
        [
          "ìĹ",
          "Īìĸ´"
        ],
        [
          "Ġë§Ĳíķ",
          "ľ"
        ],
        [
          "Ġë§Ĳíķ",
          "´ëıĦ"
        ],
        [
          "ĠìŀĪ",
          "ëĬĶì§Ģ"
        ],
        [
          "ĠìŀĪ",
          "ìĸ´ìĦľ"
        ],
        [
          "ĠëŃ",
          "Ķê°Ģ"
        ],
        [
          "íķľ",
          "ëį"
        ],
        [
          "ìŀ",
          "¡ê³ł"
        ],
        [
          "ĠìĦ¤ëªħ",
          "íķ´ì"
        ],
        [
          "Ġê°Ģ",
          "ê¹Į"
        ],
        [
          "ë§Į",
          "íķľ"
        ],
        [
          "Ġì§Īë¬¸",
          "íķ´ëıĦ"
        ],
        [
          "ìĸ´ë",
          "´Ĳ"
        ],
        [
          "ìĸ´ë",
          "¥¼"
        ],
        [
          "ì¤ĺ",
          "ëıĦ"
        ],
        [
          "ĠëĤĺ",
          "ëıĦ"
        ],
        [
          "Ġh",
          "i"
        ],
        [
          "Ġê±°",
          "ëĤĺ"
        ],
        [
          "Ġê±¸",
          "ë¡ľ"
        ],
        [
          "Ġê±¸",
          "ìĸ´ì£¼ë©´"
        ],
        [
          "Ġê±¸",
          "ìĸ´ì¤ĺ"
        ],
        [
          "Ġíİ¸",
          "ìĿ´"
        ],
        [
          "Ġì½Ķëĵľ",
          "ëĤĺ"
        ],
        [
          "ĶĶ",
          "ê°Ģ"
        ],
        [
          "Ġë¨",
          "¸ë¦"
        ],
        [
          "ì²",
          "´ìłģìľ¼ë¡ľ"
        ],
        [
          "ĠëĮĢíĻĶ",
          "íķĺëĬĶ"
        ],
        [
          "Ġê¶ģê¸Ī",
          "íķ´"
        ],
        [
          "ĠìĿ½",
          "ìĸ´ëıĦ"
        ],
        [
          "ĠìĿ½",
          "ìĹĪìĸ´"
[...]
